da89395dca3056c20fb7092674660bb59084cfe0e97878023faadd19c3327e719afb94d10e309f146c46b4947056b61391078c0a0799ea0c1ade21649bd5e14b73b8185d1c5378996c5ad73065a83fd51eb38e38b927d2810ed0f4db2a9fd4de99dd3b2eb52184a84178b33e65acac6d49b599b31aa9ac46cfaf7bfc4d1e7640b89193e26249cd509336b85449b09e5d59e0d7e590a8e4c1e232ab258733bf454e0819daa8c92f3e4b585c4e0fd36d0fb9c66bba27de9211fb0b995edaecf8f3a11f190501023ec32928d378dbbc1aa19244a5b049e69979a3667e2d2175c8b61c8afe24393d6e6a5df28227da94fe09af3b30b642e8fadad3d71247eb2ab713
b00875917405a1565af047fc2cf3645f2c49ccac7b0ac507bc5540670b334746a8ce2f458d8989f6ac063045b2deeb34a45a2f18a8d01c1b603fd4d583c61dc6aca2e34c469e00e8b0e634df6a1a27cbf9759fa40281859a49156cef34ded0da057265bae429504d5c7dce280f69bf110895d8fe81b54d425e39c3491a1359400981ddf230b4d6d614fe2723a4b4aebe202c06ae55683962c89fe6b45caecb1517387ec35a277afa3a87f2a6e33ce5ffbc3adf294e6d6bc3b365742c5548660679d6df22afce2682c41fea98c39c7a3aea42e75f2b5eccd305bfbec826496ceb948184f050132c11d760953a8e44f2439ed7951bd04452c97c560dbe9d8d5ec9
0df08f60cc642f5fc748cf04496029bf835b254fdeb5f92aa2ab4ece0483119209da9fc9a4bad1a2ab5f827d5eaf3622cce13cb46559fbedb711cd283398f8ea6ba0a25ed3101d9c9c8e2238b3ad7bbd71fdb9e552646eba3ee39a45f4f8b076fa0c354d87ba5485833cfefb8de09cda80b00595c0a0d7a3b0b1b94ca6276389f7e587a3037571b89cabf88774287c3c9f06f16f4eb9d002c7b59f79c29cf09cfcc584f6c8e93e35f21c6a0fba220013bea584bee1328d4f0fa88597ab00ca7469fccc0d8e147ce382d32a6b523ed34e80efc28a5998b4eac1e6af31229165361c7ad671fe7de626bebd577c564b7e39ebaf3d4479351b5e4aa4db69660439ef
b795164c9bca9b3c0952ce7db8bf83b353e3982562dbeea7f64ddd24e24d6f8b3380582f32c33c0462260f560f1a7397134ddc7499ab9cbcd8d7a1b2e968518a40321f37f1cfc56aa48427071746a11c347bf99018559bb5e42cf4b42c8da5a18501bf3dd076ef77afeadb7e95571943e35b6e31a5e79dca9b5c859ad10645936888c3526d9e884af0e00a34c23487991e6992e3a5711dce6b1f0f44da5851e41245de825466406742d5f6a36a813dff932ebf2800a4df0d05367d547638b812356558dfcf49bc9c70c35561c8b54a9c371f785edc937acd0b158e7ccaaf37f1018bc29ec8720d75bbef7c8d4893320e2af0f9c4b19adb2eb3c2dccb611fee0f
9e6971bb925add41b6a9834c52bddd9b766a085415da0ae0f3b4e52382abda1fbb0db7d99fe033a23e97313501ac3f12a11a00eb783b33994cf3697e8e502afce281459b2adc97130af336e893d3694d54434744dd0097e33b17bb5771084d1c359c4b492eafb5f4be938885fe19e7c5a22a0fabf998a54729de82cabc3608cff5ec5e882dad2e5dbe0e1a60bcf4570c2b3f0835de598db26d8e8ebd2c189326c237b9b4aa6be3f8caa8661b492a016147075f669c5d4a45212a2d4b93498c88ba6625ec8a2de122ce4752add0872cb6476cae14878f6f35f19e06bca49674ef1a9e6443f37ee4e52b173ab8ea734dbeb5b4c56027e2a5793ac860b89613264a
3c139151483709d74a00684929a7b9f54c003e4d83e185b3e21dfd28ddf610aa4410d557485526d9174d9b0af3294d4e9cf49b82c3d276c60d8ce4c4384107ea64c7d1256186f753da48ae883cd579156b6c9e2da90b0e0787ce9159cb5eb359c50bf93b606bbe8ed3d1ad05b81944f1458957bd017c64a98f05bf118491a4fc3fa0be21a3a33d6aad2f0b6cb3bfebf3d025f06a9387693b1f5853b4809371b5cd7aad4eb3b176a1b7d0a8eaa443f49ca64c13d454bf3fe0f0cde131683fc90d9893d500365081a282fc913b592f498b284990063228016c45778ee1182a22b53e8a4d4a1e45baaef8c7d1759e7545cb37b9c5f2509ccbf13df0225a569aa4e2
d107c5b43cc4735e3a49f03f83b45d1e25db7c1d701af8dbfc2484f94692ce1ec5a5505ef92d7c1fdc7b080344449dbac19af86233cc4ddcc79839e928f2259200f733064aa2fe2f63239fe6e118f117e79e53c82e94dd9c43bdd7db14c9d4799ea55d00f3198910cb5d05d9598eb409eff743482a94a31f14dbd80fcd2071af5a37e8d161a68c6d6eea2f99bef5ace96e015f17f69b34f19a747c70da30de52bbc99d0ae0304cbe1209611f1709638780633005216adcc75dab0c5827c8311de75a82670c7e0c7a3f5df4094b5b3e4afbc24215679afc60ab98bcfc690f06ccd57a699a799292e78c11d19bd0c7862b69ab4f742367c8510f2f091561c8708e
5202077e326b39d193089116f83999da6b5e58e033a203c496c387243da31977662f0c16bca46e9388d0d5293899d12cdeca3440b5167a3a2ed59f37a7df37b93ff76affe01ad0775424551a7250ed5182d8613281ca49287123f4dc760b9dedd7744eded0cc4e5af137337714efcaf684a87a9baf4f7afc0b74ad073a3e0b5aad3c88aca9bcaa68efb3c609a3c8c142f382e1cf62f23c904a93dd5f8532f81dae71efd89d86e382288ae67ebf024c478a6e1674f9ce3b6f198e7dd14cb08eddd2e5a301ee99f52748af72eda4adb75856cd381e755571dad468e17210bd4c0be8e6a43513c0292e019a2b5de7975985c398dfdfba704014c8f96e96accb099c
3b93fc589c493362214ab69d2f40f3ab8ec013246a582952dd94d6c1ed28f781f9ab21fb05d58fa55d1ffbf6cc6426517c8dde917bffda6eeeea1d1d08b4c7e4872407151775bd6459cc2e2e85ff5fdce47a4eda07cd5cfb5567dae9ee210fabbf5386031c7609b894ed03f083e95744e4ca3802f32941be98e9c35591a7020a5bb08b5ead0c67da81be33dd425d8d8ba07155d28c479a3c8022ec1d14b39c87dcda9e88e7dab8886477fbf557b4a5de5c766cb428273de85ad491d0978f44bb9d38aef0017aacc7185c5dc04d4c3be924b81434bf3b33a5f4c0277d40ccc6245670fa4fcbea4b25ce06733aaf49f4372f34753bd592416afa60e496b134d8e4
8633305079b2814cc4b05bc9f6dc75ab03cb964643983ea52fe32ee6c86bd1230bf4ed878ce2164d9365b367a2016000fc5b9a9e4e6fe4c68794e5249342afc633b26c57479a94f34c5a473d62fe18d116b67d553dbb1c43eaf77a21640b86c4fc9d7308a9eece9bf99b730577a013ba015b9023001009676fb03efdf2dff9b7559c09c775ce0b4b9bdb1f8d9dec1c880341f10f438e5661102f5ccfb145309fdfaae489d460c523f90e862415b9263c6da030b005fa502e9b52c3b637667bba692562af24133ef253014c7024a25fa4d97a6a863151bc7daa531cdf777465ac182a18e3c9cdd9c4c8b40aa4411c28dfa393414f0bfd651ac4da0ef7a9a63071
0266e574f16cfeb2c759bed5c3caa7a15ee267cb4ccadde5d3fd0ad897b10c04e07dab62293b56dd073985129da2d4d1e88af0a707abe21ccdbdf152a816c25e1051f9b34b947659615fbcafd4268c4ab2da86280964701cfd6e90336383ab4940841697a95bf2ce031f3c6146c1af57aa09d0f64fce0f6e7b069c7558534cc62f46525c488802dae2687be2e266d92a253a3157e1025c8176589e4cb73e9402759a0499f9c23d3c6f073aab8fee034f5642c80f923d803d53a3e82e9ce2727763b4e8cd374078d7a55418f82624f9a86f2ef1e39c692e19b1fcd2ffb8d8c5a26e70d4c8e516412563ee63c14017b2dac7f7b06510b6b5e4713208f601beb095
4043aab4d55a6940d710003192bf61e4804bdb411d0768dbdcf0bd88f4b4c4b6421f651d1a92eb997d768e8bc9338f6754f1749c6af472092b6eb9b341b410c406181a4e33b9d90770fa81ca1ead80046fb7cd966cede589f53095cd7e5d79a452c3eb584397a916e46b477887e764e08ff488202093be7cdfe57d4949a24736772a6bf8b18b210d5b470b5180f4f728a087d92108aae90633460a71aa738d4ff5f3418374cfa65fae024d4020aa8905babe3bdc57bfa6893832f3eeddfc722164545930e6bde512df55c2b1e11f5177a4f9ec541cc1369dc606492ac4d8c64ed88a7e4b10e31e675a4aa8c9eaf30b2a9c14fa401072787b0d7c310dfbbdc437
b3b433dece4cd3cffbbdaf580c09b23e47a6e2c3c437928f2e100a02934a98f2c90939055ddcbe8a34656d1c66c2a2bc2f6324eb71a22b2c4312d630a8e4f9c4dda0b16b0c723c648076905503c72eb52c1098544e886546267dacd58290135da6f20dafb8f462c52a3423b915d03246a0e8d7298b487e9eac818a7be691e1654b5d3f63d1eea92d8e1a16567b2605d70f8552137c349ae7f7714078afab3295fe94cf67a99717ba171143d5c195349b878b2f463e7cac06095e2451f0215e2d4160369e26b20d573620078273e38526e8a3e3b9a56447f6ac344df55835dfa39384d9347df55cbd86c1341e28029956a412749ed983d8a934815bebf71bd389
594e35a7aedfaf4ec02ce66fec1a01358ecd751d2a065e79a09119864ab96cdbaaa105df69cf920df25af9cf8884c264425c42c17b2f384ae7c5d73badf02613d614f5f38f9e4d657aff6c77eec03cf952a337e9a1380e754e48a7e57d8e516330a141fa7113871e96e543b2cc08f874ec19f84e12d9623da17ecedf430f2bcc65c43b0c0838f72b88a5e61462e51630f6c58491c4b4042a31d21bd84529dc2503dfb1b586b23ab79df1fa25068efe0df1f5682f92032f428af62aad75d692e74e0a599e7207844d5893b59124b43a4d4e7444981eb88f4db55156fac710c474ce5a85c1c2c831c6000c2582f9dc3fd506a6ac3233939d5a57e97d9d63939757
63f4587b54fb1ed54ce0046fb28d833fdb21e61a3e9641d8aad94c3dd2641ce318b8a531b153ddf7eb7c6ca7cdfa71b9a13a1008a900c423f9980d9829302fb942ce759799aada96fa70acd8fb6db5eeda6ce48d0e8305aaf42e7bc74d8b020100d70fa5124427bd67693a75441450c74d6927fb903e734dfd0c2bbd55ff8a8a0a78f04e119a1ad2aaa6dff0d22e7597b348a456aa9e353013274677669256452bd19f723670ded3b0e6055577a7e28176f6b961203bd04d7b1c2e20909260a87a61d26173f4bba3d9d11a5fd56073664c81babbf7eabeb494617ac3dc8820a3576232df137e4874adeddc7a3a9ad69cc5816f5d5d099a454695723a0dc000c2
f7972e7bc53d3bbed146836235c3af219e6d0671204414df9619521737566259cc5f29a66137a001bafdbea02748f4dc96222c04ad6bfd890221b9e8d12f63117516e6a4ad88d92c6568ab5ef226359116e47d6b95f4db6740ffd185f15ba97cddf99fa323593ec77c499b76d05467e7063404eaea9e46631a960e23f48626cfc7b539934cefbaa8c7371003a7ef7d0873f055c65dccb5b4f4556fe6344ded749882dc641944a7fcdacdf83ed3a2a86614606ca1144bc84757b5845e0acb670d5a13a3c6a3cde6450b1e5a6648fc03e55b700f8e8987cd1f28a26c6324d01291a3c7eb49b66dfa1dfa1f59c32d50f6f2fc5dc7c4fc5c39c8f37a8efd76e68ff7
5dbfbe29dc8d175ebb3d3c20bc78f930f12e05b531ca90e00de49675f65444798880fcdf3ef6d09c77c20dfade5db06ac9be0adb6d39d4b663f6d2558e785ab2573eb412cd76b6f6fc414b20286677a68a938e7d0478b7ec4a6e11f530425bb4eeaaebf5b85e5e260f17fb7dad36e772051d49f1bf1ec928aeea6d6dffb60c59f15c0754df5c135f6759f2a64e426ebd03bc0a146585caf711b89ae730b7c575141e8432f149aa8ba6196c1b5e5a251b06836bf64f84e80f649e116c5a0a3a61f78e1edd65ffa2aa8e261e68ecc38e7c42ff962cd5144744a9c0177568db0c15ac65e7a65381493fc14ad6294820261744dfe262388bcf05d71b92c555c9eec5
98d3d9e0f52df32b792d465a87504453c5d7a98b6c41705d5ae124fc61879dc6e2f4efaa4fa42ecd501ac9d2a3593172bb545d0e3e92588bd97b8032251b972c0f2c69f7efc1beab926623beccd816f78a866139098f52492ea94b9c36181e1e710131d574ae31b1f74885bc308ccefd8d346d7baf9f50588a23c70188be4c6070e7746e1090ece910f2725cb3762124e4413f68d87658a2686d413ea267e26c6e75145ad4a6d1b185d75bdaa34974d6195986bd5bb5fc06e40cf32024566c63b9a536e3a6e4ff5fa25584467633272bd8b9a0c174de5b6d4cff0c8854c451ca873d92c4dae44589ca887cab91ef7ccd51d78e496756110d20029973623b4c90
9430fb60abe91910ef52f4c840a1555468ff757c5a35507b859d1bac60f73a115b2f18e70bc4ccdde0c75746bd03018aacffcb9e8b137b2c50ca1158ab5606d0ea82bce1f416e92954dd56050a6eb9aa2c66e6d3e99d31d939e2d0146bbcdd799494b21fc847b5d2ee1e2590f367e92697c2a5cd29ea4abab470ff3872b4bcd01a2d467df5e72dbdb461e7a790cd652bd759c9d7dcbe3c9153129e0c96da4f93098597c915cb2c9ce583d434e3ccffe0ce8ad210a18dc1a4936d6ec222d4f4bd061f906ae44741b9ddbe86db263823bf2ee0e0d1fc5870ef3430283ad5c160ca7ddfb4b46bb28ae95fd2724bf2b1735993702dd796b01069f85af4dd24ce3c4e
b58b252a8f728c3edee32dbe8b15b65758944f2242254fcaad27dffd7af078dba17a6e651ea6c718da2ecae2341af26874be9c7c24c87d8f19a13918c52dad6a36587681b4ed1735b87c908c3fa5c37d18bc8b7c340f8bed829c034c3aec4b5dd59bb751900d2473ce701c1b32e94a9132506235705001711594bb7daf7c6125491593e2300cbc077c07b54d52e06db85ad74fc8d009069d99d6f145b19aabdcb3eb7a7b08b06f30c09b7e383f2f1c6970a1f9e99011f4366b5e0efe32580e1fcdc0ab219b07e8a7969846ba21418d2dc62a8a42e016ea340eae3e38aacfdbf0c36432b570c5555b1bc2eec7e32df51a48c798eb02d7feb23c8b8c83a9352bf8
d828cdbf21a632e201bed062515bc5228ab945caf7879477b2da89512eb2b7885a585bb2efb4652a358fe3c3df1c55c5312fa69e4c731c902ad67863bd2d4f28d7ef45f912f7bf99673e5d44a3ae5350d80f7e7a83ef27d9ad4152b7983c79f706c40c87bc5f5b78072b788974c0c3c5718c0db6087d0c8b3680fa9a5e877aa259903804eddccf00ecc687a40efff36404aed49a09252f4ee75661355b2e19c8990f48d0571a3b32dda66676addbae5be2f2984e05a3449277b8b4e592af92bc7107b65d44e24fcc17f942be2413deedcfc7e8aa752d4356d47485f8f10a3c761867ca3d8f3697e92f6b273508d5e183f9a7850fa07e4cec569b6f07203ffe3a
5b8aa51312375719877ade49e21d5ae30e58ee3daf8b8a9e01651b2ea1ea07c1bfd483313929ed48de4c71f5a4d464c75f6f0a162193cf1c46bdd69d76910e2c9bdb8a166bd3894d02130bc5111740bf100dcfcebae5c38850b0aefa46f1c41fe6d094f4d948c7f5800035528f2c4484c8852399d8688abfd199552c734e06a1261326a2afcc07a38bce80ba23990f3f6ba1e1c13caecea0b4e327b8b4c8408620f7214b1d34f248ab2fc324cc6f81d6562330ba70e86693528c2acf899c4ecdb49d8e787ba535dd86d53837e3d7cb4975d027e352049a11667ab57e2242ef57afbc1ff49e8aab6c9ff0f58a0e649931d6dd466d7b3808fcb3b2a8d4c44101a0
f410d772be8e4d3d67da5d2785c398ac786acb19dffbc8df44c81f37fdcc05d0a4b279c40d216ee19607f868caf7e1300e21444f19566ce3867884266ea3260f2f309e15cdc670e996fdf701accb3312a272529d15eebc89153e8c23480243e35c85d3f228791e5224c8e655ec4c93a91990c7bdaf9091580a2ace5c88eed01900abb538b100a946a2c94e2cefb95469bf1aeb07af3c8bbb46d5a59726f7724000a5a32723366399c67bea4592f0e7729e1b83215b14629e17e4ab9f301e67870bdeb016c6e948bac979dc998561b59e138935b067534b8904b4bcc69925720e22913c1231223fa2b0652d8a5928ba0866ba007e3b2c83b0cc12907a03c9d93c
ca50aaf075ab6e061c962e269b4a1681297d51b4e2eb2fec9219323792c07da391a2fd43f7aff262bb7e5489a669a64fce4b6e1c9181330d816cdbf1edbc2009a0fbc67344c4ebe82b88b6339ff0dac22e0d8896a370d5ed4cb5b3e1ec04a1c04f79dd1363d6d9916e806a25f4159aa9eed6a8c0fed542d4d1e1c3300e18fac99069d1a770894ec96468c0ce590030d3d5357d756f5181bb2ff784bff15d17cb938414d7028e5d8b7af97072314fe4a30ec039466f6ab968903f843876e5e5dbe99ba5dc96a1c0be4be74d09a2f98e14960f7597993584d1b9e5597049529b6b70431ae2dd137a361ba34b4194605754f508867517d6d41ba1ec7cd844180ac1
202f9f76f8ee7c28267b8a13ec461e0ebaf7a8f726603f46bad536ffc9e8b2154a12be74819680f471f176fb3442b5b78c4ed44992360d80ce41dab701f2a7a2201f65e5960153317c346ce8b6b50dc3842f65cf440789ab178226f02756c12ab37be09f9d079573a1eb4e3decf0946cbaa8ffae222a9d1ea58f240ae89b150e6fae5b2cdcffde25a52293aabbad7886e0e5f6b50283205ede25f8509a79aca772f09ec16a45acf0ae2a6b16946de8dd8b5716fb496708061b3e7a9892ea795d9a5a854db10261b2b0031b4453cc34d6f28d9df2f11bf24ada70c184e9f5442c82eeedddfa650b440e7a1c2ca7f5919156fa59b2392049b86da41410f42d3c34
6ff52a21f1fd0679e009da9a8ac9939b89c2ae18dc5e539376dfb7fbb3efe045454a631a2ada8c9edfe1643c74da279df8223920a6b0954a8ce517263c68c4e54390fbb0cab1c4ce11b498bdf46b255e7395b2dde37c771091e03398531a506eefd8cd89ba35b8d3a939d8c778a57a186c17e5c5097de1b2cc3d07325d19724ddef6a6d090dbaf78c9598aa9070be8c8c69e860bfcb0dcd3fe9c52d7e859f80f1603e53923fbf6f61c4113fd52325eca6772bec35ab2b8533072da609a3a62eced8d0f2ac164b6913951dc660cd3b636104a9c492dd02585d4747219b692f43212afc9430154bedc88fa0fde0137edbd1b5a267c1ba105d1d4fc19ad947219d0
c5d47d2d22efef8b3cf07a36c4fb2329e088f45c05f36e5086992e3ef153d00cd8e35b423c804123c5cf81c31b72a7da23079cadfa47bc8a9b9b6bc85d2d92d672bf93f8fa69fa918dc702a6f0911b721bd86e0d2963e9ada59f924b9508206e40de48515cf8454c3ba49c7de3c18cd463364668b7d5d731a4ef58c46401676e3efbd6df1bf613f2256410d89d13aaf5b53541c8cc11f557278c359a241f95a2bdc4a0129be21d4669ed30c94b0489fd648e0891ff13a593e398f549aaffaa8a53c51d302da0951090af47086c728c366874859609d548354c2afcac13fd4e1557ab7aefafa990647e95f79475c83bd76c44ac8c53d0af11adef863e5ae7e8a9
ed777d2809cbaebfb2975a1893b4619f5e9d0eb201cacce0c48c333499d08d75511362c5e976421fb3de8c72595718eb89b4bc20f1c9e31008099684386bb2fbbe8cd264ddbf9f6ea21b0e7cb00f6ffeb589403ae1ca8abe6e9c3979067e6f95cdcb0e82ecb0d9463fa86813793795591ed46159afd38165f68639725c72152eba14f0481953b807694c0d0d2c461e69d08351ada8a6c4b181b82ec30386d08bf0dd14bf644812b7f3d8495ac3347cfcc7d192ab465886fb90e3533be4fe463507f0196f26caa20ac290ffcf63b676d1f50003910767e5b73aa8fe69e7a41a934dbef4c6d624665b8401d6a40a90e5fe0e9b78613d0e15ccea10e9026d5a3eef
2c0d04a29ccde0d1701683b22958abd04ecd71a1b3adb7a25300f1216647b874f9d7250e2dd782d2c8de732f269d53db8f40b1e54b0cf474411de6faebe7aa091f5c22b135808ee2339d5fb3d27ce40983717cf4ac7a013be5def7879fd132900c609d29c0844dc117241a85f57956dd8ed367d27e352f04ae23f8581206deec0d7a28c0251950a39cea390e45ae4e0120f0485aa9589a3144e482406cae33596175ebc649530a070ae3804c7df72f0accf7385c0d881abade3a13d472053c2d76f9d3e204ab2f9bdf23aa987eece477c3a8bbc5840f648824a5f23d3c7cbecdf4d9196e45a8359801bd56ffd94e8a731d74003590274072b7c086ac87c78b12
2614009d237a04512e243a14c6ef8b0e2f6f36defb29bf49edcababf0b528b49d8e6b23fea8d3100e925dadb58870da31439e71fc43b40f762424e6025e0056aeda0d3833225f28123943624cda53601a4167151619d239a1befe2066f5e9f27e61df8b6d5d1642483e91892986e8ff13e1efaa119fa1bee91fed71bf9b96ab0efca6d2563ec690adcaf1ce109dda206c975d504dcc7b42338666d6e78ef7c1eda960dec3f249ecb1f95ed50e3c38bc03172905da6e12f858b6d58c8a8f909caec8d297b1b34c06e2623125b9bbd57485144d22d5c1074d653bd1a6c1ca2e0c1b9158aa6e2e0039432cbdc6934ce4b3e421453a8cb8b737d44a1b95e31a74507
fb3017df328acc3504b6dcd9c4ca8f820a5f763e54c29e2e80e8fd2e35e30eef17830a64752118b8bc9b10d9553616653906647d0a0a1ad429e12d4b0cbc46d8e6d82c54caf153d91fa26a85eba7b4e2705aa1d64aa3260b07c7f126ae24ec2f1e4a86e75d84c2284fc21e2723cadb116172b6cc2363e9b2709a24ee3f431fd53f4b3de8cc3aea3f0c53cee1c90086249b173fe6e5a53842bf209f06168ea30dbb07fd7e4b52f148745995f774de755283995e57252d6521d12a0cea31af041f261633bad8f3eabea44d775e7a808e19c6fd28286413f979a66f84f560b57c53326ec6e80546abc80187693cdd13ab7ad08b6c1298cc1cf65c4c2e443a62e7a1
6bf4421376457458ea1d632f180b8f4dbc17244c7af475693220184c06690214e1e0550ecd382b879bc445d4892fd9db88176842ec2f504be7adc67b0985cb0696691dbc2402e4676681729b86ca5d66755ef464548c5d031251c3eb52926c55c699b0ff33018400dae1426faac47891b9e8a097ffa403e1ac9c760a07e425d1cd9b998f38deefa48563f9ab57661f9b62236c071e7d7957a5ac527afb8dd7b08f21f7c2d19b151fa08d093682796f543fa6048768641d4521ff41c61ee7dfe225ad1fcd6f010a518f1d4535c1bf50bf563af7fd54e8e6186d4bd3596479c81c9e6cb29b9bf44a7dad63a95774daf7727c63bb53e86860d3b1aa674133a40335
e3b6b5be377147700e008ec0c8b63408bc4ab32475d6e22be93e2ab5bb71b5b88a20ea2aff7a463585dd0c81308f17bb45428d48282e852bb68014c631dd3650306fa32f993a808518ccc3953b694bfdb000bb6de6e427b07d7e34cd8462d1d7a56e5b2552f39f53f7e2e923626786d7725f481999d3bad0e6c0b54f7189c1059e8598f5760beb0cf60e4e29af2bb69be74cef78f0db2aa60124ab46497656415603bafe32305b4ebd46788d7325fe7ae688fb249181a13935968ea0f5d6a7e6db625ec4d6f7ac3243a62af15cb4de1f3042bd12ebc9eda167cd12b352afe138403170411c2b2ea3dfb1a95647a17bb051335a1f713caf9b8fffa70be8bb702d
52065c62eaaf4deb11506966595ee1b50be94fe0d8467b6d47b8ff3efd81085f217491fac2fd797041b9190822554c4987eea6ee6602f54bd21998a61103c650ca2a2ec49e6ea02b8869f3e9f49390be6bd6b73b53043ee82099796096378ab7a19f5b84fa435543e512edd2a9c2c1f4192155b0658e166bc209b3c288a840d5469ac8c2a581d8b2a68e5e651c86ff7cc4dd091f5315e4273471933073693f92a5df8969614efa69dac4bdbfd12b7aa7b410a4b57d487ee51f53a1600fbe3fc8a016e4b02a82ea5cbd2f0ff4064db5c177be391f71bb190ba70d775e5944e924d26e34545c66b02324b4e632e5a776deb665ff2e177b2994c5a279dd6d271fa5
ed411dc5b64cd213ebe7c668fa4224cf59fe6fd1730132cc54d22a510f4a042a6bc452e0e0b39327c208d18cc96a05fc29d34a992e2a0c57024765e1bbad1570fa6af99cfb6b567c0fe4d9668b8bd930e552a4239dd0e5220efb7adac6e16f19ea44faeb84d2dc4cfde4dc5a18d4e0913b2288aabe61ee5d22bdb551beaf584cfb9a8049c1cf9da64989e9790083bb616fe1e7f5907e6f4a482b5bd187ade7352f1f1f4cadb7e44f8fdf15a42954931cfc3a8776736cffbbbda9afb3adf11af63c957b9b4b289b8e5fa0f92983aab5eb2dab6a09a8bf54228cc81108e711aab23e670f83792f7ac2d8d6db97739254a6a0c6f42c99bbcb065da9e1bd1d2f15d0
96e4ff62bac9db62997377389a4cbdcf7df1effe89875b5a8725296a52c6a7ddb36d10b671179d383c0a6f3b3aacdf4c1cc79c660554469748de25f07e56b08be83b20bee4a3601a107077fdd266f4e6b7d9b228c7320e213e2747506843470a2cbe77701a4e45b83b603e2235d19ab72996217878f14f3cabff36c4e654b69242074473963b8cacff7e2865ff120b67d08837004605b434f5c1454a866fe6cd43e399a8accff0743a3df90ac285cc2c10508765763114e9e791080434f7fbe7294da281bb5bfab03d9f2af9122611ca88e95017a96efab68666d1bb039a52c67e344db76062fdfc57122bbf980f032ada4ec89e704f2f6de7c1d3e7b067eff0
26e8ee57a3a821782bd29d441752066c41c00ad0039505c0ee70cc9966fde4ee9c2d82fedcbc0622d37df6cf546728160da74ecc1b97fc369266345070aada2e6e5908a891c2956e77d842bc7b50372534f6ebaa01dbda4fb6e915024ce9db980862f6d68ec168730aba114e63edcc6874895ff41afa7161e8d4ce614d6c1a901d3999c6607a80cc0f90882b92f682e94c5bd0579b1add090f52bca6226f595ea7befd8a10d2d2a1dec37b410b3d75aaeddb661054f188008b511b219f47d88ecac9be28cf363ae72fb459f0474eec556150d99340751ee33cd286bb0d09f4d749616f67f84242f707d54e46bd4edce4be334453e80b58f64c63b2c5c14585df
9609c0904a39d2761d492af5903d1e86eae759acc13ea83a05e5de58432e9fda646c22fd7b5fa32bec84a73dddd9494b794772db40557d2c5c141f4fb0c73a7ecc9d63c0fc124b282394f32231d0f35e98e8dcd83e6a16424714171052b155323b3687fa808f45a77b3a59be75511a9e2dff99dc140265579cfa28ccd1ba646b74ae1af90074b379bd6457eace04577149c7eacaaaf8c83c47d35b0c18b125c23fddd4fa47d3df73aba140e630f9436a023faafdc2f4adfcc9318d3806ff33fa3ae0afaec320f52bd86eb4e36e8bfd2dacce7c8d71bee00feadb69ae4732453611154562c8ad57442551921a070026c60f935df2ddad08e9e2498f89dcd34ac1
f56b5774ddfec306a3c5e820a66df49ad0e2ad481290bbb3033f3ed470c04c17eacb659ddfab2792c6a5648db2386153e7da0979e6fe8624e8f8d122ce2b8106b66c3c74cee6a6d43e406d47979f05872554c3cc0eebef34fd2bfd38103e7e2554738b8d5dbfb42bc987ca462e334370765e4592b3c3ae83a46416b8faf36c451d6e00534125d6b6093b52e07ee2e34610b32445358536364d5adb4c06088a9029f4abd1b49f0c6cc0f63c464e86ad49dc673a985e23483c71f1308af84b568c193682eaef5a5b972194a1945118218de2a63e3b5f72668b6953a63e6e6f36d77e778da224fe10c29e68b1066dc8e583dbf02f82a6e5c12a494cf9ed70719795
e733bddef3933428b4bb2e2ff0232e856b5452069752313844334f962a613efaf83947ffb74007f86aba82591c6de5a895212818b9e04b77c4c4904b0a92107d641f4bc615aa0a1da2a42af6a0eed47a37d4689053955f5dbdbd1f17be34ac35beb1a1824aed9ff7c8c3a9c1a8dbfb0b16f157da32fc60d512b986cc9e1827e1a46c09a0328f930f5f5cd7efe44281cf033fd70cb368631ded98ce5ba032439200cf1bb66b0f0698c5120a0e6c2c2e1c250b5fb17d17f58e20ba4fde1a673fce24045f392d76394c808cdaedca646bfe9ea2e4cfd9cc566cbb7acbef53c5afd6d111b6183579ee9d770881fd7c6da0974a58ff4c963d6de74612071d00669473
f02794201dc6cbce4badf49d7d2aab88ea7aa32a8f4eeef0ecd2f463828f88bbe88223dd5bd49c851d41518702cae24b53ec41d6445cc05a1e1257f31b6b9b49dce102498cbfcbb09660ee468c91fa3551d43ae57c68da36e7ed859fe42e01c47ad8b1f9f13f7b352a24b99798dfb1bfcc01205f25775f2d81728c27df520f132f979dec9b2c6f7158b6ce149a7a01513c6df3d576dd81631af29766d0cebab602e89495d79b67eb2c1dc1a2ada80f563e3e9a548de7c01033339c701b85543fc9d9fa11993b44af30f5c348df40187b2edc95438eab392d99b6abe836a8763a76dc89e634e387884b4980da38eb8bf9f8b8885a84ccc9de4cea63cd84e91884
df72c9c67b0e44cb5ae751a08e60ca34e25fe7cbedef8535374d49e18bdf6e204e1e94287da7b3def249aadb261e0ba3abc34e71ba734acf6b1f459be1d935f6d33d606579eebf6645e59093926d7294873c234f2a16908855d7956dbaf7e825e58e5d1f8ab72f35c839030850f8bf4576f041c433eb8fbac219a6e1f986c29959bf15e3b6f94548485a6b0486efdfbd9285375b7153c30989845eebeef6d7486781bfd1e16cf68e4648240698dc8853cea1860ccf4990aed190f620cb3b168e6f5a00473af76e268bb0146ec2cd066f3228896df2a2b76d1206b48417d36b1d056b14e7d52b68f2ce244a5969cc0cf224428fc1d1c7baa2820aaf899c4c8114
0d1ed6d6c73a784f6469893a9d4e3770a143d7da3b0d7a3f2d4dd12ac956784155eac34f54fe7e1a21d8200aceee830c4416be25d0e081048bd2436d5533e8cbe47c2ba0b14ca3ef510010838c636e267e21adfb07a3a9d1b21dbb97d6a3b9c576139b63bc0288bda4c281c4de0ba3e428806600e0d0150f3297b08539c21e97e2922f9dfc27a200319a3ccfd2e7f510daf05214f82d29b3f1fb8790c910d94aa56afbf959ce7807123c4e47ac00db249d6d8bcf8fb4639ef0d254838871339b7bfe225162bc2c05df610651e47a58d8cac2963e9a19d7e1be300126df16f00b24089cdebc14858a1bbb6df84a8701ff7e7c052b6709a754ccd264479a6fcae5
c86c3172e7d02c9420429028f9308ea928898c133aaaf7454096867142090e6719875e8a781646375953eb8c646ccaebc38861c488a5b745164657f3fab26d39082981120d8d5b22208e1ff4b3494f28a66930d2ec415666af6af1673c201184bea239eb03980740a26ac924ef639da6c7bad7fce644980c9e6afc4e6ec8fe078ed347dad94bfc7a5eac3d24e36ed8fd0aa04c390621bc4940374220e3fd9e8ac52bd864d3b5d017cda11c5ed8d4fc83ba5c0228452ee847dc1ca90b0698334ddaad9cf8889acd6c8749e837136f132b93ac19a6a03868860898edf77097f537b82f77951bd6ca74501369e8752bc88035b0d0a707007a27d120dd6f9ab26377
6a0a8f742e934fac6e1773bdcaec41c2c047fec931033648cd7d49909f43ea4c548f1f8de442713f850696a24967886440515aef4c6b7e3fc5b5d8615b11c8e77754ea5fe4e1261f37caa42e03d3bfd365c8510b1695daf7c56e5adb948772b6a709ef52e976d07b7a2248f79c4021f02b96f6297158cb9b764a8e5482bb675355dc4de6cfc6e7d168aca9dd7b1d4ee4b3edb4350da957779e137a7ed514f69896ad415e95703ca8d790f9f27ba42b2be439e3ce734e71566a2577555b55df2920f90ecc4b8ea16beb01591a479bd1f79f4142d75c3760be26bdc3918f8e1d477c1464eed22a23379e8197832c73806141e7d04a8c27ea84d7c8106fada9ae90
ab97dc8b4dc1770e7d95a503cfc550d67c85c4a4e884ade530bd81aa39832e8cf16bf5eed8a0da459604175b675a21dc02ba2ecb8c9c01ac5cf69779efc947386ae8eff3e568c9f104d15dd4a1ad39264ebc89f376733a581d3aabe8632a88f88459ac88014e965b6306f5d8601d5a908f1eb5b73bf026aa82f7aa64f1681ddcbc31372e2f91c28418f0f1af7df275e38a9407c37bade2ebd9937b8a90e133fd852878e81c28b828e2aa2e886e5f35be6f06471d0a921e1e1bca0f10ca707aaafef36bd566e435b345234dda67da03c56ca47cf5719020224e04b2381bde45320f41a66930133f81a4b599e424cfdd46391b982f51b5033884a7ca4963a277e5
dbac5b24e9323c1f43c782de627d4b2f3c7a97558b37e929ff0f3af5cc2488d15272a5a20dbb6ce77c57cb9b9aeec3bcde8df975dcebae131c445446bb584b6b68dd898a8196582f809d2caca685d6a609962df69d7eabe6726f6a4407e38dabf12e63fd2a1e933efad9dbd74f3a8fb6f7f0c5a47bba3b5ff8f83355af62cece4c1aaa8f3df256ae75a08dffc6dfa28742edaea2899d8a91b5f8dbc69d33d92d39d806dfa9f4081ae2984403310e265a7a041b1d5536b9039032d4794fcf7a21dd07de5a11ce88adb395115d9298d6d230a51a235b35ec85a0395b607795c0d424284390028551a7004adb73d72bbf1decfcd867403a85a53cc403f390aace10
c9fd46a787c762040074c643aa9afea1bf2c647811e701e68e99456df5253bd69b543d7622771155010aa3723d92f70d1a68b22e049df080be78089ea8dafefdcc813b17424c561f1ab0e293afc2208feb9cf78bcfd67068a64eedd2b178304c269d7385f6ef82677919764b08ef097c7c8ef83e6ba6df3d73b080253181f66ac8a1b0eb352968f3233ad91c68e94c28e65d44fe5b85615bf1c49db967662f085df010d9c939c064695b5f3e2c1b03cc309fbdd46441462d26fe4961ae23b958476a7915bb97952c40b6c11f47c84738c615ecc012cdbc1981053291d2b76981c816adbd0718d806cde6f2648d42c6c3e82e74724e703ffbf2f7bbc1c4821889
e299c995ffd741ddaa66c9e6a53a7df1bf91baca6084c6fcbf3df1ceeb9f4d01cc0cb0cbf41d58bfc0803bc35bb746af85455c0890b3968da68a9527328ae1e235484bd62ddc5705e3f41cefc183a90b12529ba94c52b919fbb8f071250a8b9fc68fd0e3e40431ea996c35fb310596da96917d7d19cfb1cf5f1b6d79f569397df18a582cf9ae3c0e4c4aa6123237173d31fd65b1cb419936680e3ec624a734109402d7a36e1630511b9132e1861374b5ab98a92713e1d2d50e5426abf4808734fd65c9e6a344c692059a71ebf3c6888a6b79db7698e5bbd69f3c619a0a943d244d3c00282ea4f6625f2a5357baeee1d0c785963323b5c84f2e023b0c59a0481b
7c1436a52a2d83fec65c7a949c5c4f4f5f40d3e40ed1c11b7c4af910427d7e3f665cd5d9f4f25f41e339a70a5cff6a8c810527effeed9588b5983a08a376ec97b6f8dbf1f3e60c452bd7d58d3fb8646bbe185f02d4567bc1e7b6cddc6f5b1f5f59257112e7d41d9b54e681feea7db074b6c7c9b1882e654e67985390cb4b216df42b75b36c37a82e2b0ef0b7e707162bdbdf13c13d8fbf6c15a23f292a522ba78187bfb172fc1c6ea56468f02f2c37265ccc4297b6c4d21d4972bd99aeb0d580e2078cdbb83080a4fa2c46e40ffbc9f3593041ea08ea4b58076c78035e5d690171d50dbda0c48e2f8bee279c2b401afd749b70fb3ce6ba27fe6d956fedd03433
7cd242d4743682d229ab1c9e6d0c519e627afd2d48d550729a3231fd55e46eb09725dcea69b667a130b9e14fa38d5e5650ba3b1e19a65fb48e1639d873845932cf3eca66f7e92b51e06a20c0011897bb60936967be3eddd5190c1c7ca753f50be21161914181fe5299aeb7f28f11486c30c11183134152eab3c99a7302dde4be575936ead158d5a8f5fa45f11dd9806de70a580911d85770e235b8157e2904e0b37aa45252e773041e6663be51cbfdded4c7b2284854b80ef0e10cd784ee0c881b15b019f115aecbad10f6318e0dfe5cbf217abdf077cc8e61a16028a0eaba2d7e25eea96beac82d0a082fc42e8f8a2eff7cb964a2c521de44af7ae2d32a5370
7182fa6bac32307e85b0adcd1631bf382b020eb7eeabe7121de209f852f36c9e9988dc9b837ac1c565e39c6e5cba34fd1f9732b312ff28d321fbe12f5bf9c6ba211de330405d8565e7c0ae88de8a814d2aa8a31b01dc997491d3b830c026d95bfa157d0de56b0ecf7daa1e3b3585b355363b63dcd91d91b813457839255880cf2211f8776b88069980622310d4c3ac1166e9895eb1ba752020bddabb186b8135413ff3883d7bd9e0b7644ee11e1a6c09ecb9b54a72f151a78a76de0a5ab592479a7bb7e753bc8d3016c70f5161101fb5e213aa2b4cc1d6591962f2c86a12660b8d98c774606f810d137e9f9c481457abd79f20507035f27c41994e6bfa4d2376
4e52afe3644cafd3adf222a06f32110afc627a21ed745b774f638522abeb0b36969df4d15872877aa242cebdca5b159b5dd8beb527323444e3bf2803c6a1da2fff03b321f940fa1aad6d0fc40e466fcc5e70bfbb1f26fa20cce588042b60fe27b4b3aeb5d0d3b26904b26639e0b5074ee5136daaa1ff474ae45da79bcc1d644a2991153d78873eb326db77f3cfd3f4bd4ebcd60aa04c722255653759b475e4d433ab12c4ce3685c26d821ef33271b7d4091f9aa54019a2794dd757b27995a7fd5035662cfd463cd16120b3d4bd5f165123609f3d1d95410ad39f233b67a7a01daa2c3197d8352136b7247597b1ee851f4cc6611aba81b1d123f61490bd7ed558
6b40633653148991f81e7db34397370c4c3b823000553801631b669e9c29064f831c2d0dabd1f0f1f48eb4947a7d2935d3b6af0b9b150fcbd1dab829976474759e6d8afc35ace4a19ca5cf4312436bd52592b7c6d9807a54c68b6728460a17f7619fcb15631987627a1bca57455d4bcfd6c154d5084942fa53675c0d2623ec4921b6f86286e4214c4c40b33f79f27c95c616823755db9ba72e690ec9af3f7b43a28dbf5c802ea9a6d71652a661b0581aedc3afeffaf4ffaec86eb526db2df37cc5230fc4d4ac0464d99f28b94d40c2efb77b0e3544e313bcf469856b86a785823aa95e27866cce7a2986857c86120015113ec56d77ebc19f7b1c0b614d16f126
ba668e20f3e9c580cf5444e9ee78946df53694fc6603392b8f0eb05ca42a2499cf174f639e9d29e0f3ea824129d4d2ea3ec6fbcb4009da1ffcbff6b862b1979f88398e21900f6831c18c82782bb2b5a3ec27ddfc216282b434990806fa8572e09d68fd72299c073f0c49087199635008226fdc41053bd4dd78fce283a494dc91ddee5d75c8fc89bc5ec43e32acf9a8d4662ac38a294dd56430b0dbfdf5f8e2ce71dd6f7ab13e96fa80ff097671d8acfc46f3effe5589c0d28a9819e40ab911cdf8b434f9c60b4fb0196e52287c3df4eaf8c1f25eab51cddef6e7c9a8d0a7e59e5393fe8fa231805836a53b20866c369465ed6eb75fb5b32134b4a6f2f231d610
51cdea821ecba890f5888b292f888db830cfd248932c4c5d34f5bc9627d424c2d105792924beb7c8b2089a19e34605e00624ff76618dfb17a26ce8bb9f96c6d1990fdc18f35ac22e53f9f99151f45d913b7c578d515e2853cb61e7521b9f1235fe8a2870a13e37784ce74cba67a32e11d2a1331ace16d12b67afc835fb1ad5b67875bf0f9e6137f49fb20baabd37fd4a4b7d74f67d0cdd47e86488fea7f63a584f9ef1a7e52e933f4c6eb0d5036ddf2d4c922061cd23684283a3302e804d6c88dbf892ee1bc5b67e6efe15b200fd1269ca21bc0a91f22cf5e47036489c863b2123c76cbbf712d25380c889db920619b1e561699693fd6b02f055a2a7d8527688
d086dfe96d40a9c5475687458341e901e7025edc14006f047dd3a81ee46f418bfffa5c069f9ea5020965b247e92e9bcd9e5771c5e9c2179261bce080d0b8224ea5f6fb9bc5bb1a6279797845e297a17a86a33cda2f438403e50a724373d95a21872a87e7e8bfe8914c6669a44b0488604f392954c301279ffd20f7ec6e42558d923cf89a4feae6940c9354b21e03d44a8f4064b37a5dc5d4f87c32f854f954b1883361629470293b45a441ede2a7c48563949cd5ee8b5ba69c175b6c41325fdf1d1539aa70203a26013055463f03e61fc62372ae353c13661b59624ad6a4cbdbe737b24e857d2b3e979113d87aa0174fb0a2890ca5ff4b75dc73f3399aee07b5
ce2a11f670be4b9da2f1e55352ea3a97f6037d14b55979956bc10bdcf98649fb6024054208c2ae5c798b2ad6ad3642b7f55ab625255c603854f194fb9901de00ffa486b2359de9bb8894acbd0331c0dd74264b85c0f95ef74d93523c8ff1a44435123878ad89f747bd1cab78af64d86d8d0a6764e716d8bdecd6a8eff2ef440f47a7d7e298675b2921d59d3f50de740a6388718836e944fb3eded74f12e4fa7939ebdf2fd9b3d8dd7e38314d5615f0b914c2b301dde2d8c940991071fab3865e0829148ca3efee7300c6aa9da3edd716581b37399dd8e3fca1fa9bd015371fc08d850d6164f1e6f94889b713df382d90ed375f780d46fbebffe6172f51cedb42
afe008a231e30c831a9390065e12af07e0183e45ef43fe98cea3f15c622f465bc9aa7685fe6950c8c6b606e523eab0b500e0698068ff9f692b7018b1cc959042d029d6dad63425d084c2620db857ff077ae4740ac093183793844e41f416ab49e17e8e0a8106f622760d1b06ed520145aeb34a47ebfc79ffd79f92628993755cd6d826d09f613b9be8ab2cd1f3658845dae50da7e3dbdf52a5a49196874d8e89622c807c4c5bea672154a519b7eb8b5ba5720d11935cdb5dd290c0bad1ba0959722b2f81c6b104e281fbc5291a86190d9059fa17ebe7dc437cdd93547ee1cf6a568d040a57b46788b22ec22013007706a44c8e08cb59da9a02f133a753a7b15f
983bb6cda799a72471a91d824bf7d4cc23712ecc67ab0729e849e2aae8ceeba28c494b50041e3f3bdb605c6dd3298846af6871ea013e30a58aa4dfc62a19348fc0a696f446ff5b68c08c8395b82d57a6fe91f353c3567235bd88d2338e7ebc4505290c9481458a7089a37978d99d22ab6411164018a79492a6baea0cdca3ef0645f3c2851bba5bb7e684f82290cfd9adbd2ec19d5047b5d8cead43a5caa4f5ac0c901b14a00732026673704c80b0c9346483639129009fa7b5189e455e06b36404370d34dd3db07b9e07c2088d72077a0878d3429e4627b891f45c1d1cd10fac8c31b9eaad55a394ffcffdc0cbd39e88d0d7a081fb0d1b1f475e0cacfe798d87
20d105d279910d6b43988cf85b835551c0934c0dcb0a1b6cf9c9faca0ecf550397baed2e6f29012735cbaa00831a8fb36234bec9819f97a2bec804ef71311f05e71c5451b323f4010b0fc573fbd0e72f9cc1aefc53d8ec3ae59f09150ff9fb4130386853d6a745149d322259d35a1389f780bfc7fef37a113f8dc43ac0f740f2f510dc03f46b764ca3050a085d6eec4086903a50d391fb74b72874fc827a0a3992c5730760177eb83b30c30d6ce1b15783c4bb2151538b97cdc844ef126219ce86f6aa73b569d0dbaec19b88f7a1587737d485b74dbd3fb4447cf9605a67b0e41d5eda293a7ca443958cb5e04de12707627ee17b0a99c9104fdfc7bf2d5f38c8
ab225eabe8a4e7798294e8935b481ef5e05e22308b13fabfc8569426df96e5bd247374385dc0795660c401e7fbce482bfa68304691931c006842b3c61db28198cb79ceed4eb4dc15e5097540cc0435dfb908a14b2eac1a7487180f6efec8e29ac6a381333c153d41bb8e05847eb117705c736b16d05583737a18fd327497877497af9acdab38dd1275d3346045b42308792a105eaff7da1c2aa0b7efcee7485e9a79cd542bb4d071d4476a935cd006feb7dcce22950bcefcab1c309d3b6bbe3730ba6d530ca1eb5f32f6d6474ce924663d5212c5b6ba7eb4ff2fa2c499deea632f4bffe2677ca90a1225b7c3fb069e1510efe6f027fcc60fc4642fda8f7eaee8
0fb04172901e9e378e3ae299fba272f6ddab0fcaed34614f3f07de1f47d8c9aca36b83632647ab46fdf0291f92b598d434f0cc8eb0c9bcd416df69f612427a5bd23b0e8492e27b74221b8eb23272f5aebead92140b0348d2a1c2f73b3e4fa3dac7e18be815592393da5165366ed2971cf2fe62881d9503efa8d84c69182458950af44439fe39d3bbfc9c4df8e094620ff18b72b57d8eef9aa288788f07fccb70e053a4a2fce6fca90316877bd7bf8aa07877c775d8fd00e5921237e429f26e37249d8416bedcf12b4a5cc890a8bd6be78e27a138984b12ba41c8ed2e0aba0a7e8dc0c47d0bdc7daeb01d782c19127e8bb6406f187042bed9d50c2685c783a34f
6dbc9a1ee7c9202914dc055709c844921f6efde87e1058c6f5b5df8a2a4209ef4f30ef9707471bc4cce5085436feb5d9591356b05ec793f8f30b41931df6284d7a160ecb7ef156f0974443b1667eaf0b76b2f9e5edf706fdc7ef567da0445e2690a0f06a442109262d2075dca3ae12e8d92133fe4d80cc079116d9ba8f8e752a398fd38b6becf6033196eebe42e22313b63642c65c6af01766e799cbd0299783084c4a200b710d27a4ecf635dcc6937694ff8194dc14d914d1e68e9c4fa47a586c14befd12b197aeda24200092985eb1c2bc53df909b381e30c43c4c44a7d92431de1dcad0725fda80459794c8f2622a52557acbf030982c7793d661af099750
979075829376da6b8f7ee687ec6a576f517efd4bda4770279302ee11d8f5e6817b365d1bd2cca116ef27dce395e4ad163fb0859c73ad2cb655ce9957cf696e6e147e5f16122d71d0c827f5562b5975d813df87711df8466d50b77039ceb747c2bd6224bca26bfb9e52672293032c04af0a258feca91ff354e63b4bc285c52194ef3043686ea3abbb6d091d95e03047016da796f3103baea54f7bb55dd3037dc931ae5ece5f22440f43e491ab6b6f91a68ec6d9b1d07a9b60ca50c8678bc5a89b00e0de53ef063b9722c776730ef1c859a0f95f24bd0a4147b42a3d4a3ccf023c03bafa010599ad2aae78d1979b93d54e3e1a1bdf435fc4dad89bd68b9fd2b0f3
7abe5bdc39d301d22e278752e1fb583fef89fd023c5a0944249fcbe775a9af7575c15a19cd301618c8ad4321a9430dbad90ef0067b881f032eb1b8359f303adaac27fc60378dd0bd5566e8c0700c18e77376f114d4265506d8a10e55220d8a91b04832cbe9694847b5d379252a760df0ab4bd9b2af8cea567a29ca4f3b6491523b39329eac0cac777b536cb4dfcee5d9c9f68db2d501c85b085fcdaa995786319c1cfdea2623d23aefe19374d384df8cfbd9bc5b843fff69e04f959d901522930189f3962b5ff29f965b30e2e49efdceba59e4e5719c50667c12beb0e3445df9110925111e6e5a663fd45a1c453bf918e1fa4f6becb2f26d359423dc1601c6f4
819cd9d6be8a95a7dba96e2f403829e09865501b236e8e34b3253a36e4b32d1ce079c08847a279819a553a8272546481f6837630467dc7825c7d88681ded3cb2ffca8b46df0a92e7c2c1c3b74c42bcbd88deee9923d7ba8c5a2b586c0035df20945831492a0f0a532d7e803ecda8a18895674054f6dd9422fea1a032121061d17e159ef7671ae0cd4cbcb72847f567e6daebcc67acb56bafa568825451d73ce109603c2653a019cdc277a3b26440aac2631d0eaad85be5a5abfc2e08565b889b27b4e6e2ac729a86454f2becf5f37b06279670c5979135f28f38adcc006511d992ca9602aaeba103d45c6a74687434578f4143b6a79039c9747e9ab2d92e60b8
a18d6a2a55e118fab8359951ba70a0bdd8e2842c901301970adbb2e448f4c6a7ed8d080637064f4b52f12ada76153876de66a6bc2af602d4e844444669439ffa67e51f981e0a31408418b6129bdadec48e4b9a3f2c2c3b541faab4e8c84256c500628364f11b1fa2cad2862d60e28d60725cf466f75f6047564b4eb581005975b3fa745200a803fc592699a018900abfc81553f18417f32f13e2cd175a295e117205ed3a334543d711d132a58edb286d56728f7ca1693b3564799c14b8aa789b39ddd3245e5aa8a8995deda078f55a33ef1d86ddceb5cb5ed6dd34efa6a7a14a179c615809bb8ad6d6401baa446984e11c40e2e12ba2cee02f07b34bffba66d5
e657d70980f5f6ba75504f1be87246f505ce1587223f5ea8a25e4b5238e4726a9305c339b99adaf48fdcdec1ad1c881441a92ab940b9c204ed235a30dbb26fa6082ccd1f835ee98d95aa3da8a093f2df8c169768b762da5f8f659958245ee10f5ddec42b216a826d74142b926a6c3d6c41894871aa7cbcb0b21d362e09326e891f4bf33c7a4ed9941e84d2488659ef0e67d8e5270c8d3e6426c4128a208e7a5d081a761956821e501a835409d1af926a266acf4937c29a5a0d5fac6637eef149b847dfcfa10f30a8b0d4dac0962b014143ea1617bb668322abdab7c26e70d55fa74c54965a22e0c17de0b4eae3adbaa32afdd453ae04a4149d932a159ebfd3f7
a434b5ed0d600299dba52dfdc8c3934eb7fc7b231e6f80a67b5542b369bad16ceac285b46cbbe2c84a48e620f99f61a09dbd661c6c198487551ad98daa88d264e6f6f2ad39d87df8f484de13782e9eb24a747a7dac86b3c87026721d34a25bd12bebb8d006eafd3b708aace75e85a1d5fb31c36538e120a2e6f687b09c509af142b3b05adf98f1ce909d622fd4e9dff87cc4c6d676a980a07429faf96bb1f6f9112d900c34c0a0e35d2bd056a10ec49fff5484e190aed69d921d5dd5927b5e67a250e4ee8994df82c38fac4c8c87da97ffd9b604f2d22c4d82cfa1e6c3df8c440cb4b3937bcc5885ae312fc5fcf11e3c698d89a28695adeb0eaea6d61e456267
dbae9138f6858df30670d27ea1d626eac2e22f10deb5862664f00a5d94a928c22db1050c6bbb3836ab4eb9ca8d1d7c3542a09e6956a267a0c0454583c1f4ffcd90f54cde6a18af8b905ce90d9f85d8881dc5e8f18ee44025cdca90040b4e3f11817c27e131c55aa42f6fd6a886c47e13e59764bd7de585a45a6f8ae2b7cd935c27c1127ef5c73b8cc935fa93f22cbe758f44232c3827f6fdcf4477f7dca43ba3c9d645ec6164d61555edd1ccf8d8edd9a63f1d4d75f4d8dbc359c554b11fa1c122b9e15f637ba2cd87945c26c9ea5468df2c35a49cef4d763bb1639ba1c0432dafb93e26481820c09c86cdf07a7a1d1f701b585c10627ae0dce488a584aedc85
ae81881e598c077ce7071978f7f7c755d63140f1ab14a070a42e9b3c5d77e8d7a3a51990853009fcaba0b84ffb1ed5336ac79ea0c50ecfb55d84bb0aebb4d832ac2622d7fcb65b282e476bdc592d21f0d7a57a42bf076d28b0713e19b3893a96ecaf1d557cdfea1fc712ba521a17d71c4cd1fc6368ee9a156bf435e1e63c4664e4b4a04b898a619694ff0d4f2dc88d0d8671128c3c12ba2284a50fca207be068d149f3321c007b038ec6e4a875269fac924d80e2cf68aa8746dec08b29fca5951cb8d59828ef4079f64bdce5f25e6e14c730d234959e0bfe3f2263cfaa76388dad144a67173e998dca8b2f6830bf1d08e1352e1070c69cc41f215e470dd4b9af
5584fdd1b2590de6487325bc8d0c6c89416e506ddef7cf75eb7318949c41b112b04bd0ea3cd56c2c89363aecd8e844e1abcfd1e193f558b68c551ccb0ec0d4243e24e0bae2bd5f151d3887b7b3aabb6bceae19ceaa72fe883b09a40c4079cb32157cd588dad603ffb0c53fd2db05d33388254e9d1d87e14527248514e716b411e7674a9a588c3c6a856c5ef5cdf4898a4234c83ef498fe8db040458e277e4e6f7e7e8fab53ecdcb58026eadcff8c829cf335aab3bcd65fae3e6bb63098269b8997ede56cf5e848f1f72462d54c6cb0e0975fc8964d0171b24a39a0a8e3b8f4e6b01849efde3759e8a0c056c667bd348cb498de72a3c7d4e10fa3605001b05dd6
4f1fbb5e208d7e4833e21b6b0e05353ee568ab496deb04b5a26dda884d8078da2eabeec05a0d947aef498a1c15433213331f548653beb33a2c8d87d5e55580594a58fa2db060ac7e521196cfef6f29a8d7632da4a07234fdd31fb8422163771a414987e7dc16c96bef68e09afde174224b7099632523254e2b46b9306d3b71de23082d6d460ff91671422494bc424116977a8bb47b906ea1f7ef51cca19707df6baf21923da606610c1feb4e806b5d6367c68e87650903287934035ed263b4a80b024dfa97bc6730997d7b9f4fa4911703ee67f3eb9f8d7c4f3156d6d11e51a72bfbc2a3470bd43796ecf2818742beba189daa864bdc0a0d22d8fbf792f09602
bef3a7b81e73a40fc0f688c6c0c214fbf07b589e0149bde3d49c88e737189a498b760716c59a1b311b17e2a800213b630646b0bdb0ac873e68a99385865f0b18ffcca5838ab011d8e40be1e92a65cc243459c73221760d46b9a240882753a9a0e50026b4208bbee50a1dea4163daa3a2419fa7544d1b108ef1a3486b7e8be9d3c255f99e1aa71c0425ba83b8918fe1b51005cd92a660a06215579c23216243f8d00cd9f711ef643767cef45c6755098598158b11dfab7c6897afe5c4c6ebe07d985c595b7ebd3decf1f0e3247171986f0e1098fb3fa690b23f1721871f286dd7fd3b4e54ba09428b606d35c2e7f9655e73eecdc20bc0d8977d37e29e6961893e
0741f9aea0de0626f0e38ab94e6f6d48d868b1fcf99d3e86fb1ae945fd8950c382eb1988f8cda0b4254694ca7d114a86758e66ab5e8e7b41df6e2bc7975eea0f1fe6f1e7cd2d88f38f208dcdcd0556fa77680d25896e9227b3f314eb2e6011027c930b40006919e2c651e30ebb39aced139cf7edaf0277b55eb08ba84e61007ccbbb60b8c59c9e5e92274880f820572adb25971d0d92cf5594c65243ff667d3118ffb2777898013287a69092a39c2766bd84e1a1a497c8b173603644de543ed78f6451022373aac6776f61cc2a323e8637f9e45ac163ec06940fca6ad26a0fa8b4449c784ed7081d9baf8089df006561ca086bada0705151d5e21c72396c8a97
fed0ba135af62b09acce6ad1c2f702c1cd08b019e29623f0ed2de3dc1b35d590ae1e0d36297c8d4505a6844ab67dda289a6ef0eea433c5a256e803da1f258d317e37ad637bdf57913e5d52f3c0c509935bfbc4740e5ccd12195c55b4055e6c7b17a14e35473985b55d563d2f46ff511375f5a0874ffea6107a66556353800a3e7de2c5e6c40c56babd8ac0dc4f8c4538d17cf1bbba55cf6e35bfb758f62989e1ebdd511b2423d24c695f3fa6668687e4434803d0e6558f877a0f6ffcf7f6df79b17b1d058aa2224a3076558f7a66d40fa8f1a4c744136c78fe20564944644be21f716ebad34190e04e07073741c3be1c86fdf8a59864bb5a7a28efd535b3850f
d969ddadf08e206a0edb1a123d1e92abc279a409b897caf657e3c6d201967338598898d1ac1f074605223ae35ac5b2067dcba9a137d369472bc5429e6a97bbd916fa14b1d171812d9b4a87782affeb71880d0fe3f0f5e2204c0d731639d7b31f62bb9c82bf10cfe9823015e0711ff6f3f7b80b7bc7b64565909eb4ca921ac3d28701187c3a1d9bf776ced042383cf54f916523c01b7045051c4639fff447c41bfc3438f3fe51554e8035cbbf4de78b5f430f7c0b288759a7b4a189483aab636cccb18067caa7939daa93f27b0c4b076d1a946f45321551f4739fdb3c2a2664ebef7199b212b49fae25285e2661b7c8f80112df41e762925ffd78c859d87155dd
ea6f164ed2e6c0356547473230dd0a551e540c7ced79c8e0e007448ab056b1a6401b7c02caa2206d19be07f0d9836df1e3581d047d78a196be1b522c6a6f05e9a107b464e087458bb5f52c0354e2eb72c8175d0ec58a85d13332a7431ba6d092d324b0c551b4e9031448f7626e329029cd46b9c89032c6abd32a23cff41f9bc6b5baf3d8283d79dddde100aba3aa380a4c70ff94b59df744ac15b9d4c0485e8478455311cf2457170fbf0b0ad9da6719d4bcc4d3c4f782746b0d3d9dd3f41a8747d86de7e15515341b656c2fb9bf34c58c1212125f1981c68f114fee6e6440bcdf115a5a7b83665b75218dae3ca356e03d066f88fa54331742792db228f8738e
d420efd5381d6e6c6127d1e5f181bfcc3179ff1f6e6994d71af03f16da86ede7b6ba3978ecb09364f454fbb47d8938ea1df64aa9cae0c3323efcad99a66143a24c129c94bf77726f92179c6fb1640e7e6d06bfc531c29c9664fc55933f815731a024b387114cfe409620b93e160c07b35f5d4219895340ac42dce91e62fbf221c882d3f7e6a19f20beab035bfebe92daf48c16035fa415deed0eb2e7462a0243c65b28f8ce4f9de3836351fe0439556b6848d9d3f69760c5a1181970e8adecbe8b1ed99c964c011c4f00d9f3cb4158b48ce332a73fc69dd511b5b932a26431e8ee83172eae9e15c7d1ca5c81c85803ab53a685db98d1f92e7c24a42eca468120
48c446cd7e1bae845a586bbc4fdb52cd94885ebb48b754e7391fec7bdbc2cf309bb84de869f4f9f72a878e6d39ba7e23206f60b6d313308cb822fe19031dd82fa0bbaaaa5951847bc51f7d2908b913ddd48cab1a0eaf37d87e24959e7c251b4960c52fcaff21b6ea51a7760da010ab8b89b240ac1999546e94793c5723788ff418e3eb095c561a1fbe9d3d52a5b5a1e62aad63f9edbebc0f2d41263c122eb76958dd7bb4509b8dc94d16993233125973fe4934809860fc9f6cb43f314b87bfb91fd250cad1011a44ea028f185bf7f7b63d9ddeb0aa2b8b94fd38a102ed1f8cbb45c684bb4e66afdd10b44777a219d88eac62a9748a7d0f23dbc8f42767deece7
76824cb21de028d9ce4123df62efb427b73d1be80e51d53614ed72f7ed13e863cf68eb9a40785b724994a91917316afd5bcb0c1c8cae8bce2b30456d5886209473b4c50352d25dcde68c8e2273a2a98cba9602a8aaf3d43f2ae9fa9d844a4eb00c2e08734f48405f979409e0a5bd0efd62ad52aadc2a7850ba13f38f34251c3d7e6652153bc47dc0b9c66e5ee4aa9c5d318cabae69a24418b510f9a3f6488bb262614285f66df9ec1b5f05c2e1a9dcfe590b1d7118bcd7c5b3c57eb43f624eddabda1668fcf1ccad8db401d2c40c551c0cc1d81dec0e7b830274e22f232e795447ffdd3f9ac03bcf4d71bc576d7b0c5c6cd77ca0e74c56380a77f3becbcba820
551b6298c84ab10375157a85ad75a86c0a56fd785cd5f71f322f66a0620790db69b936c0da545a34350d85f65fe8621ca327e7ada9dff1266da6b63ae0862978e23fcbb6668298df2f5dbbd3ea3c8032b44dfc968eaa03dee518d1446238c5b96a536eb7adaca34adf9cf8753d990f2fc6828c54ca637bb6f32bb5b2640d27bf4e8c4d66a430735b08903713a63208f14b982dad72a5a94b217641fe18e4219ec2f22d1634705c6633c675aae24d52d6c49168b31037f1490aa983b5bf59378320b0061815ab9d872eb6b7e438d4a486572afbd1d8a7c0c62132e551f750d12754f4ce75b417f214d61e7c62722820f11811bb07ec1f624edc002568a6ded3fc
3da289298fee7d0deb51176836df3700b2ef9472cfaa1f5cff3b43ba198a759d6e0c34ba654caae129f25378b7e651b9c4812ffba4340193acbd331d14eabc0dc497db15f1f12c52d31e03297966fa677c0f110102d7504cdb0e74327b97edb8de9789e4aa11e93844bcf0429796d6041d8f7124deeaed7e13556ebba1ad7c98f1bfe56ca93024a25e47bb131cdbe12d709ab435329c6a6eb6ff240f31e934fdc68b8d4c5a7a92bb0acaf84d0de56610873189318b6159e3540533a99de1db9d1a808fc816e4a220c70049ba479ac04f55fe424b4f11041c21d8323f43bc824f28e9db197191b63e1d55fbd2e382ad60d7e8976df360bdc2af633de6f74dbbfa
36f0f455ecf9ac51be6d93cbb4978fd78f285bdba4965369bd9797862ad3a7bf05fed4c2e703e36926931bf649a5b3a3215edc6f5c5d2c9d8e32aff8bc777c088f9515a55bcbb26ad64e27b71bef25faef5dfce4822fd53628da36bf409761a719a72bcb0d1f66818cf1ebabe960aef101daa5315e1ae60e906d1bcbf49aa274dc966b6f177daf964fe3f05862a80a9740d89c3e04aa76e08228890b1d861582b441ba24c4f640c3150ff970036ee850dd602d866c5571becd43361b60e066ebbbda34a10d8e58f3378fa77e3552417931e49ef2578ae1f081542007d08961877756f2a780d62e294513e12b3ba55d361248b97db4c5cebbe6b3a59ab28e5620
fcc0c15bdd79f03a9056a33d8b3f9c8dbfe2d2a517b56afb9fa4b83816aab8a3e028a1fdf8e5df1f65d6d18bd219ffaf17d9816c2ad49f1b9b2dcbcdd1bf1df919868cd6496f4045dbba9d5768946b9fa6c32b9ba8aef18700741ed910e0af8abb96701b55dc299c60c55915a3d9fa0b54e60fa73d5110c8cdd1b30af6324b1786eeeaf6a964830e97e0559417bdf59839f8995f6ec0ab7c0f0e61114f8367ce84c964fe98bc7e5e16ac856f6468248f2635c0b14208f52b366ea15ad202f855afb76895998c78b8459680f3616d3109b0b048fed3bedf7417d03028a2d70066d0f042f7fb75bc04e98cb8d7cde9215150367652ff59520a3380d2ad480ed032
8763bd2ced0b8c97bb639e904922c9870048a58d270d804588b482b852ef8c58ed5a89ab37352e1fff5d85042b43bec320c501ccd2177b9d3534020c927091442eb68c37fef5a35b280ef60d744e504e08728d1ad1540a9750271edf32147641b1e4b4deced318f76ab4ce6dd48ff3cbb998913ecb9597d13b896b4d69b8175fbd27e1a4a6a3b5c4d92b3d9cac9c19e5f34d8ab75c2c1d60534404600d29afddfae591960a2f05529e02482673611f4818af72e37ed3d2b18708cc30b11eac9e692a1441d6e741ee16ee89700d794c9f182b67b5a96bbbc91fcc2668e6e6eff9dc0e5ec15e2f23c9370685f665bb47e500178de1620cf917b46d56c7d87e597d
39b40e2b17a05a339c96a4e66720ef9f5e9ec555c5c6b993a7ae7197a92b994ef419cf944730498460195aa19d46a474446093fd3ab0a8099762a630fbeab5fa3c652c2cf30d1679ad828930dbdbe06ba673ea77431f3a68c409a2c75101bb1cc81a024a1883041e18124608b461f6a01a2fcb147b6a912483bde3d9b122624de11abd573c9c021c3bed661caacb80e7a20d4c62d6bdea9d589a914ea7ee4c9c2cac0f8d3e72790d7a45ad2f5e671215cc9a5c5ad577a68bf0f719c31dbd992edc93ce4cee2f271013833a6833a410403528c3019dcd6564ee8b7c3712ae9bd53622f706e44bfaf4093488be97ad7c23de620ecc6bb57246a1582efeacce4ce9
febd0ce0a7c3fdac0418e66ea53bda9e5d680e4d0dfa2a50a32a6e6d069818fb5fb62f27e944470ff8cac622653abd1cf09267f87b108237f35baaa40163a72ad3f208f19a95f809a0b37dee6eb3b87729c0a4a00006cabacafc57194907bd53ad5975d5712579bda5aea45d4cb287f527c40604804d77edce23140d85e81165d0ff8a33d456ce8f2e88c9bb4744e3867384686c82e2d211d3e5a4aabefc4ce13bf58e118b19fffefa6b3ec0d510d790523b9888bb05fb40d08a5754c660ec76781a3889f6fc88f5e4a26be5aaa132ec861bcc752529786ff0fbdbe01f0c5a6baa55fd9c072d6dbaee09b5d006381114e1bb67c0b8fee37938dc8d2a2dd31a57
f22f7c522ef6d9e089a3f73c40fd81de6506c1af4259201f0d8bdf8523ba9c19e548b9f04e51596324b3d6eb64766c5e720c019659627440cbe81b926bc2ecab91344d483779357a2a8266adb18db892964140c54bdfa15bccf1b3e2bd1ca97e12e0cd4ad70a87510b86ee55a0b392420f9e4824ed3c1f2b43e54773e3c19a805f8fa804843d69b4e18abddd23eed360b701191d45e5cab0b08c22ea83768b7c7dc43b9740f4647ca03a9e6ee8da888717e4279fde729fbd56d5b233beeb4afa2728dfa03ea8864839f0dd53cb0830f309959729e133fc177d168442841f05a139609d003bd7788c8bb718d46871e94886e9c111f35ae980fd48a1c8c32ee0c0
2dff1eb0a3453cfb4f10887e9400411c4f213625aeedd80712f16bea1d51ec328b341e491c12a12071df6940ca7a1ef97c7bf5bea453fb3b4f0f9d021b1ae91f3913ba878bc5d0f88fad4132d3340c0fd74659fa84fd5ebfb9141e624e08c48eb99276d60111858d1cdb3652ab7e8035a3e95a15f8f5c0e6aaf2081ceb11b2df4c49bb0eb3e71700cedccae27d462e998252075c167b0acee808979d06398455d7809af065bc45bf31450f9a03e32903cdc904b1805bad406fb440652ad5f46a96419e216ed520616dedd2b688cf21fb2e6d76d4ddbc24c4efd15ac802a08c85ab810f940ef93f7b4d0443cb168ba045794f7ab54fda4f64ef9d9b7a2acf3032
0615695194669cd98a639b5d3000ce97b17e0f990c343c7cdf66a5df2e08769c9c4f621d29e3693db7bfcaadabbb189437110e745d9c60f3f65518e9f638bff047640787e577510810c0c114a3f434a350624f0fe22f8bbbf6a7be1db6b6deb2fccf221f78f29a5ca0120fad5799888820e2b54b7da4c12fc78c2b09fe2cec56730524c4a5ec819b33c8e159bcbb447195fe3372b704f6e2f342f81ed651f2188b9194d1c64b1f7d90e966ca28ca02573a405d008691a5345c3329c5f9bea49bbb031886aeae30964b4b79689d741f1fa184de64e29b6d0efe34028978e9b543c88d59414a735cbaff3f2817a14e04c227038023d31d046e6acc2d28aed81a5d
2b8acd24525b011331d314b272b50e25a890310fe48d68513d521a77e626eebddca00065e63364e1f763acb0ef801a0e30bbde14525d006c46729250c6018fe937ee97da22704deff1e9b3cf9b596f79d78ce505042877e30376698c766ad1106a9d145caf223359e50bf68686dfeff8b0c61b3e22a462a5198ee97778d0cfe4341b70f7325df5b87dcb580c6a9789d0692cec0cd3b829ba051df14cc7e9e103069ec80205df9a41470ed0770def3657393a20e30b9e04ac19fc2053ec83743647ac74ef81b770e94cd9fc80bac3c2663cd01037f1b9a3dbbdcaa371db31521bf295ab5f29818946126798dc7286ef21cde435d2d227a2861fb5c9212d2a94c7
6400155292d31d9f7359179dd18b2b669c807abca8de8a8c76fc1ed4a7d609228a69ab727a11232ecbd5cc9b830ec694237b4b7c6e04c4fe94792d0c45e06b529984f18a1fc7ef4d41a9d62c58bd6ab73e6751082cbd8cc4a31a930021f5ab37cfd01e16b763c3b123b8d49af39ca30f5807ca8ad9a3470140632510b2e51ecd08873f5910f7a365a36d1cfa68464827d5bcce1bdccbaee6860ff0a5a9e345e2b93138dfc693e85e56da37287848d981d0685fbcc93c48770e34c9033c9846d87704277005247a1b615143c20f5984c05df8ba4751b3dccaa3d13b76ea41704bd92d58f1b8da972fbb5c93f0eb970ccdcfe783b0af5b313d50d8dc5af8619870
bbdf766841b3466755b5c2e5c1922c63acb7d1bb94275c2ff6ec4543cb18387c09090e0235f7e778ceef676e1728949201a858753a2005eb98a2379582306b9c9e23c03b68edc9019423257c5606624d88eba5ebf705ecf40b9ac03ad2a3d69b52fdc2f3035b9a2b626c48ac5b335f8bd9b21289ac3df6923bb4c633744ca0abecb00f86ab03fc3ccdc5c31d3a0295125f29da7596c04e81736b98cdbe708ad71fbf4d2ff4b630c0d625cd030d08a8390f0e7aff5478400d5bdad87212443e7bbe3657ea5ddcf25bd362f6b576b2be1d5813a2fe4670e4f6abd14f29ce19b0ac123e8c067d1a612ea24c3dd5fe0adc749cfa19970a6bcf160baac272baeef383
3ea8053454719a19194a66631b50a95a9a0da788fa11a59acc5c7a34c05f7e33d9a2f2be793fcb29deb3634706f51a380394b9d84f6b3f6756b39b50c94d86fd66ca2f407979ad595a43133b8210d8858cb0fc3ae3551e50798aa124b5d3b6fea0938c1f18a34776961ef7a4e274cc55c544cf79feb0a9106781e1f0a4a2b1ae3dbba7b45875e20bd87543d0e8404c45ece0564cb89ad66b3d410aa76cbdb060e13e922f61bfd8e697b77e4af92619eb47752da0952f06565fa7bcc30a32b4ca8f27e6854d97dc76b1ee288567dd0a27010bb6af0125a57406743deb6b97cb97bc26c36d2dd8d2fbd17b580f750b1244bb1be7e09f2d1681b0fbe38c19b78d92
69d30261615261f87ccede970673edaf2d4150ebaecbd9c8d8629b359561e1db50e77dd911adbc2d784d3f835c9a56d7eaef89aa35bed18dc52d9b2d9725096cc386cd13b8eb3e84c4c8696867158f52e858a8a0d0d75c612d9c5540a6178aaac65d5318da247abd5d9be00e2572d9a79cc666f182e5f1c5fcc6851c70df1791fa3ac9dfd6e1d3ce86b4952d8c29e2e5c6138688aff5dbe10479550a6b9096ed694b4e4780466014f6031d65f4a184ac8b0ecaa993758516e69e57042be15e805abb19dbf81983df9d11f0d4c447b6315630c8259317fccc728fc1e8a1e89a2d60e2b5798a8d6cd80f74096ac7d503f32665142dffc04f97afedaa34569611e3
f4d5bd5c44fcdead3dc7031f70027b28ab50107432654a303fd601e8252fab6f5dd21552c14e6ec3aed627d4b47de48d88dd0606c6d98fa0fd189ac266e2fd2250adb45f21dee3d5c40f36ecb8d4fb15c8988bc348beb722b08618e94a54c75074acc49112947143802784d4d09b6330bf3ed61c86dfe1608b77aeeed6c3af5a3581bca29a05dea30dab596e0d404257f463538ef55845f104079da46d0f4cc1dd8cf002cee1c51015656919b93b74e801726e842b2230839342330d001ae9da6230b09fc6f5510974966eb9d02d9a49708f74a372862afe331beb6d57a8d87e84c39fa0511f1ed95e48e4f1919da1d92bb02b21a5ff2d98b521272dbd7166a8
9342275279a1839691438b4130100483d6c895b21b93f99851c9631538f3abb2ea693f1b9fbe27eba3e586901d6b5c1d0ae98fdadac172fcdf2e11552dc4f1aba48e434661480312c240bf24d1d01ec3e11efaf4f5d18044c4f9adb872a8784ecf526824b6912b42e30e3e57bd5c4944f650582d0a078639f59cb78184e039082920984074a05bea890f1dc66efbef723300e36dd796451ac2de282e932366f41264a041f9d19fcdb32c508241ae6523d7be8f9bc53d3da32ee80c3d88567dfe6103e3f05caeff221c2ad63eff6bb634362b7398fb42a1e8d784ef85ccf017ab98efb2da3d0a3f04f1d41ae6ee72c14bdee7e71cc8a9f2eaaeb6531196b6d3df
abeb949ad02b872b3bf21762dc4ffd1d6c8bafcbc726032a62a24b3496b87cd6bddcbaaf661b6976bc25f132c3f940a0cd1d63e493d7ccc45d3b69c43ee3df437ad0333389fba8a9f4d8600825da8d8791c160ecd70a3714e68477b808a4e870c195d20bb4e385e4f1a85e0db45d1868f572692f1409e2f4c2fca6069172e29e5a285e8cc49a05e2c54656326b3aec91859f86d70e503a3f8b5cb5dd1b6542e45b0d02e23b3e042403fb869595dc2150731284c74b93df3d509c0faf1be077d76b97fffec6561a3fce8f99c370c2c72e17023cadfdec301212be02aac2da1a269d6e7b8b142c85b82fd9dbf40031af3399d4994ec26640e6bf85b865023b2145
ccb6c3144f081eba7b5ec99b84fe85911c39dd795ce83979a22472d0ccc7c98995ca707380d1ce3d516f79022a43e0e368f4506af69f8cebbddbe50d4e30d9a639f05b67b7e9448e5dc98eb61eb0c106b0e5b446fb0176be16aae800f935f134b54fe45bdec31198d10c85998f431184783a1a995d6375fcbf744a7c4db079db5e902c2ff74f265dc8746416a6e69aa93c98e54da50386cf8c001d445f4b053557f79aea425e5051004d33090d056aeb6b77bec34f81f9cf8921c1f9acb0cbf192bc7da112da6b611ec3d11be61031086bbc767e894e867235b703b1be8cb6e40351339cc12d37b6570d13cd13ece4f2a25a8a3f30d05efa77ede7c1d8f940d1
f9c62b0c08bf3caff69a6d3ef021f245bb7beef56accd4b86d8749389a8fdceecc9cca32cfc8471b11df29d6fdc0823715ddd6348498626a9eaf8e281913234157bbcd148f3ff2c7d9ff0be9a526f59c66cf0ef79cc22ab979bdaf74e61b23353d9f8e7177fdf368889fdbf28fc70c43fb6b475b058b61edb4a435dd392be6fed9eb3ce02edf6c26446e13210012fb3315782428088ecc787db536ad6cf61c1fb4b21c07697dd03c7c7457a9aa8460cebf3875ec65ad029b448105a9ef8265862ece8b91c3e500a5335c552a11704e3662c407b99c43379f6529025cc9677ce1e83a11b8dc04831d0125e963835277c07b13c50027a14b94bba99b8116368c7e
60cfc1cbb9d4efb8c158754d91b1a238c5774776dd1a729c5097ee5849d60b5730778440a6a906d588d6961bde8cd33d63fc4c10626d930c85d0567d0f741e88df7272074473a528d0e6561818b9973fa70c44f76f20e32393d02280409811586926e65d6d46e37a1bb779990afd9d083c2b5456707e402d815c74448475fddd7cce062c4c29afb2d0aaf4e00595a03b75cba1fba7b3be343aed16e12c98aaff2457a8ef21a02f0ae3decf7d80e37071ce4bfd899878d22e036753671c605814cca774d340c64a9b3869eb92f856c7d35e82c681813bd52ed67b67851980f4c571f118278f2a66004219a3592a3960a01d822ebfb548b911bcc931e27bbe2a85
cecc8a8164fb06cbdbe7c1f059579e782302fface56c29e628d7d4b86001d0d954b7141269e0179f828579db4b06c241b85d90cd676471914611b75dc640c6eb9d571588b760982285ca8732d5dffbff55c15f64489bdbc0c88471cabe1681d7636a9f0031358c006b6592a65ce698ac1b798bb2af6e60a7080cb726a2418046e774a5bb24c322df557348bf25ab6ca0bfecc9c4a7e0d9b06d604dbf3bfd1556d7c9fe1cbfba58a594df504b5c6ead9c9ed3ef861ebd44f5c0bb5db2fc7181abb9d66861e9761c4db10f018b97807b22db6a273f522488b78d0234be741c785430abca8841d1858dfb465ab246302e6fa63962c0b898c0bd69a1c7b75c7a305a
a0522e72de97071c89b3c5af443fee26ff43753780bc4ec5988cb89c00b2c0a2f73a1ab12babfd08516f8b391bcb2e8f7aec43025665b6ccbb1ff3c722d790c68b9747b468bd50ba8fa797c858f98e0b6cfd6412779f55559b90f818f8605d47fb4f38d8f22e36f56ca2b2e3082bc250e466d849feece2135e839241628dfe9a377ca8ca275066eba5f4db88948d2b1bfda11fb8e0cb1ac95d27343618320b021681b4af6394a83ecb681e9ef8bf08110f1a20a8cfe017890892afe4fc6aa556f4937d3993f419cbeda8059c84c2fbe48d96b3faefd54dad53bdedac636d76d993d3327d19702025bd142de1e95a30c308019ba5114a07347724bd467257736a
285d69f28db457b9d7339f45c981c445ecb910373e9fce90d214f02a4f6452fb68be419b5ec9384dc044cad82b3d02f08681b54694d59c2be2d403f21e61a18a9e9842593366541314a32d9e8f5a588c0ee5c05361fef8c32dcdb237eef12212bcb37e63dd2f8635d9d57995281e53445e9da7c2d550292ece5c1281d7eb204eb8c172d5c06782168ffc38d9e6e4626f59694bd0953289b8f4db2a634b70615497b440bfbcce05c5ac918d4009a35caeee30a964756cbaad37907a818ef955a4f950a8c9e334406ba950c55d4ad1d5ffc84f1992550d408863bc5c9842fd56967ea43b53372c58b64cebd9f463bdb4adb3fb56456faaf938dc7e2434dae32a81
cd214fba26ab4f6bc31e2f7b3ca51609552be46faea7b65d5c7208e30535ad4b785e793a8b7d6713eaec42f587356e74d28b3ebcb36deadf09721d5a47e52bb3ae11d809b73a5138db03a6a2f46726f66d96605165a3d835b2b5236b653cf7e5eba13d076bd095e729e9254babcc2c2c18f27a0fb4dae017499e5a3e1e88b41c884757f48d7379e4c45d43b519ba5e863acccc19e06281b1b2f691a9d552923351ebd091bb5b8d40b1896c50c4e81fcb9e0508e41e7b1fbe88de68d16aef321742af9b6c179807d14dcbdc4787c709be9829805e1e2f809463316bdfad1a719f5c4f90e423d5e32cfcfdb7557e6b1379f978813a4d0d05d5535f233eff9bd59f
421e06a4a4f2446cb6d5c715ca0636f8fe2ad1034361ea20f0453e6d8e9cb690c0f6924b65a8c97ec9ce4ce75dad7a8558add10a502fe276e28208d2f111c8b4a928d0e1bc99f5b4582f43a8858e009fbe7b6830fca4b682d512c43e0415c1e3b1bd445fed6163c2f4db239ad783452a85e9f58685dc9eb4abe548896972ca7c1eddbd44cedd014bfc3cd11ec532bb53dbbfb074f111379e9c8de96c33e4182266fc08d11d14f0f80fbe1d36900467db0c098bc166c79921b55183703ec321fd8b38285342b3ebd85a61686f3f638885600a93150fb7d9ca151a2e4af96926b3b7a856c4587e69fdec65e155443b8ff8f47164769928f867f8c33c286f75529f
ecfb70dd266392547a6a3ef04844ceede590101fb842c3a543b00554a697b42b393542c80745ad3ec2edb05d81bf6148eafa95d9399d965e7ca0dccee3d5ae958d8ca687b55675b62a38f3a5073751e9480ba9a2410cffe51f4d9560ca3744d00754240faeab93260eb61f097a8304002bba3605cd3d4f277852e98e2b021ccb5ff1b3ffed2a79723304605142f401955f019c8df6cfa673893df410cdd5fcff0a05268db425f828e9aaf52599005a343b63f79d555be32cbd5ecf016769e54263a60cbc8e54890d6516f7ea7a23f36d5222d43231b94b8c57419f2dcb1f607551a0cc1a3cc6364dbc41fe30db8cb002b3b8083d44a1f08adff6cfd7de8cb6c0
54223c2ad04bde5578d80587a7ce5ed45a8d04b7851bfacc3b526bcb6bb031e681182378c0a79ff769146a52f99162857974751d638482b11949ec1ac1e183971dbc59fdcdf840827587e002c8aad48386cab00c976e165d02ebb068e7f1e3b35f46ea43d78a293560bad63eade6564226b0372c37f1c509ec4a460452d96885b0976d1d33fe1a22533a1f18ff40e41d203ac6e2c1c093f0f14dff9e3bfc2012f65d3fd160fdd4347db85d0c4b74f5acd0f6bed94ab5203e62002058df655e01981e06d7763b9b6d470f2b766d6576ec7561cf14062995cf09352ee8d9a097a82aaccecb5632a84fdbe708db27d1060ba21194e60ffdc1f53aa05d5e105a0a4f
c37da5cb28304b3decdd456a7de8a21b6609cd078c23d54d4ab39835b4ef83e56d55501d8ffce830169d54cce95065970b5f343a6c032de1d0d3882713602389000f9c06aa58ab58ba7621aa376476620ad958751b1d3ea96b5d2f3a3a7d1a475b2ff37d6d13592bf32a5072c155fa2079cdb156f8af5f953748f98dec2084ab1fe15c88cf2b5e2adde588aa2f382fd2046772cac9a8db00da24e75efa23eb932ec0c2757495451f30b7775b2ba4e9f07b173cbafe07db208ccafa33e11f6eb8e5a89774c7d437a3ba69d6ea8ba25ce0fdcd21cb5fc759dc5122ab5898b6e41cf3e90c3fb3e30a254a5abf736eab5feffb63ab361f7615a2886856ad667ea8bd
efd40b79d198434271f010463c347d9372d77529ae87f81dede2bd818aa2b45b98b2659914dcede44b14dbc6ecae3baf6eae6add9fae8c22bc38cbe4f31bd45f1c604bbddb1caff2da20a80a1d643102889eaace2d192d78f714d8c7f02fbdb87c765e13b08b75d657d0ace1d182de66cdc02c7898e6225ffbfe0611788ab829089439cc9e56bc4af8f4db6b75e8dbc53a65cfe6a8499751de6de3143e30d9e896a1ea665db83a1e323f23eb901dd0396e1358e37e502bc575fe76260b2947159d1836f1ccdda136fc9d79795f382286a3794d8112923f0e55e06436a9a8f307779074f17cb8ac0044a7af2facb866c873fc8f82adbb5b40848b58b111bcbd58
7b0c5f12cc0f73cf0e51a28adac3bf8c3666f759c6b9cf82345089cd1f44e29863de479215ba68279d5482d07c0af10dd9763ce4187e1f268c61658b971b5b579147093f7e30883fa4cdccfdd5de028474070db443b8f129b8bc584b07a5ce8f42d027042ca0f6c7a356ca9d1519742924f9fa3509a3ba79873319b84eac89a04ec69d421963dd55927cc8cf2151408eb76318dc104c8ee6e2005177bca6ebb274e883b4f876b06d51e2e18d8b16df2e01c9c853da436878a7779fde82164a2e0993d6f42319c56df90a0ef4c1efa84a865fd1d204267b724a33189af8c80c7d4e4487b736163cd8c004a6c4ef5543ec524e527a0476fcf6349460637dba8a0d
d228cfade776d26cc0b443ba47fa1deb5b446ded22f130c4e46c555b10290e4ef311d5730f2ff982d5e72316778a41ce3bfa978b0d5ef5b0de1e6f2b645d315814c0748e35c207c25be0c7eb554ae2b3e218994133fb36e267048e88ef62a163c0395f7a3f9465d10cb052f5784b85f56ee64e838707cc07c98886b21dd9ed81a4916111ef3df8bd38124c7719d6310e8365b795866cd85a1d43e73e237d166aaf993a2856a5ec97248dcd9cfc46746c67a2b9568c539f0d61c243a232d5783bb562af4127e4b1e3b04a6a4a4d9d6ef724547a59181c9b8e82d6ed2fabe779cf09b55c6ad07a1e28293a7d56edd23d9c35cd79e1b3a6f8b2d52a629714eb4526
9d9e13701886905aecb7015598f4988a81c8c7fbdd97347bd2cf8646163ba0595ce9a9fefe68bd980c5ebbbd55ee871daae1668f5ed589a5f3f3587d4bb52a5bb02b4bfa563d180d7c869907dca09d88d7777db3844b21e90c0f9bde14b1fa5d9272dc987c09c50d7408b57e77e7988abbaeeb37ccf31fa42b47004ba8f4dda1dbb486b8389a6164aee5851c91ece8232ec80644e01b3113292a49791e59d86351aefe219d67354430064f3fcb6a71f4662c51cf7ecc8f46a19cbeb23bb215fe470a67fe8c476bb0a18eba0ab92d6c42ad7376a045ed8ccabb4630633a3ccdea8e9d4ab5bf8a678165c82cd6fc549770af4844e6b24d442ce783e0b1bd9eceed
af39fdc5289a5bc7e850fa87a9eb7a56d4d810086900c000d073868a5fc3341699d87e93c121e0881b0843912c6d12700813aca8afcced844f26bbc0a45195365bd81985f52c57a2c22efa71057af4e1c0fea5c97d3c006e758d0fc9de4bcc6a3e84cb105c3a50c7b51c0a241e83367d1e585f756533e8aa522471c6612c03afa2beb826ebc997f9928a312793ac3164a6114669573ae8f7e09562154a618f4ebbd1de22570bb53ce014e01fe6b061c69051366c8f43013fd605bbdad45df7ddc6ac029f81abc98e59369202ad64c6f7140a4b12dc99509004913125c41d21bf1d27ab746a9beeec6b3d2a0272093e54b60ea8af0d140e5c45a92ce49e374137
ceca63d36b180c5228105a185806ed706c0d53705ec0a448dd82e685834125a1d76a128bc1de337b2cbca1bb6d32b377c950a83aa6e40538755ef0351b5fc4d71c0670129e55461c37df906d074af12bd7ab226f8f57ccd9e545081620ef67d1af76dd6fee36f5fdfbb8512267d67a282ed753dbd86b0e509330f554f139909765287e12b4962b8b61bf1f39c1988f6fb9164520133cbc3637dad247eaff920cec5a7650a4c7c48075b5ee2af1ed00b641a692bb8a12a5c2e75b09fb6a9e0c3a1eee0ed9d1e37311487ebd72d6c254d5cb06934b02311a7c648e2aa5250735e72f10881d00ce66bb381f2da0742a52adf949a7f276f08e0e407d060dbc0a8784
380fba258fc470ce3a6780555e8fd35d895c59699356aa403cd72b93de646bcda3362fdf6d51b074422d23ee54eeb13f406a5bd2b0b1359b13cb27f26782d643d40ec203c0bf1915d1ec965f9d0220c8fa6efa7d1c66f59180886d5c14e5a5b043dc93efb3df9e46541c245bb9a20fa625dfd2f9e04c69ae42dc76f0d24a9763660e94df02fb224a9a0486eb4c468e306c358c5a7dc1e787bb68a9b4d6ee19e2c9d6039851678a39d4d0170fc08d87fa9f4e5c76f954794ad779a7ab40ff11a5ef368df316562dab50fe91a02c11f44fc1c9bbf1e4f4024d268dc2f0a2c0a8b63526094ccd386e191277032c506741d951c651ca0a1c85ec67adccd24211e04c
694a6b2f3689778c225a5141c3c45fd20b9e381066186f95ab29a388180480a5f654489c46afccb77b6d8387cf190a605c047b6a345b62e6394cf33a8c64735395ddaad4c5137148ecfc615c5434e4c1b69bcba893ff1fb0facd5bed0a5b71d70222ec1b9e92d0610fd24d1ec5c88f8dc7772486efb673b6b47aa9ca4f856cfd532c188fb0da60abaf75586fc2d5e0e4a745391f0deeb6a8f3b2bcac989bb5fb7079406b308a92f5400c380a9e4f713c590d116cbdd8d7497a6368e2073c3c82cca9fa44850e4dde93d91a04632dc5fca1fd010238ab2ff67c127aa4b1f7c38f26f9b5fccd77a3899ba30cff7b6f04f3ee54107808b33b43218232e41fecccad
cbbb57d93b88409ffc61c3171bc367d686fc689ddb80454437e303d765196331fa813ca1756cb11b0f4fea8b65f3a14f438c004576557879e9016778abc256b2e09249f6e7235e8eaddf69a1a97d52cdee868936a3df66389174a7899b00ef1b23e9a9f42d0e30a49b30abb8f31bf3b190f11b387231de27d9da142990140c221d6fd2f5fa07020081fcac24466f34fbcef982fdecbfcd68b866fe2435e16c56368e7a3c4dc4a1fca2e166e2f1f1327afa4fb76f51f74b72d09ac626b9d0ef63b6bdd9ce70f489f699f228a6235b8aed26f71dbc8bef41221f3190aba43772c70384f3a3dd21f1a765a640be334c0c2451eb5ca49d87e7f84c166b95c9e6176d
337c36720c8b1781712a58fa1fc51a616518e23465cca769c72cd14f317afae7ca501e35399f9b42b790bbacef4a9a67a969ab54e5cbc7300a84f2d3a247c4a2ff5389e9812a0f692368c5ceae5f5e8fdeae0d580081dad216f8ee5791a8afb7bb5e6f46febb171a4cae7c5986777a86c6adcf2aed56ffd34ed2f8ff1f279e4585215308640714ebbb4e3b91315f21f524e6ec166a12f61d1d235184ab97ac0d9d1930fa3f97cbef38f52a306536065008a36b0860e08a409d042f53f4ea466330763c68449ef4e9a239ed0b9e1e78690a14eba2770e7db11ab176e989589160582fde9e6133d7c87ce1d09462299dfc3760356282665e3ba153cadebe43ee39
4783eb57ce64a891ba7c076bb61400e62f76f0a7d8f9e0442b1588c222212e7a29840994e289a12bf073749daa32f7f4ff9e758dbf46af14710a1f8316b586d851d159014f8328529dbb88698b4af6121c3bb889fef4b85e7042fcb175bd020f88c5a16254803759e971869f93a64ac0b88ad55bb00a011b395e45e35d463adbd125e4f0b420bef7b5f2d13c5839a4faaf004fc1d16cf691703ca65094503239413521be990b9e2450cc74ba1ea9541a6bf1253868f5450c28695cfe1321addedadb20263f478d45ae2dc88a760cd8e6d58760985ec802a9e6f3fc505c7d8d86099f6aac5ae2130c9d61e566724e9fabc81f777d58241763cd6a360bdc7a97d8
0c8be01be13d047253dec61db89a812914003a7b905b1d5642a1d7c85a18cf757d4f1b0efa43007b4fd757dfb385feb91a90296768ffe241916ef6862162120682a6e56cdc05169f5d75dbaf07e9c34feca964643fc2bf1e4a86019805ae48a747b1ccd513df4e063b42703ff0ff9395b38fb4c16db6cd5a4b812fb197c311dbfc865a87e0db77904789b41fc9c164a272f702a52cbbf9e353cb5775c26783a7716f5d2e3b5d7636f4e8a58ff380c855e9f3efb28e67241c7bcb165ed3d4f6fa45933bc2088e273af49e92952791c6f75cb9048782eefe1bfffced8e53856c8bee10423eebd206d5a8d26346e3d032ab9309c412179842258dc07b781ee88c2b
a8d63d360f661aab66f4d129066f070fc8cd3b60e1cf0df0a763e8ddd1a3629aa2bdfb9ea731aadfaef188ede9d6dd18045ca55fb39a3d33cb662b5143f864f88eb64fb5f08046a6242cc5b7ff68311e5bb7e54b2450a4422a5464926003f204649534c4af4a25672e12e721c32a30e340cee93ed0eb8b071a0588ab5d6230d4f7a25351a41d9d6025644a979d7ed8080ee0be64856858167c4916b9b36dec0ea19f877ba58a1bfdbaf2eefdf21b62fe7cdbb996937d701064ae7efba07e1b6d4a82b38b8191c041073d66941c27abaea9da9fab8032dcd31034adde8272424efd7e4fe770be52c03162588ead3245c4fd9d1ecc7b2077137b66c7d7ca834bcd
2114f0e34bfa968c4eee033672d0ab059ad3da9ac2129b9910b34e5f87685a92cd4c757828b785470d2b518093514415d65db8af1273fb21ad8a6ac737ce8a3e1b33a22ae9d337a5406b7d368a8f6719546c7606b712fab30614873bf92d31178b2c509c2b1c663e4ad858101bc619cfa877d902604cb5ab0a4e61fbc9450de3ced9c0c9c11fe43c8d3e883f3187a8bb63e61c27f05100ec56360f3bca2456464d266a7eba3a1a6065685487fb4b4ff759503f55988f27c54b18910f6ba7d3dca1e3c540b00240eb69437a39118cf07627f01e2c54765abdd47ac40ce91bb2b2e083cb0fdc591f08aa6d6e77ad3733842b00aa4dd1f6c320acb239e99eb1c31e
e628d0eccbab07a2298c0d480b935fee6ac849ab23021b377d4f98679daa1f628ee6a00a2a317875c82102c0390c4f90a63dc5ba73b0742e349b6cd4faa61b8c3bb7c28884953724a30a3f233f27598eaa355874c70a405867b8f03e1f2411d0e62241ac4fb36a10c43c571f5669dc1a57fae6f75df67b702c6485b0d977a944d9a6922db182b534e0a946fba56f20c5c355d39c7ef52f94c50cd64469004835f14a757b6ee10c78407e68d51e6e2adb21c27bfa75b2f795daeea58c936b2b3227d4220131ab442a94be61093c0a955934f32699173dd9ff5c0b86847e676c036295b2909b8d8539f81a005852bf37c70a0d439ad91158da26b2b4a037557522
ea87f29d4f09110d596944241c6d7eeeeb8364cb792f0c2cfa13bdf856ca9b416c8e1f8b290c92bda71e970e3cea2f41b2cb787a85bb45f12af1ca65638809c7f0a6a63829ed68039e153096b66e04250438396ea275f30f47cd51035e9099b13271c54bd90502a84f285b3bc2a2fabad5f3278743fcb92822c91e493eacc11c499d4c8bb8b76a9a868a0371bfd8dec250f1985ecd38adda1fd977b5fe6f28f94dcb7de0c642fa85d5ae0824cd6ef0f205ca6b0015c65b2069af6acbc90373189c28f7634fdebfd07b315824993d6c849bb6bee6b2abb69b42c048470d7505816e490d991b4f2813a6c1e643f73709760cc9481815ed299471803377ff12e7e6
e8ca22931fc4782e1376a27eb5104944a14b497d6947a46d80066e8e857eec8cbaa7c68df09066836cf46dbae1a283b02e718444a72533a79ae3c88ad3d15323c3a95f92ba4b8ca1da7907734879681d861b4141e9f6b619ab3560fb7971fbf89c77ebe3ef9660501cf02a81a7d159002230a59b61605dbc61a5d2d001300e7c042defe3c1c5c6b439d601a05559871eff86fae747de62c1e3494dcbfa6e021fdf6130468d38aa6f35b51b9d15ac0f8602edea6d18c07aa6bca9bb724aafbfdad08eb090cd8cd59822ccc631ff0b71b005f4a89aa9c5c40cdc6ca5a3e3e458f4786e7e6aaf8515931ccb20b8a494f5f822e1c387efe5c6d3c0eb7a8b46f4d92f
2babfd83d675adce75d59dd0e28203bb67feb0138f05e96ed067bc58c71edef7e832a6769d13daf4f25f5ea33fc57a0b06c8597afcf33b17bd40ace2d16e9f6be2f2a280a760a9e3e6a73a76352252e618898b52950172445484859303eda91cd1d5284d3f0c3d0d52f685eb744eb38e77e3adfcc5e7af80c808c6a09e4a1e8c3c778fbba976b02cbac1c783bb2c2a69140de0973147dfab33f9ddab5f6eec0285b5fe0487ea29f73ffa3132ff8fc8510ed5652010dd98c18b297db48e0f7a2c8a2e7777c0421de2925dc9e66e1a4a62d9e90bbe8b45ea7ac99ffcf1e098c1b55161784700d3359181d22ad9473bc3d29197ae4a39df6019560517a31ce122e9
4c0dd58c438eb49b50dba356a5b1434c6206a493f95f804d44c8f3eb4f78c5554c41e0b8762b6b5968707c7676d038f1883ee98ea968ca3b242edd6dc66e50eab1768e1c9c4d1c4484d832d253ffda4e1a90832ca14d4fa1fe9fc2badb80ad38a6b33e4c1873c1b9e03ac3a13ff0e8bc81971d1fcc568fc6ff8e735b5b8d7090026278fead7cacfefe190b563e5f6992da5fc5b89ede2bc1cb49b6ca4a33a998ffa7ba49e8aff89dd645a5698683931211d5a4d283a62fe51922806b073d79da35bd8ad22839204766d7504e56d95b0c88f412e223b65eef600f2847a0664b18c53d459cb30db861395fd1c266055fcea42370b92cfd43758a9d3e65f8f853d6
719126c27181caf93374d148de42189962629329e2b06dfffb95eb6136c3999fc08a18cc0407b4ea0a1355c775454d0077545ef204a1dbe065acb69a4a4bc4f015eab42f0ef07394bfe5ae830c338be43879a84762311656ff0073261b2fb0caaac0299b42709d91a0f974c147daf62c7212ee3f07c5887bd9878f81a9db90f646d348dbe0afa4248096c4f0bf8b677212992394622c77d57e5551ecc3d8527c2594f03f2c82abd68e0ff687936c7190e1caf99910364cb55950c95e2eb4ef77369d4cc922406c991e2c260a069a72fec70811d5c0e052ef20b748035699ee38f3c74958ba8b7b4dd4c99975cd8b8ee0793991b0a9caa3cf0c2366c901cc9e1b
de246b4566535804afa5714c83d43277493df3e025f54048b2d7df18b74fc0625a88f7764d7d53bc19e2243352012a86b97b835a374a270091f7fcc72755f2f8fccaed4573f3a91c9a07853c899689f9180df1df58cb85bf7a193c594f25c1ed563d8c1180f0da85c486883e64c5a0fd9552260f1e467ed0b7998d0a2fe2b07e56e5594c7bd01ce51ebe83b9fd991cf6a8fb17254de09e647266c90eafd3a045be6202884cf8b96f1a4fb11a19e8a13fa4afb0233d55e8e4b8cd371b4a4824db36d14aa40b47b04ee7eec49d06110db2460a4c508c7854c7d1bb0f0a1240f5dde6dea6bf5ad03674823728840f9d3083cc71d5865e91df472942709e1e674da2
c999c6852528111650d8e47e15c1b7506cf948e5cdac758f2b5ebc45bffa8a1d2b1976f72e0825136768bd493f822774a07b89902707c52c978a101c7e7124d5d39ff05f114ba2fea47852610c07d86d6183c66b27fdabd7edd68ce2eb5288da9ab471a184f590b8fc11eb4357e6a3ea5ed1306abeb27a04e651c390b0f81446cb503b0d1418d9e2c8122319ebc1eea346abb0dc51990eef948dfecaec5ec6a7cfbf8d357321b3df9fe4b69f86a85da7c2dee08c19f0db5ece5a78b91183943cb980753703ebaa2ac2e7cd964b66cd15f0508d9dee550c94334cf303a4e20f256f752fba580082edcff26915241510292b24c77eec793cfc7333cc36dcfcbf5a
d102740807dde80b3dc2aa66a582ed75400ab0bf49c1e470d2a294e63faeab03dec5fe5dfc5b07c2b11f5c4bfc285226e0be017537f491e65576911c55cdfb2e53fd49033d3919682caf439b433e3a99ec21ef11111397031eaee7ff88bfdb923ad601dbfefbd7efd8d84470d39c74f808eab96c0d2973c958804dfbd7cfc17e87635700559d061fc8bd7627f2787e4963d9faae1bfbf8b0e2bd435bdae4b1a9d09090a9668454fe473ed6246b92dfc0b605edc02f42b1bba2695f0f8cc46b49c016be735c7685ea4cbfda283719a94c4e7b4ee7fddec4d24bfba8dfae0cb8ee68b3c8fa86f6ae6ede274fb5c506f7c52a14f40185db970dc78c35c6f6347c2b
b086a36ef42edd6f6701549525ba1130be7abbe3e253f63525396aa44c1c16f3e86b0c61917ae3b1ece2a6e72eae4dbdbc9e9fe902cb850e555d1a3c6eefc5d6796836e2ef1c6c8c240844871d9e42a7bd359c4f6f50910afe33ac17e53b4565ff4ad9d71e8b1255e75f392fe31b2ca9604047fdb94a40b35119f45eaf1f423aaea128888c7b536dece643a103f9e3d6e223c18a8f4d6c41b537af6cd291c0ba9993ec0740c0814f35d653779c1df9f2e601e6823bc64fe3fdab54746b664d02000dc7e45cc2b293c9aeeb8283fc3e416e576e53701a2ad67ec6b95c70de02df3fd472f707e199769a7309a0d3540651cd63da7c0e714737328778a6415b188a
c89a541dab57b8d095caceabe65ec8656d0a31c9e6ed816afecb1455dbdb85e583f17ca2888e4fa80bafb638e50e936289b2e2138ae365b974da8968635c8e7d674820859337597181372169d329038489158dc0580a91b2b3e53840a5a90f8d5a1086f3b52356b9eba2260c3b238b3e4cfb5d9b2964b9683258b09c039db594b3ad0d652ac064eddaa6b0788c154b9d6b233be6a177ecbbea86ce6dca0be8f571222faaf847594da7d0e8412480f31f045a8e2bee9f043a74cea61eedb07df1b389d60376826662a93ea6f57d84e282238c197d75272c4d674ef77dc2bc4d91213813abc1211cba8d44c8760db0db0931b581ce03fe3e5d89b1c1a1452ed42c
9ab78db7e04f8d28ec4c8c995a8d25452218f51ba7f5b958aca45d280505501b2ec153e7df08affff2e037d06435239c53b9ba3bfc900566ae660c5e214511b9c3e7dec4453a673e2215604a5e848e1a94d2bbfc373a734151f62ac300da4f34de6e85b55eb289baa41a26432b7211812a3452d2585d384b04802ad8fe8840d5e8b2c6489b4dbab2d96ff0ff6f2949c28b61f2337190acf4ccb0d5766438ee63e8e77865ec9f62c31b60e221e8386cbc8a245911064496a43a1c38592d864a4e3d0e22fe61e32540d5dd35ccd1d8ab238645a77c945a52d7f9043e9ce2539307194dfa1e744d9edd22e4df2ba44a94696f0288ce4023a059ff734e8f985b6ef0
04cc36c1097e1416fea1092794f39c345ad3ef03a8270ef8cd9de4c5f124cbb99396eb1ee4940f0b7419246588e05e7c1663eaa9ec829a3c392268c785e9b2d83dbf530b7acf5e4e673b4589d912e6efe87e615fd8566646cb66c2cd951d10b371a7f4f2440eedfebae77176dc78135d863cb670446ade6f614ffea946daa450ae370014d88083d59297c5728cfa14bce22e99ec74c74637daf26d73da69b5a7430a4f45002f0e588842d5e9a460088812ee14e38259f89cb10a235802e1e76031fbe5ebfb37ae70d847f80c5f4149214d4aa6470353ac9a0b6a7ee86cbf0fe7fec5abd7eb811cdf1176ea77caebfbb19b3b594308e74a88aee903667c93b5a7
66986c5e42fabc6a3a901656691c6bc9371a12ea83f4b538a0f47563646e079806e8a233c84cfcd181f815bb47d304fd2ce673e5693798dfb1c4a368c343cf76eda8c559cafed15773f940494ecdc3679f318e1524b87ef49c7d754a4b056d8fd1a1cf07d0e239e4d6d521ba29dc4d5b006704101a27d98ae85cefc842a69666247488a1adc64d58230ae6cf79bd3f52ec05b38733ffdce60955e39c487cec82dfed4e7138fe34d66d90c160aab9fe2922e99bd297bafca3685ae3cb9e1600a183051a40de8f5b0473fc5ddbfe503920a6285a38e723cbba7a9213e7c1c56752de3e3a9c6d1a18723f018675ad7804554af0c1acefa0d3c38c47f391ab4f1341
84e512bd5a2b9051bebf51f6656377e1af683b7ae644e61db3106a06f1a1c37d014b9e4bd8260a980f6248e002013c36709782288a4cebe2b0710796b5acb023e201b7c2a028fcef8ba05ef202de2ba7cbaf6d6ee479dd9d51008fb8361398a75154ff302d9ad2633a2dff7eaffb2ff850f98cbded5ba6ce66413696bf0334ecdec36f2361d36074eb6431ee3e626b345861278167a26e159db49e2be81b59695d0c7374ab86c78e0221af1df134e32243bd57e43b2d65df8c88d24dbed08ac1ca8484e201ed76e99c10ae3a7b07b3aad39d6118722fb7115f367ef9aa4c8b97ec628616a112cf210eb56a8ac93ef3d4778404ac7255e460da7df356d627d413
93ce5a3f08f9e1880c308ee74b45a00e51c1531af8d230f5f1c04ecc4ba1921a556e5fa9130999515371a3ff62c4d616b83ee1414d3832245be45b7876e601387a67613b756dcf7af44403f609bfab12c6d5f542fa71fab3536956a092535085205839381f1dda81a8f02e0dd9e4bbfbec1e67e1fd2d7327cc09ba007d8eb6f5f65bb79e86624504205035e70b8377afd26f26bd826a000dc3112a3db1368dd4b7a8623d97347444e105e359c69e33522163401681e46cf44ef728cf03af73f32dba5394b9f65751d8420f13ba4f1f42132d4c977a9b958fc1afc0e8397dbc505f0966ca40c264af4f8c845a8a2d6e6d65a8ce1de11d1a1f696ecc90f987722c
2e0982bf5cf392d69e4616827c83ed49e3372ff9a0e67e2a54d6c34ec3cb866f1e2e926eebf5ca63f63e5b6ad8d156cd3ebc367c437686f9ea0c1d674e548b064a4b29d6739a9aa6239f53af638304e86e7b633ae5fcdaeca8aca2d5a33c71ec096889075b1c3a37e471f189de18f51fbe3ed977918dfa755defae120bafb849f1816600c3b3be97d6920efc1838bbe1955873aa82863279dfef0105805fed7454919e959d7ae9476ffb3f9b97695da7c86bcd3692726919f40dd3827be17e77459de0f2379735fa72946689c747e7560f5278ec514ac6da9f5d2e1b03a88bc07b725e08c253d737ceee257063629f55b5b6654b9e1e2a94448a38b7172f6484
66b834763e6cd5c12e379930ff1d828b4215a90c655a618b34eb3fe659ebbd4035ef52b9b109c9b60b49f48a18243040123241af6574aaa5c97611604be282846a515d80dc6c91071438b733553dcf38de9fb9164cbbbddb0cdb09955bb52e172444538e9f9253a83050b6bdce749d5c7910ba4248ffc6cba1233c99ff2092497cc9bbab82bccaee65b2121a8a769fc1e12516a17845d8f3e9e9e7f489e1fc53aac155e2cdbb1451d2aa8c88ebc87bd67ef58b80db49ccda4d981d66896f795b0bfa112a192569dd45e1b1ac1fbd9df10b73571d9404fe5f95883551117c5f5f29b638461cc60a5372f6292b8432df0dbe99817bacebafa8c9b32b8c48c9f2a3
73ecfa0c6c7b7504a34f81a1de66653e3775f0ee1e7eed50d916d0f057d9bf339d832166f43a17c00607b735745470d9c35d536678ef0caa10bc16a90295294b208cee3c441d33eaca546ee0b08cd7b6205bf6d78e0563d063378ed3d4d1ff1d0374d16b4f9f672f703611d3fdbca1f295fdf125c9f82aba801a66dc196842bae0dfd4268663d0b80069128e310bd27b67121c66aad09f93ffc7e951c7d795f413486e6732084e5e5e47b070f2e3aa9b87ef7696b88ffbbbd798f60b2b26760458a59c34e64557b00ddf611894801cb5ade8079355eb4c2c4a0fe698393a44ebf2ae4d93769c02050e17f9c597dafb6ef1079633286b8c9b9f6997d78849e2b1
080760accbef41d13e574f7cf7ee9a64a708b23d7a3edb1c8dd3475b8434b0ada1b1e502365c45e7661e1e011fd6af52cee25789a1fbaa00543220602351a522bfca293915daf3bea421910aee018385bd004ad84e6396bc15c6e4438e3b82477d92f33f4bb6b7bb1e1192abe269be9abbb85b7ee6509eebaf055cd1a19bbdd956ddbadae015ebbe5635b66566bb4e96a2e69b254ba89b02ca0026e4419b6002a68fc5e65727a9fc5dc4c26f8410ad6af280ffc6c8692ee1b226d8e033adec34e6f9088732207d4dc0ad62f15a834420a24ad08c87ec0a3a251e3975f0ba114259a6cb0651d848c3ed2936a7863e0023009a7782b39332630579eb9e830caa49
b44c976671aae16991c626298159c9dfe0d4640c271775620b34a71f8dcbbde80f13ff6822b7f1aaa2c046e0b3b3f1b3b5752d1ac8f99f9612f13bb31aba6f4826fb356dd4d09231ab521c0a3f0ad385d02f66902ab6d45f53c0027bfc36d6b337ad0b644c50209abe7af875bd5198c0edbe2c5cccb6d58296d33a4ba626bb466174b7301d6228b3f656be0c164826f5f38b1089e79a62d850ecb38c0f0b9aba6a0e1ba88b9613df80f0b112bdfa5b380554553345a5455ebdfc316492f09f1c40e7e2272c1305f9334b18cbf24089e70cc396d228a28100e5f9eddf07522e29300f6626ffdf0c83a3942c3afee43b3fdfb69ddf99a5d07dcde5d0add157f35c
bf1b023ef867a494d6af7e9b62ff411c918f23e66d955b217e9cf663ef014775a9f7902687716769dbf3fa59058351a7c865a320a184cd47df321b5e50238ddb99ae1fd3eecf5e01068de1d01392925039fec8a9f41aa9c69e45636ab66aae59b05b92c0d8c61f86c8c507aa8ee0c542bfd9c69e80896806dc220c965540d567a400d8a0ac3cf4a68a23a10c1f7e79f56e946570fe9d5f35968d58bb4ed79840b004b2928a9d7612cb67b7e62e341ac7c9b69550cd3fc0e8e7a00bdcf7c7ad76653425bbe3945a3b02be5d3f57e2268afb200341879104817e0c0c9d54d933f7a1ad084ee4fd4672d19dcf1c0352ebb682c2d2154f9d78756971ee81ed273c16
961896943f5dbeec3fbd340bd498cbe7501626d7f91a46a125a3ed361d965ac634d15d51fa7635fb1b80c54a3a2d1c3677c955efb5d8e7e8f2f20328717c929f5a5e2b2e0b375f1c87f6b9ba5e1311ca6d2338ca488b591e410498d35185b35f307732a082841e6056a2f73747f3b4f1917471ec263236624a5d05433e415d1b2ef7ae125b9aa89f07eceac2c7f44d3703f0d2eb81879aa0f688ccc95b33a80fb9d301b5e0ea704d70967de4c571f8ed32b513e55ebdc15c87e308dbd5caf9e7ff1cee6f92c17ef1e03bf91432f398329452287c09cdbb0e8fa9733d3de6ebe464993e457a2a0bad25036f2ac7cc231d0b714626c35b90b8c023a1c54e64b26b
0ca43e36dcaffa0954dd9dc72277c0986e69a16de07887f6340c7375b563f189cc3fac5fc012bd697c9f49c143cdd2af1e9d3a27eab4bc3b077612bf9976defd82c91726f9aecf56eb79272687107e90d91e481dd4568b840ae72d9dba2d51a23542a1c7a0bc5695fcc0937b14ef091bf0c11e9b32e25c7cbe68a81845ec531cba0536c4e7a5ac968d92d7ea0348de8da824425421b9e22ce41c7192f471e3ba3b5edf4bbd61b79ac332dcd2e9ebe261f75e906a8b6e35276376b742defd940084d83894bd86edc8efac11e2840ae7ac62a8411cbf750c46fd71a4532c90fb504bd00a520fd76fa55a0b74fba0ff5b406cdb20516bf763293381c14e2e33c60f
e2ae5a64215950a1ee855bc277938f4040d71275b80a8d7420a9baabba002fac2b975a3f3f1a637b262744257943547bc4534f2b39af43a46502885fd684b4531519592fc5ee2c36a02b1e16c21c119b6080addbb98b6fc3cda29dd7d03b622247dc6018de556f526a595d210ff98f2d62abee301d21c1e8504a359a572fee67636275358c3dc92ad9f164a6ca74aa287c79f954a38723f3b722b1453e644fd11b797db6c719542a5a1daebb9e6913a4bff3559fe587c6064ae8a65e4fc73451d4f89d738cefabaa3fd920faadfd443ca731031695a8c7a36053b5eedc8bafc021fb18e1ac3dfdd6ad18dfc2f1a04fded2e8f4b7e55a289e505282e34fbb3451
35914f4a84829754750297bd2b3fb93cbc92c89029cf0f4b75de07ee74f570a027546333cb34b2c35fbed474bec0f7842b71f29c8394e7360175355e904d4f6faf0022d74d75ad442e5aa4a496c706743fd022c30c458ee7d432bc7363ebc44b5d34d3815242f8a4641a8d1e33d89d37b48efa5bbd958eed6367b8514954c158e37bc6922d2ba204571cf2750492d42c2409a2d07088f5f525a58ec93435f11ca09a1e0704ee1c0291bc2a5bc662ac758f9065f842ae9cfda2fc176e5afee138268bb0a973fd2e506c8148737b8e1fa9fae261568b179aa0d9cdc56a5694f6d70edb3f3f92d3d118f7fb1b4efe809f91b203673742a90ed7d408f5bca5391beb
318cea4526d3c915636303153aca6069cebc4c7caac6fb1419606e06fc577e0eb7044e98f1af1f35983bf132eeea89eb2cf9a913cd7296be472dfdef2fdd62cfaae7f56bff3d63c95b7ba0d9b7cc051234b07c04b49901bdf4cdf952d63818d4a06fe436c02cea7dc1470d31eb3a4c177969c97532eb1b072d2609aa9a4dca895f3fb61cec9b9ccbffcd50e6420a23572a26d1cabf78a009c8985a1904c8a4ea9700cf31062752ffad722f8467f65020af9db7011bcec17ebfb70e27f13ae8b2e68900f960d6bcd9d6d1256e90c00fa95a00b81d8c5c55f8786bdac7001145ee0990e236052e4ef12c98deb00494c9e70ba37c2a4b6821f375fbbc76e1bd8054
dc982afa58c9f80c6f7e734406a862542ac4e420fc7e45d9cfb12da8cb47c30ebda0ba68620768a9f55987a94028fd0a54cb8a804a1a2627f467c928c497a50c23cd7518010f9d709645aa55a9cf6e77beeb401caf74d26dfc9c0dad84bf3505c30a878e0602b923c092c5ddffcd433dd38f494fd6cc9e4495c84aa184dbf8402f49876f25d9f761cb1616a5a8e5933f5ebe32a2801fd165b4d0a8fa6a9c0cb2195cddc657bbb5b4b8da97f0d455acf69e35aff45e4f6039036f592a1ba239721d42a784e960a2a80b65cc844db8b3091530aa04fc9f46a2d464cb195508c292975b99a22e9d08dabe0c50b9dcdd6f7a6942e239aa7a08b66d0fc35ece4b7022
0b4f2afc3a67847d25bf0e4eaeba691b2ecd4d1d12ad9055013b01eb1be0d80d489907a824e43d59e187f33856491e152ca310adb804de5d65fbbed2613d4de99da84107dd66c7daa05e1598ea944520055a42f92018bef25e0ddc36dbc97695a26e87c3f6b82e8ae1664ab08e17c44c54cf3069fb3c0e3f8578b66ee0a929440c1e4b49149629ef4eae5140420e9e3151c48d4c84331e25bacd6ad937ea532aadad9572f00cb727fcfc6c9427932e4b3a1dd97622e79b9650c2d5cdcb1c578907be8aec450bbb8a21d01544b1746e9bcfc69f8fcc3655c9e5bc4a894ad122345f374265bb17ece62349824454c312f765ce8c0fd81be663e2ec3e40fd5ffb29
52df9c7c6b1bdc921700b8bbbc46001ecbb58d4ef708a6147d8565ef0aa44267d057f582cd00cb030cb813d1d869a5e21ae2f9551526dfa42352b0a0270e8dbb6caab557a2b5990fd819ace8f9190200147956da54861bd5a4ceb58166c9652d26dee600c8f1977516ddcc077535cc9777e43ad5dd74c6b286264504b44121688db4b1e9ea6ab6488ddf3962ad021b898c9482fb2a0a67ca6abb79b70a6bad3019ddddf31b7d70eac05570a11a61624ea3b0968c899f24f9054e3c7578731db9c1af9f302c4800d2078a38439b692df06577f32742f9f6e959804a2fa4a6701b0f37b7e292c70b35d5e0d27067265271b23b5225e5e594fb373f746c3d7941ae
84be02578939c8f5ae1a102416f38f699e0151c6a632b7debd8f92be5bf6ccc905cf81496ca192db74d3530378239da058ff38e4f7329851784479fbff40eab7f61f282f2def3760e3597142d501b038da9c1512a9743beeab2e1b1f1c91f3528b684c65265e4603d42bed55b1fc976ff3d3c9be160e7db3470b5a9df0c9d41d17219fcca952c0a7d37578726f08985e9f49c3ffefa6800abaf10a6397ec3d02f42bddfcdd6132db2d483ef392a19412a488b2d80cf55bbf0a6d211cadd31438336a0d8c09cf1d957bc259151483b6cdbf8e9e5d1dad1e39559ee5edb892b023af248d7e8d3721726813d6cf367b6c2b34beab6774023b4aa4a904c012cf531d
459c98471b49c2609d174941a53d709c8bf6ce420791514a403b85f5cb6d95036d5b47c373af1378fe8c2bd25c491afc94c305bf0b164db9f06f74a026659b363025a006580997600891fd64f45686ce0b5814026e4e655b0fa863020333c099e526d2b1af57491af34d04f8267d00ea1fd41a74163908c20417b2455695ec7acdc672ee80bcd714e8c8b5ee08affb8d76558b716e78b1e60ba9ac3770b591de6974a121bf6f706a4a4a6e441a1b21e0affc3c4a94f1619540bf3cb9a08e83ade0837a7bf1e0c456a768a4ce5e0955931a77f8e8b90d2586e666b320974a9a1de9b601aea9a003f4ca438a3d1c435b03c1261ad708ef9eb269357b5ad8bab97e
8b9d9fbef31513cb715d51d5ec24ced86fb48f326e36c87c797ca72abfa65cb927d81bc7a60fbf79f78561d009930b53fcb0ab818e070f64e3c67ea0316db420b1e2628323e56307d814addd5a235280c2900e5af3b33a8a61c55ced32d2ec4f98a2aeef9babaff875debd50d77073c3bc08e6cf4db7ee611702680c9013c501a8384b2505b5f0a5ed168f66a7b710f03d8b822494ff556a992acb2154d25225e81abc9f03c0570ea9a312ffa6db7b7548e652f06a176006322d38d6e1f04071eed916e7ea8216092ec33193e5ee28ef743454e53f114f913289e01ad56f6739d45b29d38b035360f65a4b6c7607feed2bbc29bffcaac95942c634d0587acba4
6304f2e9c23be591a3ba4e3f4c12ce06ee0326464f4f0ab1e6ba19a6dfcb5159462df27c21a7e0732ec8f7d8f49c7323d32c5f7c20c3ab7775e2a152c11c03f1245efc7030ef15369297b72867bafde6f80f978b7c858af068c86a22af9be19fa5ea3801dfe4e6f3ff03c6aae885292d47e64df46ef9c565d285629d33802ccbbba32aa2cf940c0a023ec077e743a2cb90214bc8da730d2baa9e025d519cdc68a06790c7db032c9133d23252456eacbe9c81f07a3e47e3c49323161a77ce7922267d4d83fc7ec1270a2981b56820e9ee4ad794430d0666cc38843b16fbf93854a79120c57ecf678ea645dbec73a9e552b75b8af87d1c5873e515b1825e35e516
27c36b4c837975dc85b19eff109b28d6bf24ddca29baca22ba7149cac5f9d3cb6f9935adcc59b5e39e2e31a74a50d16ca5981632e65b2bdce92ddef5d77cfdb698da380108934790fe3d359a44dd20fc2293a8f31af691bd3097bfc754f1475dc7f232a2500c3e9030ad7d3c1759704e0be3b772ad3f66a66ee20dda9e8cbf3bd5e748e2d406ca75bce2ef1ff4b8f6d4e3dcf823422e551e165ee161286aba69650a81df9a8c57c7b96a4bf66091e1a8a99b3eab33242dcf3542a10b096bbbe405f94040ee93ee4c25e8930416862383fa925fe63ad4528633f9dcdf552214376d8fab1a77cf87708a62ea6359bd322cbb19d7ad7e013361120fdbb36785481e
ce8b43a63ef05b63666d39b1ed4ec4e92936a787d060783d8f488e4acc9765eb6a1e58f8a9f5338021a6bb9baf36c47aa3340372e176765572d60950a76d4958388d5228b30aba335564fa865bc4d8aba30691ab4bd04b67f4acfb79151bba62432f8d02ee8f19455bc810d1532b83c7a3e212246aa6edb9e9033dd42c428b30df7395669b5f65b79b868cb418351ff70da36db2c936c1c870743e789297f938aaf550b7108e2c8c277672aa7517f2416fe3e1a90067aca934eda71ca54c642f4c6e33d9aae0b34c3b42914fce1227f4a208a12d73e7860206f8ae3ae3d243ea6995fe07c23eff5e909524396a8a9d8cd2ed02c328eff05c6553823683b7c386
d99384b8c7461d9010e139319e650d377a99b8bfd68a6a6160669684039585103291496f0944f1681e430ca82359b2cb01e45aa92b764a92e20b7959a3ed6088ff914b59a4c67a692ec5ff7565dbb698140105d8e2cca97be803cec6bc62bdba6752843739fe5044fe61cd3f8220015b5c330fa356f172f44b9236bfcdb378ee9b0166e4d9bbba05ec5fed3c624be90fb1312e4d61ede3b582f00938d39ca139493027f2492afed074bf617ba36ba34e7db5a6f53f29800cb6a636ab241802fa0c9ee7f4f255f4226208aa0c9995779c264962dfbfad465a21f02f1020d8c3a160ca56b6f90faab04c1affeeb7fbaac93b457a4a325330db403bb4ca2a1a8ea7
332d69d95b7ada079c7b24da9cbd2a851c9923fb9144669d9448a00fd7a823e5631461171b7211918d4148139c9112e0f972a74b516e0982af89ea58c2c3e8d2a13d51279f97f089a77a832829d12ea8a19c27ca3e15ec0ed4554ff7028f59c9c8cf8e73370393ae1e11142d47a9c3ac2a958353a3a674ddba09268feb5c689a51d78767b05b36943349659d6265749840a17da1238e57dfc967f193d021eb72c443fc20bf5fd9ecab7686a26b42f1657c4efe844d58b0b4ddb617915ad0e248fe39a340b299558c8abec01b4083b3207235df2da5c9015158b8e649a64d72c099b63b9c3785e75717944ba60a972a73dd21096c5a74fa19143b0c891d8f0f4b
fd6297ad2819cd923b078157621b0aa7a459ea16aa0fdae14711c607e23e271b13acafebf0228e41e542bea38340a3b24d8d7477f04bfc8abb199bd18842ab01a03fe59bc8cacdb3047e6daeeaea9d2244b33d1b7078b8d1748cc1673334b4941c4a03c756adbb7d099560062eb33405933ef0f11ce8906d8ec4e9a5c89051899182a3d3b5b7e34b8338b57230a92892ccedea24fe67fb0d71df9b292b81ac848662747afdced7aa194b34ba4a4c0d71b76163d51781f4426970798daa2d92af98d518687acd4fe5e4317d34de55f949ee23298d522627feb24d7847cfb8bc1481750a683d612d88f4877150666f60e12bdde49b1d464cec3874185128a434e3
2aa685634c5c5ebe146f5c017db48d530040e7584ce5e247bda858be06db1e7a76b25f6d1a94d2ba0ebb61e22c8f9bc5d530469a9fde69187b76abb9521c6b5a0566cf1258e4fb124f9225e302e6376d1787f943efaf2aca68f60510f67109b30f069b58a9845facfc2c039e9d195f372f244d201ecf1d9cccda3a8debb9b6495a76de262fe1064fa6c885a2ac012847a98b8b34af96af890578791e7e3f1300a0fb852bf7a40569aa4aa45c030668c60203c3332f0c88143a39e1213432033a067eafffd9ac17ce0a09e6541cb890f92ffdee23472fdc77abed381c4961dd5b20248a153cf46b0325f2dabdc1837bf299b3a927ea5e3d280599d2bacbe53ef4
5b491f85912a066ee6ce0a3b96421aa706c9a0182740ac3c543ceccd7bfd489f0a11f871cdc435fe0868b08ee7f14c4dbf222dfa7081f7e247a3c606fed5493c5fb18a4cc0ad3a5f1274780587911fee93e4f974abab03e97b3a513324b5343eff193e5882ecf6d743cc4a62391138d1798b21f1a0a00961f562d0470e7aed83e035c28a2b0a22a117718e8f8b324029d806ab2cd43e3c48059226485de232116a6f021b355dac6ec60ce71c09a0c40e93c987e10fb259216e8e5b491a12c97e57fc3cc8743af38f386350242dea5c82ba3bcbfdc93736426822158c90e5a6d7665343f7517d05ed6106f05eeb02ed754d4d79d87b64cb6c01e436ce9b3f4160
2982bcf2c0081891ba0f6060071bae767093c12f7c6990230c26c3b7613e06765d68c200a38f508d53489c5e9c76cfd7bbd651b916462dc2a95c254e4dccc01106b9ed174b9ff6782245bf36f3a1be345231ce3564e0a67abbacd9924135bcfcf624302206809325f79dd5ac584ed4fe49b4ccfb6a2f183dcfa7aac3c2c1d7efcb0c3c197b75b59e86900debe7c47992196da8444eca9c86b12c798b155fe4c9b6f3becb1a2c0705b44612925f385c3e07f84260a47b9649d8a71a87664f3a7e979c89878b6c14713361364421dfafa920d0410b63e99eea31b4528187c188f047025514df83bf858d59be513fe37e1e55d64ebe7cee1d336c2180f3ef4a17fc
d2762b26d29af59b1a2a071bdfe56222e1d102411392ef79f8a3cbf74a693aca6b7ef49e28dc4a339eb3afdb14f68d2e935266a1d365c9d35912bf40723101de6bd822a1366960140fad22d1a645f048f9f1582efc64690ed546401002f552df2c0dc504a44a4c93497eabe51f07f1ae2905f78d6ae6c21678d7e68813b105702be8624b561f141d7e43f3a0e50f2fd3e346105e8c60c7d1537b88aa6e3ff87e47ef7c133964022adaf5f47d0ab552af4e96aa55a7ef2517953f27fd4e86ab944ab867b594f06e6daf4c19f8d7930ace473318bab7b6572b2f81eb726321cc7967811c4da259983e1c1e20a5942e41630d66301ca94fd56cb751f803fc4eee67
940ebd88ddd7c9b27112e368c92f524c21ebdd6e3e726a2559ceff6d3ff45f0c648d67e2061fcbf2ef6d017997d1dd1a10a628730f5e84910a2bf672474387ba36fa3434e102425872bcc116878f502d81536b64b0da1c61e9bb948592a77454592f142955b782d0bcd4c52feb81a545d9253c88f1553dfdb29161c9c565a6889037fb36205cc44309ac705c00bdd9c5798879cb1ccda39edee468cfa156e7f9cb644fd73899f1617741e854b8f1c555fe5b25c5d0f6702f2170b4f206f72262349beb40c45743aef85fc9dfb589fbc6a78d047dbc378b1415d2520bd1f627c1d85c5073130e707aa33dc50b88da4f34afb42b749fb7ccc471a1f941dcb181db
2273c34c4a4549afddb0e988fc9ac099450bc8c50d0e93059acc5518b2a72c1a63c6bd76e21d7c58976468519ac10eb1f5c17ae38c2fe875db826765c5eaa43e1264f13f901f19573de95f67db6800e8999976c4495c294f5512f740b82ea600a852768de34f0f54a13711437701f7be0e7df84d9c306cf12935c8166c4927b894d414c682cb41a477804404f3006f5fbe6a9b8b3e6e27387531d3cc7442d055cebd54f6de1ddfec52006a3a63f3d389508bfac3a2180c7247e0f85215f103d82b31db560117f5a79eb97652c7da2eee6f6c1d87f6e911b906ed1618daf13c85ea85c5f3c3ac029c3250d21b4dda89bc412e6eafff2be9934ba82061a06ab983
9f5a533f1c309272126ffae917843a8013ba13f36b0eb35a4dcc6cb1fe7a1bc0b5ad8744b27d94eb9decca11e161098948b421f26ab3ae65c54b8f5d3cadfb90f004c898df564bc10eb86b0f8b5ad0797d9b7ef5e462ae8459ce0d8f1a9b9c2361d200f8cdc0d381f20a541a42033141d645eebeb6e4273adfd25cfc10beb8e2b07e30f92b016ebe470e50b3c42ecba4708abb68940498fa8f7ed130728f786163ec2105c24094ec035b8ebeb697c6e0f50a7ebb40c6585e1e8c3db8c7a2b519dcd9bcd90b77dc93eb6734141f914fa7367853feba3c03eeb6f4d4af495a964dad1b94202e6f749293d083db31863206a1982132b922db7401a2185d09c918c7
d14bcba0551d8d047204aa37b3e26417b6bbaf97c1f8327ac73d77c42a87ec5a8420eba9941f112aa1d5631790061ad3b54c394305de3ab780b04134938e4f45106a3fbc8c4824693bb35c3b98589ea2df7c5dbf5aba65ac4f38d1ad6800a5e785548c7e1e4309faabdf4a3502a99ca95cb54fe405d99a15d59677202b53fa0779fd61c8a054569815ea46f9bdcc4850fb132c8066c090fa9b1fd8bcb3baa232ddaa90caf5a4c8a0dd65bb1273d93dbd1e74d09deeddb1fb7c897e29834e27d8852d6cf734bb2335ed55171803be50f606dc04bfa54969e8faf6d7cdd15daba61b27c5feff59d302644ce2ea00abbd15e893dc4274ee9d4aa1c13543a19db039
22d3a1ef16170d828375394a44a995d929a006b17c42468063485cc3bc5bdf9e1dd06efd0acd677b2e198aa0d798eb04123eee6a4802e2150b33d88558468b8684261d522c3e4a6cc920dac4d728e7ec2b731e8d32390841fb9b273184c9818362a68192825410390cf73128b34925e693329a86392231d62fcfbc27e773af2252a8b8e3d0c3a27ef450d9eee0f73580d117a306abc48d6961eeb70a0c07e383d684771f5042b477d2f409924ffb822ff12c05d982ba1d5467ed0f4d4f93475728696ad7d151204d1ec5757da7ee3b1c5f8fa27e7bfcb9b2e7a06a9e815560d1125d2e7d590ed5c97d13473b941befa2354c98e741c6eb98ac8f8698a5623a6c
83c4fad93e3c26c3731ec6d55d070a1e8f579b39ecd815f9ebd63fcbfc3b4732350ff9d645675368f0591cfd32219e0059fbfbfcd75999f753aa1c20710fc7030361f1be6bff680cbf39faacd7a4438b4884083dddbd3f667cef89b5f2d1bc55591b28700b3509d8b13acf1e12ce34beca965ea2bdd1fa9d6872049ecffb16914e2daa9838a68f2ee95b44b97dd73d8fe1dba718459468fb57ea1f3259eee3c841a5f54acadc28ca4e361ee7479302e59523ab1b0a5ef670339dcf01b8d3da232728b962a962eed19caaf010ce96c9df76186291c7ed97c58f29de8b6be6305b8f4503b40f53857e47f3972900f745758db7eb35f0fe4a4033438097805c28f5
af236ea2ecabfcdea1636d600dfd6dfcf078ee51bdcbc0918efb989946db7a60484b080e7727e23c343b9d644adf20f099b812522f8a1af2047add559cc1ae2c232b564554c28a93ad646ca6b13dd43e5d36f2941a4dabe379d3831f5e87f83e7c8b49c9ab1836e7487efebce46115b77ae4f1afb31d64bfe669428939917a72f213c4962a6f46d157e6f50959adc8af2347149e65ebbebf196b88e19bcdd2a19e0d4051904fba3ca9c05bddcf86692b9b4223d789482a39a11c99bce45e731e73640e00cbaa060aec6e51c1c83a83015710cec7b36b77cad427aa8f12c9a19af1256ee07725e4fb43a859819453bf83249acb8bcb145e9152d66f956dfc783d
47bfd36355ca6f512c4db8b32bd1638ca624e432308aba3ef1b171cb16f6a19a557e567890bd9bc9f7d3df71dcc408812be1866b42251b24a7de4ba9744b7ed0ee6e20baa287916353fd514d68c0dd92ec5ec2bdab304e544e8aa6578013d9d09f6ba4e1738afd5c80bb4a5de4cb3ed3fd8634fa33ba9487505e13ceb997db2dd60d9f8a8a14a9bdff76da0f3d950d37ff3926af418fa09126abd86726ec6d333b45273e90473b1460b96dfd0d215cf162dedcf4f3207ef1a6a5eb3cba2c4a5393c40f288f33e0da001410b8219df1aba6ebeafd6851c87805092d084cb1f20e7be82088d9991e8bb7a9f469576b1bf59bf90bb5b9df3a5d278554f92c6c7562
5275827297534486cfaf7800030030f55fa328b37b2e8d54b80534759646a4a7537ce8dd9741b6a4e92f4f7b226f27c06f583e6a734f2a21c7c6f98b43d7cc0aa92a14277878aab02cacdc98724ea0c5a399d71432d14eabcf7a3bc6ed45b3e3764f88ed53c5be48232a71252014ea78f7139aad139e742b7975ead0abbbc29a1bdbc5777ec99fbd8d6e870d625792d3cdbac4e6dc28a7748e606b6905097ae6522e13eb7c418293c7f03ee6cc223ef114be070f81c646026bcfcecfb02af8edb984c0194ae38e8dee80feeee681bde02c34284efda807b485a26d0ced3f80c3252dbb0201f36180439626fcb8d205dcd61ced9fc1d973cfe9b67bfc9e23b019
72c4af5aa1b18480bf552aa112c74bdb21c9b4141fb3974653be6ea99c91e51506122db53cdf2cd924a78161b594ad8b2d1949cd3935646e1bf0330742fe151d5ec49f457099cfe7bf5986e78fb679c0f98ca20e71d63a084a48fa70a46d3c622ca4b86d50830b00b63d67f33c8cf2c81640571f15274718daf5dd776bd0f3db44562344047d053b4cd72cb28c3f597e02751c38a881b6304db5d21b3c47aaccd1abf35fe0e3019bc8fe8e2696470d923d3a572bc8be71e768dcab0e8354ea26e61e2ab5cf377370e9b794b84c2ffc03f3324810470d4c76b53071aed7003d4f236eb5ef951175590f487bc0111b5e1102cc46b1fca287587e8b0265029f7e03
5a6d750586c1ed673675a1e7670adfe690f2f8c4725ec2fc1027d0a17114b544dc3b123cd84f7a396d163f5ea0aa17d85dda9da0b0304f257c96c66ca5748180a7bca37eefdfcd605b1847e59320e5fec7b6628f719f2f3e61e8206df06cee0fe9a4e144d4da548c7ea495c68054823ce8a92a2e886726a23021d7a2eddde109a90d5a3123692ef05ca6c7fd44579e0ff0174cae5cf980a32cad1ad117120a27c812c4058b3cb33420f0a37ea6faf2837e5fea7661290ad57a4a1af054a4e3558bb46039ed83ddbfd6bb3135275cb3a9f089e02a79bc4d1a64c39692296c40ef3e2b5b63b610211aaafcc3bc8865b940234161a08a5d7257e57ed1ce9367ddef
36ce23dca46c97b34a81af6fad0ca8243b3ea8b40bf1e96afd1685feb935a9529d0f2f09aa0563095e5ddb45b0c4462518465379a227c2f586b94cbc2450f1b86f970f81a29f3de1481f01bf5776710bee23ae3df2174b201842ca9c0ee9c87c73849965a045570401aa3aa5646ffafb621797cdb69e2b739b0235c83208d8572dd15ce1e8ed2bad4bcaf798639f6990abe763c76f5c1379b79de61bc489d785691db895a9514208bbd2da8dabf5a3dde80bac37993f7030d7f60cdda23b3a352ce42a436aa7067a270106a9f93d6ae17b58521af74c5b2833213041ff1c6343c5ef5108a6c05d4e88bfe5e8cb846e5f4396df8d5634e9ebc367db016144c035
8858bf0b1be15ed4ce47732e0b02e20112e441a5d3842bfc8d6663338c6565753521bd1b1b9288ef1235c3fe327d94e8ced296eae80ecc932c4895913383a6ea625d18737411a73fef385ad3371d9ccc40213b20f70f4f0b588cdf3b8cc178152f08d465422b89cb96bf61d30d277065b1ee43cc3b4dc0caf951c23e6739c76c484577a85c3049a54ad77d31d30e36356c6671c7920664933c310822d989e2266cc016b7b9708b00123060e09594ed46974a1f5f97f9629383ab057c54087e8c1d54fd026cb02b39b61041d54a761dc7dd1716c528e65eff2bb4e29d0221064f0903938f0af860e457398290b5bf92ca6c350dff160fc9812a0eb6ef025b7e69
332f5023abeac54c95664631c97273793da2850e52c5be6d6af0791097b5ff458695937d1a01f7044dd0b5d80f889b2d6dacc6c239b37d73220eb7bb6616546afb581371bb43f7d4845b5ac282286bd1f44eb325337883e3706b7ec6ae504aa98e73b50eeddd345208aef293cf0e1f5f53ea7073fe2f73ed1bd8f85c58f36dd1a8fd8f97ef2fb653f9616e29002f108fb8d7cc8a6b0acdacd84083707d15f9fd822ddc631aca71d1c87c25a9bc5370ca8610cf01909c70266c59021db4711f0f9256184c98247563fd2641070ac69cee47d847196f2bb4e5dd8fbd7732822ec75e1af1c1cf2b8c84dc235bdebd1d3a49cbdbd4e55965650b4bf72f7b42fd6350
2647f620ab25dcd08087fe2e52d00cdcd155da319931b999a7941ed6859c6187d5fcc7ca6e50636f3ba9c243ccd02b121fbbe50396598d904aaf5da51feb3b31158d2d8882aec9c6586c22001103f3c5969ec56aede130078bd7389465eb8e37edfb8b5963639d0c0e5ae41be8d4fc70bdd6069d75a64c4d02677b41d908d5c29c9fdc1a5d1e9a2487b323b6431237ecee9b767e2dcca30a3662c7fa3016902c420b84c7566890e0261a954fb76034f24bc3bab23cf7592f9119994f93400a17614a172c8860ecabdaa8cce347b46120549d696b50aef6bbf1928427885d6f72d8a49ee51eab8e0fc2bd8288c6f743d5573734253d8fd1d2c74bed70a4fb3fe4
c8992f5cb1b83b699f18c87c6b0d87de513b921ccf509a32226baebddce23f18f7986b27b53a0d827aef9f91dbfce77a98f76613adec068b26f94a1122ceef63acb6b879da600462765da900717d9a59b07bdce335e325f59cbd1e0764213fe1f51903079b24d167ef2a1e6d98362758aefabfa69dedc878c0d915f29f323d4dd26bcd084414717ae4a960df7bf8d4492bc46687d8c551104c84fd36db6567f42622983ad43c619ec3b823991aa62a0744332afea547369a102493238a5beb7d6d6e8b15f2882a2d2cb44cdee48a728c0ed55fe53c92eaba4897ac0be0879a6cad6f646295cc05ba03f352a6bb645fb0b98685d582e1c716a040598fa1bb845f
a21f9b6ca9b2da06bb21c459fdc521c8d896d4b1d85999d9c634c35a9e5fa33332dac687919fdccf207bd05573e17c55b14b4b201fc1e775bdf19f05a9f72bf79082763ce4760d6c7c235cd71c1bdca44103a7cf80d888cb038289c5e2b4fb3331f3c281544de985b26b3fcf4bbed95497b399d4b5455130095741c6c86753a810de265f3705ae886ae78148550d201357b34c81c00b92df1a3c0ad52101ca93f3617a8f2465182272fb9571d7c45d637b1f928f2ea4f24e480fc02d7d2a8461bfca65e1f62f7218c7dbb7cdf2791c42d456862a39f13e00632c933a0c2d6ecb5bf2f593e2b5a58c2b7b4f58c2d50a6298bf44acd15333eb28c3daa086df84d3
efd90f832d27f6e48fe0a92e63f8add15c27ff32b118160ed49a19d7f6670b7e010153e5864bbd6a5eb12d5cd7185e2bd6a77d1f13045f756a8dd9e849f52577e5ea84717044fdb9ca721bdf753d00b543348e33e5a9df17e94545d686709cd9b6ef411d87045b50f5ae1f04bd93dee8014a5605d7484125f8a8d99961b9661cbf8d17553716eda3a9dec6ca3730542b70ee457c1f4d47e9253037b2545b1bcc4d2284fa5dc864e63ee46673ac4a160be968a6059d3d151ccd768e362d179e43601cd0b08a5c31c0475feae0f364e2e931c3b4db240535a469669dc66db949194140884a2fdda3505698b37232636e1757a17d5c9d796b7d3729a9cbe5dbe6f0
80723b2e2dc6548fca2306ef49a579e86f6deaea71363bef153855380d80de2f8baf2b7b8e8155ca20513954489b48186b0f582e2d136b40eae65d5593f4a5f7204506574b4a621f47f133c20864706c15f28ebdd40d19b6dd6d52889fa62fd697c494dd934cccadd3cfa132a7af4f61b67d3802bf2d97e43b6db7cdf554ed646328226673f8648b8d771722a06bff9f5cb299dbcfcf656d5d164e62b9474f878be338b7223734c7387e302448f6d8bac3ece5c56166986a07d2cdbfb78378c419453de102a50bb92710889cef66163bb81c1714ac4e5ab4c8baf953a8bc3076a7de1931b5b6ca374e65fe5b4a2d8f288be912812c73940e51bfb20b0c15b398
0515c894d6c5a0344140147a5e9e0dccf043f3cadd758e1cf3e751dcf2469f5a90ec3269fd0dece988512690a8a13b77d27950cf67cd3e7a62185605a5fdaf255b5d336420feb1f2daa375da0e317c2aa1bf7520482c37d7a6c29c57bcc1c970d50ec43f7162a5fbbc21b0e4ee65a0785b752f7378895ba85e942980de5de85d0c7a585d980c1d38d4e43d3edf248e50be7ae32b6a7eae300486f03330c96cde2232c31681775fa4ccf445cea0af04397077336a6cfef3a7c9d058925fec83a7c2132e8ee8c2f8f7d10e3c4c2432e6c34f43cbb11bc6952ebc7dc4defee6c6b1c8c7f93757f64f8d78111fca67985b3bfa7973b0bfcc31b050f2e7e837c1238d
63836392dab4de416d204516bc15b09406bd7908a5802a7aa55e4711c23f8f31b518a483a5eeafa27cbc48de7a56f64aa1ec5de2547975b386f0ae4736c9cb7a51270a0b9d87b63b1fe2c7b7294aec8ddaa97b3376f106358a0ffd359386640bbddb85f9d5970c3d20e8a45138c1d88f454c99401185e9367d090289dbc8611e91c5deb703f012658677f36c999e4c90bf6d8f6ff22340210761b2323045b2c5d5ecd8e2f48f05f5bedb0184b80af87d5eb22fa3f149f68fbf55136284d71d63b566ad55f1e54a498d27c22e65588496d3022a6b3fa98e7ebe449543e920e3459478838f38555be481a72972c91d7789736e99bf8c34c470836198253fd38918
c339d6df16f32c8e30da8a12659fcb97f967aad64379c9ec2cd389295ba0c0ee03a6f709a490ded8abb28c8de382236117102b257e47a1e55be0655ab03e532a33fe7e9544d4f6c834bf600036b22a747bae081a93f265d0f13487ba8dad3df2e9084031cf90bd8afb88f0e0bfcc9c8403bd6d23207378954796904e9c9484f81c4e09ac7740966f9a4375e26b6d13cfeeff166a157248db5323e4acb6d2984590fa775b568b026e46d2bd684ac12f34134e41d39a9bc09e9d6689615830d27e5eb77d345aa53afbe82b9b00e30e730a8772be224e2284e8cc62e6a9c571088f8f6ecfd26e34fe5c038947bad4b51a812ef6f6ae1c99f4b1f9f4d4e15e032f84
ba11e01f50d7a456f74213076fdcb18cbc06d0be2a120799111b17cde4d20f8908d7d3a8b5b0aea9dd3b5ef63830d2497c4fede100c17aa0b17cf753f0fecfdf06d1ea9e843794e45b1e82383a1f09254ca6910d4b7c639d50c279cc4fbfa0e199ff3cf265bbc4cf0c463c4f7e5774b49f60127a90d09e41b8b363aed9c06664168b1629315ab2e9abb4b2015ca892301f78327a5eac0e303cf4d0308b23f357b627625cbb6e067eeb6c5192899f2f2e13cddf72e635a88b7344a56c2f8e76134fa655e7730943cb16fb8d44de68f5fea73ec779adcd337dc0a93be83a0c7aa40abd6f99ab787aba973d4686faec9ae8deae0086846570a4150ececc5c0bbdd0
41761245ae0e01969f83d2f7c41822e187d22e84a0f320771be07746a955935ea65aeeabceebd6c84ad71e408969e9d6bf71fdf36256ae8c041e81d2c918595cd9e5f6fdd98b0b5d787eb6492c4985d0d2c8e54d46eb762627e2184564f38b6865087e80140c795a8580d7d549a1fdeeacadd814925efea9a7abb3218070c7af29e686f35d5fa1b454444525ef27246d5e4813a71301e892ffafa9c07bd95d5fa772be784c8cf06d7acacacd99f3cc1b3da5574b446e655e0a4718fbd601060fb1278da3ca2d4f8270f1e0a5a855aeded14d440634368e2b44d0f458da9d83a0bcf7c2bfa9437d61b4f81074b9bbdb8972856f3b8b42e10d32871d4716a5977b
fb7406c5eb9866cd3e623094d830ffc8f09b74e5376848a1486785400e688b1006ca9c4fd52410b7f2ceea88d16b062f5c432cb033ebde4c690fb2c6b9b64d3c9b4cca2c033a09adc961d15d6f146ff733c9a059ac85c170a75db41810559bd530546c349b6a31ffab1cdd9a97e43279d4694851167a146f9442b56c8df17c3c9d491848acfe7500e86af1ad9e49aaa2c43bd85dde11522b7d19c4f2248d6cec5e546554da2355deaef3a61c14551083d9469419aa36e00912170f64dda15d959a8b7bb0128501a17dc73a9a70ad4fafc5444b8ffb4e82370fac41c0b96e86515f54ee0f286a29eb78be876d6db649a6a618087517c6805d96cec731534a293a
be84f11bd6aac2dfa01ad9fa48bbd23dbb994ca1a61484b67d6844014c5a59b85e238493c1d41622a631c6ea587916ef7e12b4db044504d2fb0944fa2ce53e6385902294ab2f5d5d694cb77ec177c0630b0ad0a4ca9d2ef3999593744dde9d57104cf61adf207219d6ae563bb34fc5f2d0f2c52cbd0f238f59bddda0fd56e9857c68cd4b84729f5ae64ad71249e553a339d3c8d4086d1bc16786edd37a9c399f3bab92978e8a222df158e59ddce3a7f519d071bc3fb2a869d4141c2ae56c225348dd0eb3f51db16fe86fb36adc8a6f3d26a3a8960c79bf5c6b0c980217e5605ad81f499727a15e5af4112fe775fdf4b3f5416642d453eb86e06b45336249aaea
