da9730b1653c9a34604d75c98a8e62da
fb048fd56cdff1e2cf1981a47d0a7e8a
2ea2280e7e6bf28630611d775b785532
9019e907dbff0a66ea3961708e9a4fe7
34e0cdc496002d25241d795c26d716c1
ed1419f4c18e926fe2e3f97af5b77640
5fc3701965e16374a182d531fd438a82
0668a2e82aba5269f6f64167e79f6bd6
18b327f157a2d0768bc8aa07a6cff08b
40c90c42e95cfc1b5c215958a71daced
237ec2ebcacc46cea039cebe5f4f079f
aae5bbe6eb862217354a3b65c8771474
fdcdcbacf7190bc823119073bd92f81a
0aba23dffa5959b150208547920fc140
105d6196a63723dc549d284991d54a92
827826fe5f74e26f49ed060acf2337f2
4ec227ba3e080bfc3de697d388bf2834
8e0319748f56fe37be62c624547140eb
db481cc08e4fa718839bc20e1c355665
03ffabc88f529f1cc2f0247005d4ea41
88675d2aec976a46b5baa19d9397360d
21c963362f98df5ce87d43776b0448b4
a6438c68140a1aabf0199a100af015c9
434546ecd6c7ee77c54f80779f0d7827
c92bc52bc090221c0bfe60db05691952
26ef4db206bc6c847231993572d5aae8
e323bc53d8ddbde386c3dbabe4fa6add
56b7a300b69973b656cfc5be68839e2c
51f3f626514ec0c16dd0cd1aeb90db0d
5d5ed168b9e4e3727121bb591de58192
3fd716837655ecf171eb15fc2f019e54
ae129236684cd0035b3868066d08c0cf
a9f2010b430e675c4d228cc0a5776d24
20293ea77237b65eb1fdf8087c510667
309db4733f3de6e7691b149aa7e7f64c
aeeadfb72a04fe4d6421cdc2a7e44003
9682efe1f1f2f4a40e6618410cfa72d0
f8c40b97539b92dd8a0d7b45c8f60487
1f754135cd6b823edb3a02cdb25d2f13
5d5b9f11263fa8f7651930ea3514652a
19779caa96f253a1827b998d907a3b17
68af118f450a10c9360c7933083b53e8
fb52295ef2dde721dd53e38b1f9c309d
283300acd2f7029b146a072632337764
8f57a8ce63596661e4de53e107227b0b
e8e477f3537b9b042ffe73c318be88ab
735b793f5a5f65a285d7c5148c7cf75a
35b7df47bb4278f8ff2ca0dc511a32a7
dfb5d321af679225c39f2d6cdb63931b
95fd90b1531fbd1edce489a53a2a0933
735afdf9291b6fccdaf67a7b3a21b92f
534e8b864d5b2ea469d6866c09dfb0f0
7a20229c2a2cb0a3de6cdd7e80d4fb8f
6eff517110b41d2371e5fde75ddb0df6
3417907819d0a6bde291a1a85f04422e
ca03c805aa79995f402766c54d3b2950
650416a669be2e006883d33807f261ce
5ab737b0ae92c030d19b7bece44a8d66
ff7858177ceb2f00ae8f2a9311d4cbdf
9229e8d41f7e29b5a8d386461336d97d
5b0a3909c3ac61a299f9eb8eb6b14c43
974d932c6452e1a068bfd6318f795981
78d29d499dcf361c3a72c81abad12d7e
82711b99cf3b68eb7c34fb928db51c6c
93ced7eeb99930a3a477ad6011c3eb8c
39063fa053b05f9f1a25c4de32da9ffd
fff254868456c3509f09e94d0f45a973
b6d1dbab4706707da07070d614ac874b
7c98340901062f3668135f0dce8889b0
b9ce0ccb8c086f1d1f2d773800ff04f8
c6f26913d75770c4fc9d36745cf8c9e4
832584b134fccb5d1a232791b2516f1e
de28dbf6053ba7ba5508704c514f55b5
a118e59bb057f49b78bce0ae579968c5
ff76563bba071f94f8004a392df0ff23
2ca8459ac0a868d6a6a81dc6f1b7c547
585109db5e1f7d996ab3b9d26433cebe
66cb21caaaaa96fd1ba596109cca19e6
78ee220c1747a4b44945ebb269385fa6
904104d5bf2f0af45024ccfbc8d6541a
d027efa2d7611495fff291a020e9ca6e
a9ef20b1875644c332fed72cbc815005
82cf31872112394ba569b29b3542d613
70369baca31f99819c321c89a7ba0a2a
98e2ead03f564c1661a36ad8ad8d5031
17971db5a67726689317b6ce0eea7efd
698dceb6aac656004419d453fbba4306
a49b474eb8950fa288717a030392a6b2
af69d6264d60592a5b251e1f012813e8
36d0eb6275314f61e877ac6593559f7d
2ccf80f98003c9e9f8fba538be3d4640
f1026706460de206eb4d14ca94212959
046e8c8714dc3df279bb111b9962341a
8416ac5434a716714bb4e94d98faed0f
455c704aa30ff20369fc116b254e83a2
510e85568e5c9cb639da473b4cbadb60
6d6c3ff323929cf5904195003463a598
8a80d179c907ab8d370dac34b5784149
05eda4e1e063e1b6977934ff388c55d0
14673a7ded6b1f848b76ccde671a9019
a03b37310af1344d980bd9347bea7bc9
45cff02ccb2125ef84a7587847a41819
6234a231f08c88ff9b66ebebf4e723a1
260a28aaaac3ce898fbdd6b206e169fe
03089db8913c17852a25776e76d5dbd5
1ea338f78072f3da628dc20878c690ef
da4e029ca2bf106e7963a42ee3d208b0
7b6660dd8307030523639666e1bd8e3a
afa639738232f708223c9d530dde4afa
e130bc0e62e5c201ea6ef494d62adba0
42dc5c55515de30ce90ade5e7cc3ab91
b62a26329b41d622e2aa4341cf5250f2
3f3ea49ce773ea7293bf66624882c8f5
fb970a03c8d3eacf90ce926b105225bf
7d5a257c22aafd255f14c8bd8da54e41
a1ba3a1028931bafc3b35e79c8275401
9350490745ae08058179c6a307fd8fa2
a8dab3f6072f0a587cbaec6180da68f7
ae10aad78aa4d84fa03d61282a615766
ab44a5b17e3e534d68ed624f6e7d8363
99661bb08d1525a8363b01818e2d9145
adfcb8c616d55b98a9cb76ba3f0b14f5
52f0761dcca0991524a37317573d8eee
9d45759cc76c6ecc0b55df9c60517905
20c5a69444937759c1f878d3fa52cfca
81f8796951ef214ef7d68f9d2f52a131
aca7a1f31c70e5cd966fbff15b50bc83
fbc102af2cc182b8e1313e59b98cdb12
