e4039c857a378199
62dbce8bad852268
10b934131669cfd0
92f4d36eb4b1f9ea
d04c3aff15624a57
17b5de7eb186e46e
96d28faa2e22d08a
404d19c7adbe793d
062a71eec3b1ddde
69903e1986f109db
6886b05a4394f4dc
f01e460204d3aff7
09a77d32253c1516
d3645795a6fce10f
2126b217df50ae6c
a0a0d8ab76b94f5f
c8f1d0d5b5e99799
c3ca5e7d458dab66
a868dac66c16c690
8695e642796297cf
504579aaca73dca4
248b9c2dab2e2021
0c97a7ef354b2e12
0d5b9060e09c1a64
d6b5fc6e44bd547b
6d6b51abad719d21
9d72405a9c9e8fe9
3d7dda072d863ab2
f95d3077a5ca4128
a9f27479c10d4ec8
6a2ec8d039c3e78b
12dabbc65aec3eba
394f177d8ff39181
06214f4fe105c31c
41c6556c16cb1d7d
d6aaa44ec841205f
d477a641db35c0c3
c5c22dbc0d0be144
ed06eb7c55635969
0ed27d6834ff7972
6a77f8d2e0df46e1
786bbb9a96992e2f
d81187eb8e9d6b1c
6e8196899a7bf081
49bc3e2c69c41a74
936f5b53c0c3754f
90188f994222ee43
a43cb78d2333baf8
4846ad93b87de789
68d012c551fa8979
dd74481f9adc2d68
b7282ea9769db773
217596c518b550fc
aca0dc0726621d5f
e55c9e3ae191d863
d13bebf21b906b3c
1399e91351543ee7
60cfffe73e03e35b
2ba7b5f56f199be3
f7d8726e43611484
91e25d96b06345a2
4f1608ddcbc1c0cd
3fd215ab726d5562
c73f7732131b6067
