4ebbde51043bde87dad3c2769bc1e161d402e97bf8aea7f3723103bccdd0449f70f6ee258a80998be55eab450b1a74fdaed046c2c62ef2a1bad9659a0ef2e35b
0519d77c04a7ba5f469ca91592710ad2b5f6d4513fa49002ef09570481e3f6f2d91c81060403d086abe023edcdbac8b28a56f0783ac73c421595fbb4ed66fe77
59817d3fda73d73258547ae7500702b11931d5050ded3e3f82dbf38adf461823fe5b9738c29a9f6081ea05abcbbf3120139319a16aca38cee12f347550d8dbd4
df48d418c3494e0f6a806fff10568aacf9422ddf12a4561b3f0f8b559dfaa69d57e5b8caef3e3d965eb9d710f17ded42e3da01e29934596488f127962442198f
2f3082314e36c67825305e76e1d3c4b8cfde36a74aa51c3aa280ca58e18ef52499d7a6a20f60f02eb61e246573590435fdda73845b7cb9ae819b6884f96ba5dc
9aec6085e3fded587225075368651f0a0dbe8cc8b87072fed09a8907adcc60e4e9c24400839534df10ce8a894bf5d9906d34b3fad1f1d798f4485d2b8d79a049
29e987e920a16c748e2c1f8fc8a703a47bf23e31a7a49ba7167362f5014b27a75c73e912340e85a126076bb76f85cfbfef117e511d481f52d8d137edec6ab7a6
aff6c4bc7329bfa9b8da9afb6673ff806e6300a607487af6a642ccb2db5c396e43670f80a49e382cdef959429fe9a8562166067d662a1863cff66ff8ecb079d8
02d453e2fc2fa68e954019531f0847904d6856121716ee81178717c5322fbd36a5258b6493e970e558c5894a1528494f29278f975c776b2d244252d25ffc886e
8d4019408b11218d0bf8ed610fd84ec3f5f84f78d53ad0c8a864c60a62340625a878e6c755e78263aa727d72f337988d6322c5508a9656de55617934cd7dc4fb
4a22ffccc0777391a99bdd5a6de86f02a096e9bc78d3dc6e3d3d52a19f3bbbcbe66e9050538e2ffe49d4b93e61f1e12c76e0b8878f46ba05d6dfb064c831a89b
816ff0c783781e42e549bb1ed1cfbc24e53372694c542a81abff71a3095bc2d97c895132d1922cff1e4bc6e2b31c961e87f96d71ec0e5e77dc63e50549769775
0c6cbdb5ed4101be7804448ddb464fd3953670e0332eb9352a94d81e9663f54f2a006bf120b9ae4b05ff93bbfc46abda57f411297b9a660ab8e449f234bed1a1
e94b5cd1b40b637426cfea543d64bfedfa72b7d6a6185b04a226006b38e6dee9a14beb1d7a6685e887904d2676010a53fcb13a3ad643cfabb1de3eaa3a486588
753ef04b435d5f2703ce863dc3ec0b019b53fdf1b7ab51a994294dfb11cc281089bb01ef9133e2b15a0261090b2e954775172a843ac7d4ff5cb851b10b268977
4c9c2ca4cd53c8f0917123785217b4dc1424bcff972107842da38a2b02abd54fb3e2317536d559b5cdf01561ae757bda0f82f980c96cc57a3ea31b3ee2e792ae
784d7e6139947aa9756236cf0a6add9919159b23d2c7bf166677ecfccb740c715558317322cc519e0347754ab8c518a5fbeb8562720683b4f5df0467e19b2a6a
a167d9d0ccf97c4f82d0d765fb77435557b7d58d8bdf5d7257b2c90a9a7122948f4ef246efb0b3d7b6b449973f184c6b6c9ca79ee6dee51f52e03e2feffae231
4433bf44740edd63e31952eb94c012b2058435f0bdd7b072e14d8ec44a969f1cdc0a17bdfff1e5f40a563ce0405df5c745ff2e0ce5e0cb04f2a6c0e314c790bd
2bcb582526870c9979d4c4f0b3b79fc29b2e5f4187c3d591165096aa99b090163d0fa43d7af6d94115f8745ae16e98c0a5dcdc54ae314d7d360662c2e98bedf7
1fd4b86a0e4daa8827794802b1e1411571a7fe2bc2df6811f04b84d327751a4b4d4401e77e7bf0738b5a1994f5d4857b917c8ec5da220dffad297c64941dca6b
2bd5aae83f87a5c8dd487ee3168030de572922a5be9fefb06d5f0ce11d2f708565f5251aadeb66694baa522830bebfd5ce779d4ed505e19f22ed05f3249f5d56
000d5cd9fd125d030393a5be39837e3eeb96794a64d7d50edccd1f7b07790f5cb2e4e04c94aca6cd915f5d9b94951a9abb6467fea58c3e5d33b9817232741051
94ddc722679fbdd8198f53ca90851e6989cc93e053976415c699c41da1560af4f9ce9d23d5f353c9909b3b0d11c0661a1195561f100806fc90ed8156aa08d34a
3e96800c651fd4868c69db628af38b5824f50d70e73f6234381d0cc74e0fe06a65c514718938fd662da7ca182e1f8474a261acb1793de04135c8d4d91edc66e1
b90baf34fe36f6bf9dcac4158d1c87faf2ace27de9a13fcfc7e0c0316fd745274c0abfac34de08e01e00a6d4c884a040ce2b19f86020639596668edfbeb65c0f
9ac19cf8e5c61dc2ccad51ba65f8183954eb64946cd496e1fe713d2e1217f534af569d0d7725b37d742bfa301b4c5298f5ad6093679b676123705112e5576094
76e5df097755369e8e1155a34d1bf1c1ca841f24a127c037e5f736fcec581c467766f26656989c229db5cf0f48c478db76eedf9477a673ef8c54fe25ba29857c
00dc39c674d9c76458a052a17a533bbc7408718c5de5d821f1c0330d50c40ccacdcd0bb31995a96ee97aed6fd3600e645a5aa522e8c98a36bb50956810fae159
3b9b000df77d8bdd6f2f6bc885d3349a5ad488a7966beb0b10221858714d5f2fc25e438b058c73905566de28bb3eef6f86940fec915828beb5ec694e636384df
515e7997b9fc0187a1b2a6b49bad095539c4b91c6afe3e058a9b89dbafd783827b729de80188228f78ba122e02bd8a91db6e84bf1054e3ef6361f15bb9d0ab74
66f8362db497df4a174d0f782bf06867637bc2dc7de521a0e517ad379e2a5a3fd6dd786579d1c573b0c3adbba670e72e8e7c08dc4fe71b0b1a95076a4d5a5b02
a367ba50b6cc3e5224956dfd196b3cccb7afcb6ed37e63c742d17c359094a6dec90cf69dd38109ea59fa1bb27024aea11d17411b98dd1ff313dcf980f88532b9
09e74920d5001c1c774d726762c46a40165a13168e2cbd395397492052402f7cfe539a29a6ee17d0f2d9149ae35e286a0455ff676c893b14e0e676203eeac780
8a01cc386042350393af8e0215f941cd3fd0ad6be1240f154727abfdbc53810ebbc1008f6737af58b76d988f5184acb092a356e58068eb2210604ff0d2e4914d
6b3f22f3801bed7dfce87201170d48462eb121b59b2285613c62078f614e9d729859586c8b65bd10affb5329922adeb555b05157eae60f2349dae6e23ae7578c
93ab4f72fae411d351fee0a978765368aec77e9e6ca276c3aee7979394007e146b057de075526a9e307ae355dc659719feebf05711bc5d1d48c5d977c6792adc
4bff5937ae2bba0c3b00b521a9966889e767d0f592bc378ca86a06f471d206055ff6edc65e7818993667bdaa4acdf821f108182362bb915fb49d1116e6b16832
3c719edf2df3472538ab77e320f372bebf57ea31f790ae7a759d63b7bb3a09d68c7815e42448a9ff5cd60f637cfb40dacb17abb6623fa2c2298570b9367be07a
79b773bbe9e16068c66f52d6012f833adb2896d76f0fb8d348dc01c8f5b230616af647e3b6f35ead7aad1ecc57fe8669df600e1b972498ac2f93dec3f96b4866
03a46adb12d1269f3e53d4aa64fee9735603997db3d39a94d0529f11b1b4c5d376dc0f62866ae223e4203831644d38a7b0a22b1cf1f8ca4fa99939529d1bf8c1
23cde536bce9fb513929e7766095ff3dbd0409528ea7b3152887fa931a8743f3c9d14f4fcf8fcc05063c1499f7e0feb60d0d4aaca0978a49e8087dd3093c286f
5e21fef38c02df5ddfa50818a1e04e90e862bc7bd63de91c976cb8db7c902d2099eacb815df1abcec8a32ee4a0ff703dfd3450ed29c8764e7588560336cc21e2
a24b1668b0cda23350cebc0014fae7c121de7b86ad4906f9bba75a542d3a65bb69f6118abf2baa32625f1a4b0094ff0025695821c8b6009d6c106079cb7a91c4
213fcac351bcfb0147f2d81397bc03e9614e72c14325a65bbe8c762f8b457b6e2d4dc6011a25956c82090e1754bfcaacbb88dc87698f2e8975cf3a472f2c414d
f2de24deaade10ec28d2d80ffac96fe674d80ba33659c575208f56bba7b2772688d2182c78cc6646d4adae6fd7e95503845cc84fd02a3d0405288ce86e9398fe
c19d037a7b833d729f44fe9d034418858ca20db8a8a84f1820093338cfa8061e22ef86081c5dc7030c11036f4e843b17f92631b9b342cad14453ab17fd6ab8c7
e8f4f25bdc027b42157b8ad8646e4f12115212d6d62765b688a752f51bfcca63fc05f3a35104afdeb2298c07ed057d44b08ac5f80798607bad51d437f7b48cba
32d60597b0c980aa05a5d1661c1ef71f7105129aad79ef086bb8ca1df6c75961df91618aedc57688a24cc2b675b15c4ea979ed0c249d55fb03f0afeebbdaba84
8016a1a30349e7a1574b00aaa47767fb23003c37a4471d36c3d317ca0b897182c7a78e354625ead736e18c3797e1ff4f734a887e6cf53697aa60da04dce6c004
394e7993dde3654b9a56548e7309bf36b4d79ddd8580f0fa8a719e8dadff9cbab0a98251eafd4c43bc2972a70d348bc80dacbde2292b623adf02d2b58d68a9e7
7135422b217e59eaa99ce380ad1f60097be2484337fe48fea8273188869046cf7e44e68c23a8473441d2302cbf857e1c948ac5a5d53c3c4cf1d6923b3fdfa779
574cc61ab87afdf89aa83ef5dce88eb6f893b9d4776df4b5ef6b23f45dc5c45faffea87d6d09524027373414e86e09f03a7cbff5cca3316ac14d111281ca90d3
83eebe483179b51b19cf1ed56e17a9a30f42f8e6771f58934e6ebc0cfdc30fee528f298ed7ae43fa01485e8d2c5471a7744f951ef92fcb7794875035166da8e5
53a3b3468bf142e1ed0abfed3e1dac192b867619b1a50d07ec138fc00d327538548e0ef0629f4d85da33a0bc61ad0953c06d15a67057f0f500e2843cbd6b0749
dbe06c4a0d1cc75b606d0534f1c6a3a1fc008f6790a2337a4ae020f4c33bcac8d9bafad1a758254c32d3398ef82d4ad0bd524077d77b704ece4170bbdbee1bff
923445663e310b0e86859a8d3c1ee0f7473dfa9c1991bedc7ed8db934cd6824b63ec2df8be8b606801b440e6b4f42c798100cb33eb06290b245aaee462b81696
09f3bb745815422fbecec87912e296afcd95c11af0e92896295dd2126ce3a7048cf0b77001cbcbb8621206a92b08df6b113bb7d7244428b622d492589f3ce3a0
220e00406d4e2b70b3255d13c4f954e7af2585235a1b7af652264b0f6fb309cfac928a6377553ffe3b623e70e2c68e595603b09e3a73f77e74926eccbbf238c0
a7681b75cd8ba3ee2e18ae330a03bad384efc33cbdf83b20a4b14830d588463feb139fd68639394cecdd3e69091bc7c73dd1945a297b8ff420086d2c3597ce2c
4a805d243a1018ccaed4be6a2931fe12b5ae16d6a5ecea191a8fb395f7bb16d419fe1367dd97ea6c86bc64ba31fa68b71bf6f11292ba510db8d2440b778d36cc
d89acdf74ac530f9f8dccb80e607c7804e064b203ec33a1f016f625a9c67613f528bac880019777065607422fa234bcf2076c04553a264b8dfede53769521446
42819097db8ca11f49cf363bda60e599bd38c645493730df0e4d9f663df54f66a6178b1012403a3d03e3e88d6f3ec5b30e8f9d04669f6d0c457ad02ed266ec77
84d2d69bb6f83c3e30e571a3f44a3c4b924d5b4f256971d6721e8aa5e7b95e4e9f4aeb681449915f9e1083032322a105e89b9a0ff6b46495ef9f7cda10c502e0
b5868c91697720dfb1b6e477a54bd681d5f799674a489cb82901dbd3af133de4100f9e48828d6df5d49653ca4edb4ecaa2248c575c386ce3cb0acfb0aa5be9aa
94a74bbd560c909d86ea06ae4f763dbf12a04c17f84d77c44fa9936e9ea4cc91532b6ed9c9a95f7e4067e64e48e2c1583235b91b8935b3ccb5ce1ec9f58c2623
86a453598c2e2dbb7db2ec4d1f789ed81328d3bb7e6062a53042cf931842e6d10896dbcb7d0a080c4cb853a903c13b4d0086e9478ee74f8cdfeb83ad14486189
76acb7ec5326534c4fb3e17bb1e6981cfe2cee47758f964a31f9ed389c64c8fcd8413c07cb74ccc21c149bdff8af41a77eaee76db19b2f2f3132376718418b54
f9beda29c2e4be6ea9433bc7a420129054ac8211b28456e254953f9e015ca78ea1d750938b03a039ae445e87ee60bfffbf698820c54552db8fb1d9c803352783
0aacd2e209cace80bfc11412c1ff9d142515bb3f8fa11fbe0c5685fa57dcee4b6ef1bfe7a6bf6044d5f655abab2d5cde6de15864e50e9bbd2a4fb24682878651
a5dfb37778e84980aa31463021bc46dbe3e1508ac6b14d88b9f61bcc545bc9fe3c25ad8ad2d6c2613fb577556563d8fb0860e0bc24f14f751be7d6596b96a8e8
4f1b46dddd59db01d308e2ac33a717b8e95a68b12f96a232289fb779bd22cf80b1b0d7d35b4cb4e61e4e1db1f78cd91f5c50af37060f6b843bab97d49a07b6a1
48941c7398ec5d7c9e5da9c220a48de1d3a27cf6a8c2d15f89f6f1a1ffad26fcd0662c2acef053febf9e983fc2b8705dd62acf6e6a6d3eefdf40f92b74766a53
4e5588ba0e415f8f6ecb5cbebf393e901dd396a2717eb9985492a742dd6f47645e0434d3f275379d74855eb6453a2c993300cd4f2c5892de3f998952568b71dd
1cd625facbb162e21dd511fc6795355156be2795eb5c57a41d4f91861e799759303644fc2386ea85079fc40b4c34b5a8247026a9aa8203b48849cf4cdb8c6f57
fe649696c97b98c30413ef5f9ee8d4c82240bdf9529be3bbbc791584e833b2f5ebbad031eb6e23ba769629a788cc1eb849a8dcbaff783f79c7c83b30a06e79c7
36316099a78021366874dc737bda712ffa694867d89e599d7b3e84becda0df5050233b54ad2e0f8b82d23098ab38024a439fc6583e4721c831ca90167576287b
065f04001741092027aee3e7be16947ee694470cadddcca993a89878b39d3f497e9f3defd625647712eb63907a6415939b2b7e49169d5324a80b1768f5b74e9a
d3c1d9c9b0bf96e5edb201b226083fb113a4902cfa3e75ab669bc971b083b55b592f07bec67e7b718cd5d567470298007b042b4307fa7d9cb6174a8566744b88
cc80b6daf7a8e72adecc0e79220b7cbafbd4e801224a8b82f527d441b5457a0a40374732971c54a8516e7984ae37eaf42d171a12327db7a6ec3e8add15c91c6b
54a74f4f159c45be63816a417d31ec8e9ae75c81e5b1bb031dbe333cdf2cd297882048b59a209dbc969cdcee46da6c82a0748645044a61155e7c6598aef857e4
3b45c5c2d4e6eb86dc6d0cb839bbeebdf13d48bc85bd8182d0d98cbdebf0e4b518f1a3608df1e58588ac6662da471496930fce494ab7ec9e559a321954132f1a
0abad4be933a611d49ad9852c40ee5927078770502a072f1292c851a48ff874ae417c697ad654eb722fc7c4a67f1b0bb3a9d84077223a8db4680b9f644df065b
7150b0a30a8843b4cb0ad5fa98bef3c19bfab564bf15b30412e2b6bfb5275256f204e4efc304eb776751573ed0eeb005cba3014da1f1225bf65811c18c3a1ac4
881d62060812e8ceb278ef1fabe961bbf64ffeb885820579859ac6b4e5d6c8e02f2554f5f16150e12a1a6e9c22c452d74525045d16bcb23219a9fb2d51e3b719
700a4ce410d498fd26d6dea4ab4dde53c680561f455d48a02b3f988bf885bf178b065819370546f649246098b46a8636eafd33e0002a15c885ad19fe5de7d22d
2fb19f0d1dffe2069127b6d0d11808e86d32fe55d51cab453cb971bf254bb079a133a537e4d5c34d52783d2be268cbd0c09100da019a01b74a032a593cdc9c16
d0be3bd0d5a215a4b50a8dc2d9f52a2fbea96223b25162e2fa762517c6eac48fea204add4889fc99276b5b7222526718af77d8f2e4db172ca7a0c25219c55cd2
d5ee73bf568c4db6e8f667cc018c137862475b7ebf0b21596df372cfb34e93cd7dbc5cd4b84703cc8087cfe8b8b13536aa482e1ab782b87159315a31669f7e50
47cb4ced89ee8e7be9c2c5ad762133ddd8587773e2ace7924a6902c11c04e391feab5edce95653110ed766e13b126285b7eb7464ae164d7bee20c73183c8a872
a73068f1cbab43a155512a0509994078c0028e3ff45315ea0fe0d29456167a1c17f690cfd2a8e89de9cabffd899b83709d4099ce4351353099366b1c152443a6
e94fdb7eb3dffb2cce5c8684950b187230cdcc55e60660ab42c4fce73949976ea0ed0821b5303fccb669a6586acd838f0a7a3451a255370aac68a55bb1a16d3a
8ff19a30ac2bc9dcf18467c8d44d3c366158ba636fda64b0379a8e9db5d30b59b7225e9304bbb4203529b1e08cde792d07ca5187f0db4683a9b7477943c830a5
0ecb10105753893defe5a6a5a3cb1dc182ce7bef4feb0f0128eed670f0485971faa843267abf4e31931265ed302167c36fb10da0f34401702e5706f1034f6c70
314bfb7dee1dcd916d2a18175b470a1045db305ddcf947c80d399deca7fc88efb13d873fb1f9cdb851d5c889ba27cdd07e90d4b45d026bb363fc6cfeae92dcb6
dacfcbe51431a3e6d0172d59b1524a8f70cf2de0cf7cc6bf39408325877a3024be26594b9b415c4c2e67ca338a1de968e24492cb189eec62bb6fa9907d593401
c1ac9b801953a356600470d67e621899815847fed281d7886ef40473b6a71e1747b5e2e6652822a903c7f8035a229ab90f5a96a624b6e939235a89a6b44189a0
7acb399207f876174c73c0a744379dccd30c753b0ed4581554d3f729f952b61a1634c51ffaab2acb17c7dc8c9d24e70cd6d9db48d191ff75815f9b74aa599b96
c8c8573ede3c4e0a05eb5e6c5daaee737569a0b0013f003d57f73ebda336b7dc298e6eb578f6eb4ce398579100c0bcc59d2bf590dd1a0f58f699f9fecb33cc9f
505d0746221b07daeac41df87bb3b17a72d04e61fa441d358110ac95384bbe772be801cc6e790e602864c559c533d829233b586024637614406aaae34a865ea4
e40885bd5fbe406de35892b1f523db96d02bd30a79984d791f37add248edd4a8c57e05bc12401f06c71550e5fdbcc55f01f58ef4531224fb14d59b1b014736d4
55f8f1a25bdc3f85808dda98989da463a49ac89933edd9a5338489f39b2d38bc3316a8bad53798a7938d9adc671138389989273fcc1954987deb3b6b7257487c
590ac75df58b70e1c491e5b1db2ad2cc06e3f3b3f3cf2e8b5676117efeb5ce6fe21b8c855a7503af0f9c9f23739394294498302e8204199d97352a75020fd478
9847bdb599522bc5944aa2372b0e1811eeb74403494b0f649f0e9e18a1b4833efa48b13f19ad8c1dee80255ed237153229bc0ec035d8f4ff8322b04af90c4c32
5e21a4108c30a4974a6346ece5feca427dd4b72a3dabd60993ddd345ac12b838e7ca9b9b01a3fba959955ccbf8d4fe06f45c33fbaaa410d0c93936d782d695fb
04e21b7aee8d74f24b4c6f9eb09ef6e681aba3b302f5a2a58cddf0f2b5bb2f26cd0eeb02db9e0bfea065787df402d27432e4c5d85d725ea9cc70d3a1fd05dee2
4bad58235f85a69ffc5471ae9827a7d4684743b33ce6e3aa5d860fbe11be646c78702c16f33b9406f8cce4274fc19f62f7e4b1f0abcaa29f197b4de79a759831
515b2a481398ebb5eccc041501029d21d3f896cbd58d10bfd1f0466beb05e4bf92dfe8940c7ae49a18f20f8aaf01c38ddf4ed9bb06b67ad230524cd5b78b9bde
03a8ad1bf0ff80300129b36796f60bd6db7a5a10299cf734f9f405225bf7937391a52083218763ee9505cdcc6e7d2f230438394c3c3ce789631325af97ba647b
0c79ff2762dcd9db0889935ca3cc0c6f1ef65f6a9d2bc0262751fe3ec06f4b8e46b0af772bc23c3104b45c9f1a72acc889d2ca17a64def9f88e1d267000e28fe
284ce58556408aadc7947b39ad0215321ad9045e201ea49ee3865c98c253cb516470c00256d94ef38033b2df60773ceb1b2320c9a14a2b2584dd66a3247ad519
3e44af8a503ecea44cbe9a39ffd6b54e897868a5226b47e613982eca928583991e9035dceaf9962271a4d111feb3a5bda9eccfe0a4a8c0b6ab11587949c5a3c1
4512bbf132093bdb5d440373a5d1338ecb68a0225c7a3714e2b2da901e6114817c9f9a6763dc42c7c36a40285dbcbef7b147da6371f90559dee271f9224d4098
0f02e5af2eefa1af3a702d72da14729e82a201e13dc5e5291d6b1471833f049fe0ac5be8a40d2ffc50a69463b58c0ac0a39e3530592fc2d4740003467b58ffff
1a9010f2ff62b30cb13d9157186e41af0525ef4fafae8f4909d9be161e8eae7485644184afa3f882f4e0befc299d9faf0bcafb951a8ce77ebe88367b91eeef37
bd17c85e36bad8fabe8f8eeb3033dc54f106b746e25ab4b19b693ecceda350977c7ba65586c9a3ddbcbec1b507efd36c96902de729e25e4b4ac7325e83fcb680
75813d80829bb1a723d811e6e8af9e5e81c8ceafee74013d4f6c2dadf471398be1199744c03a900ffb305049075a17616cd6f5cb0a019f19ffe0c4cd3f1026b6
d971e193383b6df32350696aa4bd8460a704933f57bea7278e2ee9b695951b0c59a4faee6da285c286e719ffa6f160f71a6c44f83de2fcedd272846bfe9dd173
24cd721b1a98b0567323daba8a1bcbfb7bee8da8bbe1a731ff82b6d1753ce70a7c49e72a3af1c4c80f283a294bdf524dc5a496fafba2862090c476372ef03e64
fd3906e467ec0e17668450fb0b9f4e135d852e1b955280a2228bc259de7695940884cd510e65a1403cb4b6ac612dd31a01b3e40cb27a997527de73c9ee3092bb
b4feedfc64c3f5a66a522da64752a6c297dfc0aa9a42c8671fa94c477ee6c54dc058b04719966cd0fed7957746302e44176ee6449e3159bb3eea5d1248ae2025
20f8baafc3f1448f069466e40d8cc4b4e626cf2f7cba13301632f606ae24d22aff39f77bf12354da56cfcfd6df1ed8d8764e2bc82f3580351eb5115c98dfd7fa
2dd6db8a4e860abe8ce3ef529b1c5c4251801eb2d203debf0f58765e443d949113ced6b35387b80d4047aec2e1cda45f3afd1bfc55ac34d2edaba8c3f0b1ed8c
fb5e3cfa77e998c02bf6812b7c6a5374a73bc0a277fa543115ebde91fbbf0790b328a1a82c3a71917a1968f4fca1716c81d53899ee6bd215c123787b1d701c59
e501685ffd4f3c5e8bd24d05687b8b89b1c0e745f3d259e1c5f35cc8f4019dab7379725c11fcd933d5e01814d1a99b5f934dab204d81092f9f870af686712f1c
3012a6d5b6a1f1ca4b0a7061c53e97412aa84f24554436d0d535e0ff8c494bc3791b37cda26570c615290473eb1607d229a2958c66c3371daa754d7a3981682a
74f218068b5f991be185b3246def29f34f79dad0d73de48874da7461773d5bc4ba2f42e8133d45ddc20a376ed263c5d6b75ac2c019f8755b09adb395b9ddedee
b937c88c01cb2120118bf38927d6ba888eb1a76de8c17677a4d20770ded2c380e00dc7e146633f83993a147b1c77719663412f71dd4879530eea6b64ed901ae3
85b2e31f361dbc33e4928e77ee6a6a3c9b919665905c51ba55c205a21fbc2246267489746101446bf519e847b9f26ba8f213b6cb3d392b5eb3d00d4ff72acb8e
9d7421e53bfe904d0423b0496a18e5bb3632059f2730b44c592e36499e3b9174e0b72649e6f8c93490b0cf24013bab8f699875fe7ceb8d04afb7caf3392d52fc
6f6c486d7d572fc607e8944e334c370f65a87cea9a99bf6898bd5932c561dfd7faef3bbd386e643196152b6a3b091024dfd489e26696c720636e3cd4f5a330c3
76284bcb14fa9deb6f075aa45c138e8edbea5c732f737a2d70adb69af71191e00f7a2a59276accdfe8e233ec4b34d6732968615cbef16cd7410b5592d0a3a22d
bdb94a6f58672243cef33d4865d5be5461bfbded092ef78eec08c8eab012d6d2b174581b0ee229464135037a3ee4b44377e65e17bc7288dc4e72c0dd47823261
10c87c96dc4106714b329b1013ab9cccf8bcead1f1afa9223c7cd12f48beae716e0ad0aba3725ecdd485e0ac276e8081e5f6095b3dd3bc93fcdc0363556f54b9
3745d2f800ffa9cfb594108e2b0bd5625a6e66629e1cb77d6c3b5f5a46ece26f37a052d92c170217a55cf6509ff58c8d67f015db1f4fa003a26e54e34f9afa04
e6a31c068bf44cce7e6a1fbcf9c686b74974db914c9b4b78e1e4dd6f384b602ca39d7118ea4341bcfff6409bf179849d6d3bb4860c7513a4fa5ad28afc80e6d5
b29261b48a22546268f0409b91f67052161d2b22b99a9ec13ca11fc2c0e88038918b3c2ed1231d0ce323cd930d371fb9eeb71660dc33059aff641236c932c0de
a57eb6d0463a2c8d93466fde92b6c0f78eef7be36fc9966b85376c196b872ac7a6202c435ca53f471f36ebfe0fe216c28541cfd42e3128bf8b71d85355cca7db
17d8a1416e0698dfb926f83aa3cf8e8c3af5cc9222fe88b09416cd78c47e7e95250b7da1c9910cecd7575dd7966be93cd9dc9fbc8ce6859bd4c44fb2629f3c79
42ed1200ead362440a6fc7bcd7f08188d18dfa2f466c54ab8f47c3954a09300634c35da227ad59c9b027a90a67ccef298e2e4c58a4459eacf1c36fb557d367b9
077ac29b1487b81ba4b397f84e5d690fda639d4902e61c0d07275bc8602d318515e98c5a0b5c81042edb8f61c9fb29f92e6c479f31d6d70fd7f534da9add4d35
6d08319bdb214f383807964d5e913f64312e5e288c5f5a1daf98863f47f807cb974aa9d64c5e12f8e5a048418b3a6fc7cb543ea2ad46dd67c190e903c6d94d08
49a726edb1ff851d9dae3f29438ace2f1e16e639541075af29a3e3a1cb517d1600be6dbf0f7d216655549160bc79638e476cb1b52b424aaf883ce9d8d8c3b99f
2099a578d867712dfc243eea664ec8ca6966967cbc06c370e1594fc9964d8cb8af834bac75260da744394405ea75ffacdb0aee078d8fed9a09291c0aa78d77b3
68decae4f31bfd9b28df3d31d5ab65983048ea4e99d547bc51ddebc4e59a6f42e15bc7d140749beb1c9ba66e3289e3d079899c0bdad018d50249ad1c8718409e
2f0bdd4f9dae9c8ec68acecf3413042c3209bad07ded6d3b862b96879afca609e4560adaf17af0ab2154bd676639fcac49b560e59bac5bd3598bcc1a2af1141c
316079d5901be115fe535f784ac6a7077827400a87aef54598f68f454854f3a4bfde5c6b9f020563288529d6bf97c4734b2a1df5679e6e946326fe23fd540dad
3ec6ac136817a63551188c4babc733cdf08997f7b736ffb8671b594d347badb637bbb77e2e193aea6e11604696e211ddba4df3b77ed2ac53d9ee007d3e5d03ec
308978b59eb37d8ebeb53e2a0836171b14c56b489a475a236c7af04a257730d4672c6b35b0e579525ead0ede8011fb399d32dbbb12b773523b6bfec9319934cd
4b170e4c81bc30df8440262080644c89f71522b90bfdf997789609a7294ba85b131591a0b79e81d3eda0e014aa2262386fbaa5888b32d68b69fc1e14fb0af351
34e24ac3dc061472a504c01d98e3688d1ff7252a5b480c97c75f40ed2f66601d33a79f6d221637607aeb8fdbb9d62d426499e02cfac480b3069acd42ae2b1c73
c2735f61cbe9e9ca7d6117545f13fe8c4f03b50ae30c6229e3627b86b8d659bdc79e11735628ab0daae721c76ad30459e114473b7af7c4d3d49a2abbe7f8f1f7
7389e2c61c2be9dda65692c91a9b4d364012cdd8cd6dfa5c03d944f65878bbf105ab391f996dd47997ba5f155c5ec7f656403bce9158d6b71c25c0ee2f981cca
b43c0095d684dc3b65897de56aec1ae49e368a5347b53d7dc6b30d99df5368863b03ca43fe4ce9c0d606b62733ed0043d928462db0871c2a190495c1435a5803
b2d3ecf366f2ea5659a7f79239bdd6a3c0f0284ec9aec5d631d416c8ed68616e37cb78c910601a2566e79c3fdee5375e7a25e1e2e0388cb066d1b615299f6ac8
4de758153854c1d7748532af871af04893eb239231e733d960ac9713ff9158333c755d5d608dab58716533d3fbae548c20c7b44b45194c81a746cfe276d30ebc
f3a10c67cb6ca69f0fc76ce8afd310f6b9efc9458f5d57dd65c9b10ed269264f93e8a5ce49479965a3fdbb37a56381a7505ee244bebfa1eb22b96ac66ff79983
24fb5c61e1f2496e696c54d791359c7a61e55de5606f488c60dfa0626bcb1e15580d65a3db6ed4f508b5fa47ff247d8c4f27390b0f9fd00702437b1f5214b1b7
988c22e5cfae72215e8efee05ea7d10e081606bb047742ad9d37bfb3beb6492576aab5a7a3f8b168071d59b952f03b01f5af7b6494ec6fcd64ea6d991d5cc613
6cd958e2ca5babc68359656e43c28ce1723cf2c6d8b4af050f7e6b8fef6b4542e3f88532e21f3e84a43bc99a05d3e368e1eb5dd09a723b835c58bacef629fb2f
2174e6a9cfe1e330aa2f85047bd4feca2157d335205bf009551dfab088f635ca0a774ebf88504b9cfdbd6670807b14347bc518f5bcaee7b873db774565a73d04
70166617f4a0cd5582a71655b3c62ff5bff2e8f83b0e5d93571277326a489fc3204949bbb4f53bd26a81aa7112681112e8ef22932f3500602aa58a66a5930902
0af0f6364ecd94f676412f77bcb1cd424b2d33d37714a5322798670bb699b1aedd05435891ecc63afaaf90715d2c0013d096ee6b888a57307246626746362e99
1eb683e149c92df62bc47beef4466a94343210623aaf5f37364160f0d4d3007adc6863a6d3711a9178e3b7a63a5399c438cfd49940179e43c5b1987817963dba
bf2609a080ab2fc3ec916ebe16496632e3d3c39d623f53bcde12913c1cf5b382a4061800671455d768dc66186cd9c14dcbe439a39c4a0ee830ace02e17636714
9cc0bfe0ec706bf1005daefc55e8e4b1d4c89ae35f412b44397089ca1a12f49c0b5853dd51b8e59530b508d1a26ca6cd82f02800904f8cff9a0801362cb6fd8f
bc10c050bfff0559fdc5252dc692998f881f89ccbc8b4c490cc69a0f0e452f916278b1b2e0e529afb6f9a97cedb53e217bd24bcbfcb5e0376a6cc027201411fe
bcd6c95ecd881b97ee1f9a69eae923b846cf57d8b03b3f73d00d9fdb565e2e9b4934450bcf9435372fc1959a9660f7c7513e88411180d8247aab68f914552d8b
e4cf140715a3d9e3e119935d7eb706a0d7b7f4a84dd95ec171d7d1dcbccbf58a61cb745e8ab8ec684acb13fabe6a18679e904cce177b0982d2b95745031a2768
3208249c6e9cf8b8e9c624eca308fea376c764b3d85155812d4346222ecad1d608dfdcca5dc961d39c8d83bc027963b47c356f89a146f21078483ae5a6fa9eb0
00ed628f3b4e599610f5c14c44f9e28db8cc39ad8a1e4386d5ea0a3dbea9c8448385690ef1effaa8a32a9572b2f5e7c08808901bff397dc905a1b7f792c437e6
c6903cd055525e837648ce79f22385d82733fe3a9b2936b8f4e1f56616dd501e3a51b21bc45f750e9125c52a06a06f07d6710d079bed0ada6f163678b884de0c
728394c01516fdc05e4547ab8a967bf3d5aaf72c349892d4bb76562fc8c0db35fa062d9410cdce9d0268e7136f1fbe7558c9641be70c6aac4849b20cada0a0e9
5c9b0f56c3a2e6f138d0fa5f3b47ce8398625a162f061a62ead04967dbe16a8303b1ad7ec01f64308394cd52eaed150333a0e43645fe248a0c24bb0f5f184141
6af1b9b32b87192e49d2499d9ae7ca7aec1f364b20e2baf8b03d94eca370da263966f186c9574aef1a2822c70e804b9addd145d33df4cad5ccdf9a65cba9af6b
84f6a405a95e07b2e49c0a4bdc63ed6aeac15932cfba43674762e0a931490e63483fbcdf62b75df9e7c23e78e679896773dc430f1e3d5eb427e26d7ef06c78f9
ec819950cea4d65ebabdd557a675a973114a8c259d57e6942f690790c71ef9849eabf299539a20a6de0122baa75e54c88140b1f9ee286baae4e185c16f4d215a
3b38786ed6ec573cab687ba61604a1f8791e77e22a53af61ef55fa3eff58d9cca3f6af416cb88b06ade4e9fef2327411d5dde325b68e0ac81b2c956c94edde1b
c2eec88da1f99d40e8b46c3775910790836f2c21d7f7a8051e6bab7eef8cecc642f546969356ec2fc33634284dd978c4fd900c80f8dd71627ec065ac0fc5dc65
aa9bfabe2e7ca3c279ef276155f2af3a08359b7581a1ef25275a70aa4892bc73ed0b1e83979ecd927368613ca3e3e36f7e174bb519149b2accebe4b5a954f1a7
aeac139ea61e6e5b44bb89b4f269e75e8c2b51cb02474a7a13259c4aede2a2feb16bb49e975f5bab31834d27a3f4d4a7395aee9a918ce46af009cb8611177822
150c96794e27e64a0b78dc22e53c2ccad96dfbba91b75c2cc90c21644ba6ee3749dcade00915572ccffcc728ba9bf190114df948abf766d5c91f11503cce4350
f3e5b4e9e6ca9670c84f2c5714dd959b4af773d274eedd0355bb64c6faeccf394f09bf7676cb39b260233cfb912d014c9bfc09eea26dc0d42c51edcbc3669e29
0d847205ae466880f50754c0e9408b1cc8f7cbc9228be8210127aac2d0cc6cb7191589978df3324f17c7b798ed4676fc2aebf134ba1bdd4f3f89e627aef21759
5a7d64c0d07238c66553f247a14f43b1dbafc63866ef53ed35b5661bb7dfbb0acd5c53a9857e92da403f0ee0711e28f08353f6eefacc642e3e4e78c88eb7b33a
d027105a8c383c1bf8dd2eadd1d5da9f33d2ca87ed9e24632d0fa86d6496a94bd9feeb9f24456712217dba46e2d01bf47efd8f32db4d3720dde20e4dc225ed62
3da1a4359dc41d1157d1b874a426f4fe29315c991bc03fd3a36ceabfeb136abce7d32d913ca164f52437b31397a1cf4f06e136ef2808c62fc3e438a78d581b8f
b2611596291c0ba3190415cd0aaede8b676837ce4169b77944bf88e5da53599c94aade3b917da6b0144af14b759e5af6375a93a092dd6e5bca8eea835645d626
dd63e94c462e7dca1b73f765a0f0dc64629769c433eb8504450b9ac690d5db88c5e48ba54713db1ea4c9895c93ddf8fbf0d3a2f18ea2832936302bebc4641105
d206d1cb9810cbe14281b565c697523d909cadcf80b1cdfcb4f72d53167bd6dd5be16db18b1ae9fb655368fc62faa4987cd97d73698ec976bc571d1672ff4a59
c13b90c957d1b51fa8934da55fd68775be54d398525ddb348c4f06e724962a29a03c2954388489fcdba481ac3bde641eb89d5bb0a3f29f40b82195a4a2bad540
0424ddba44df866a83c2fea223726833b0b5181450d41a0b8badc4e1bfa196077e0ad4ee7a313dd1e88de06bf1b5fd2bb9d2e6bb47b6b13b8e066f487d9f233b
e4ce5cbd782cca337eb9ce7217ad97937603d5cfd29df12d3898217a80b84a8b45f20a2273e4bb05a5b72ec93ccbb8397440f8bab77443644566394c6af085d1
b3ce5827028af38b8d33bc1cdf50f41004b307db1b82e1bb8d02e74f65fc23bc16d22e4e63b26433f495cf1891902aac3199923a2d14e8b6f2a1a4b7d0b9c119
e134a5568e89205b359e1217b73f9f82a1be74184e16f887657d6a9abff3dd726295eb6d5c30d2cd7051783042f650478a0e5685b2fc6011d2db278f9398dabc
91fbf7aee0891c2ee380b6e2bafa5b5412f81d88811f4438413b110ae229c872197e7aa24b90fe2f1f3150fa3ec2c653a07d8bf5ec2ce0f87935ea362ca11b0c
b41d0ee30db306690279e5a222710abd12ee909a9a3b6b0ad42454276368d4a1dc788180d794c8e01578063fd3e499a71d9f70f56bf2e1cf5e42a61f1cba5742
88b60549b2cd53734a54652388d1ea95aa05f1da229caaa6d6b802a5a36241be65fb00bbdacb4661b41ebcac824bc28469f441164f4ebb213812f3f982920834
e781246f47f6a697bcb9aa15cb7429a1ed9ec28c7e45b04f22cfbfb5e465c38ab8e648b7c1d7efe526c5e8d906f632f66e5c356aec8321e3eb999f865ba6cff1
338f28f32a8bd99cae77c4aff21e423fe35067a8c47667aea88408a4b33a6b755e81e59839c0b0fb4c6b052405daa51c6f894fbc74685b68eb41b25b0282cc0b
6445e680a7f29af4630b765b6ef689689ba4878669931f2500fd5fab9c7053712e4415a51bfe27f9b8ab65fb245ff87850f861b9b16eca8be657cb1b9e52ad3a
c3bc4b899de68dfb88079edee379c84cb597cd4364c64381eb9fe32bf5bba4dfd8a219b5266161789a0b4623a96e9192f2a07b0fdf06a486f508c0979194330e
90ac87fc6290ee7674fd1f9f7bec862a71ffb619bcb0e609300ecbaed4a6640c58da7a11e3f2d20beeaa79d79ca239861f069870f293c486b57aa6e5791b9a26
391c8fcd65cee2073f63e0837b2e82dfa8e2b9a5ce00d7767cffce4c0208434b33a959a4d27a97c5f6fefe40ab28a95cc7259847589b20362c86d3d90ff7baa7
f9a303596a65eee1abfd3a0e30821bc40d3b372fb5214b044321f73586553aeb0fe2449667e64514a6b48ac8e496033c01513d31120642ea9bb3700727ad5d71
9e27095f6df4d1d73cad967bbec80a9bdaa4a005dd4eb42358ab5eef01e8e66e1c46b4f3922556ac2fce193a0ceab8cfaa0be2bdb9476ea0e4bffed9b45b57ba
7bc0d0a7803f115642da8ae329fd716d73482ede6012eafd79413c5a2868e2bddb9e0c9df25fef7d5e57b6381f0e99ad494970302fc3ce62b13e1511018e98a8
cb7ccad0ba77b6021b7c557cf71dc9d42feea692b8d6ac8a49ef7afc08e9d2b549ed628da72c7aad2344f83d694fe4412759b1088444e1d3fb9df2555e034974
48652a80995c0529159892ebd8dd9feb4c6ad20b93c9cdfd5356c1a85964ecd418a6029a56310c4dc5ff5535f84beb9cb77e2a9875973db5c5ba342af79b1c94
c83b93e0d1fc89039d2aab8c587e1704419778d2f8fe6318b6a0ab2ecf1b0bd3cc4a08dae6d324a4a5a3f99509f2ee8e99cea79bb7b736c532a08f3f46c42083
723db22f62fdfa374def00e7698d9a0efd8c7b6098059fd48b0102da15a425c9d5632ea4487a551a5e27c04aa3b4ca70089dc41e2ba6eb59ea83fe3f231524e3
f962f1778f30b56231effa11299ecbf987da81c35445826be7be48d50d0f61d50d8f16a8a56d390ef1e18f8861bf7ed0f697c8023ca2f529f80a4950b711ba42
db7c01b2e12d59b8a35ea9f5741a6f6b3bc5d36f3cd162cf573db698cd72b652b48c1a42a5b87d1008d43843ac3bd0b0ce9a65b512cf2feffe069f43912b6fb4
30a4de38f544568513af328d4086bdff2bdfd67200af9ad494fd1863280a1e0867059992f7222377e5d1eba2b8240ca5051825bcca22d106c8c8b80123e091c4
00185c07c3cd395aee6438a6ec0f41c2c4582de37d26845bb291a89c4142055dd3a1778d15a9615c6f1eb937c45730237948b30ff600e7d07dc864a160bd1691
04b57e3b02b91d524b8d855fd109ea341ee3c71a5382491ac883d15908687178a71d0d65a71c9660f6a299d8c473b7b7ca41c7e67585150de4256f05c3cb700a
45ede340b12e0e2675512850af39e5f431c31502a264d88f73e978809d5c57413a409a4adaf91ab1c60324825bb9e40ff15578331e3463ed115b41408ee2c578
8f0fb0583bb61176f3d2137b8bb208fdf3aaf9f017350f04bb1906fa48633c7a03965feb161a77e0086974b4c0488f9bf33c1ff298e7ed5795cecae6a19f48b6
ff4068266d5ecc35ed2c064aedc538b9aa5d6f2aee0b007258e7f56074da615e0b138f216ed67e21872f10f07ded63a29c359d8e214f0c81d46d61174ca24eca
4f4f9d915bff0210a28e952bbd0b44ed75eaf7bc12524b344be0c11d32192b930b47f81e0bbfe28ac54d7e367229255d4d01ad425a1e293d8789dd7b462d9cd9
ab3cd95c96e7d7c51ab518874fa30b223b34addd09d336cd3a5927118f49c583389f4526f849e9681a237940269c937c3b7332e3eb55d9a5750bfdd3a8c9ff9d
2dd1b08e8fcda11e8e695ff7e22587e6b8ce62ac172a39ed8cbdfa42fb23857d2f6951015c08c1d4562242a8b046b89e8a78d41cf22f9092c99316a3e416809e
d640c3afe27e48eb5278cb5916020d98108fc3b5165d0d1c5e07c1fa77722354be741e94f6e2ab4c3fcb0f0f4f9d18e6d29876aa868f14e07a4029f28498ea9b
19486490d3c55aaf619845189aa1fcad25d2797df52d799d1dff6174dd484bbad0e886be6f763cdf27211f3de46c0b550137724cb225bb5b0d1701729e4321b9
a3df88a4bdd75fba9a98dc7a1bd9a0682a67ab3010252609b193cc206b58b6cf0ebb9dc2fe20c50728690e77cfe2f30344a27064304cc2f43990c46685eb12da
2278158ac3a8b14809c5bf5a53afdaad049ccbe8e72b3b28349b863614b4fb6939b0ccc256541c9909f865c7705e239712efbc08a8bc8d8a03b8525cf896253e
7514539f149ca29f79d737e0e7feb730d64c9c952b6f015609770a659a157a750faaeb003dcc0fab9599b5a1d558c1f96ed70b3b92f7ecf7c57b061cb8b4e895
ab5b1521e0666302581588bf533a3cfdd2760f3097bd40db872db22a717d1d20c48d3a5083c9f9c6bfc9d47431bff73436462435bdbb9af6b5661b8df22515e6
f9f3b268fb8621220806b22fbe9e9660a36b89b2867cdc316d12db330ded4feafb009ebb3ba322147b082950c4c8cc50c4c5c0358a6a738a2730a1f2e82abbe7
0bb9823b985210b50cb6d2f5b1e000d9973678879846614416228fdc66d53234dd52e7a875ba9f763904b980614277ccd4ffd1cf007d5d6256eefa7a859cbe59
aa25c10b52f37960a3125a88f0f9029bef632ee1e372fe517ea2a0bcca0258eae1f73584a0c023e4ef59e44c44d9cdf154aa1ccdb1f3b82dcc69444259a81d3f
35b1cf2e37bd92754e7e71336b8570b7f42f6db542891c1170ba7582e1db482dbf2e821985c9dd57af6a6d786029841f69b23eddc15b849e9f2bdf04195f5185
bd357e51acdd859a552c43065b0d20367021c74032345c8b149273e76e317616782312d7d4fc5b874bb633b1001de2a823746f4cad65c44e309d42a033141704
a4017483af03462eca8aab2812cf324f5cecd44a0e5512501b159720b73ad7183188df64a71adbd7e10815d73fffc1308a2aaca06708ab06e1b32b811378a31c
65ea3b0c443de13750838adc0e3ff916c1ab2e34ad34a60ddb4e4fc6d7006c7672e57a901168c09c66de06152ff6cc018343d5aaec352f545af74499ab654adb
3854942524fe7a844361b7be1c64420f2cad0f9c3bd43ba88da405104f0a5e858f744e62d60eb963b4b5ebb6772b60f5e59f241c2e578d0b7efb7495dc62c4dc
1d08de4836048691ed850fb29a7565aad17e77f06266efa51da51ef07aef0d2cef12e492d494885306cc1ae90dae6bff1e810d8bd3c5bafc088f3dce9fab630f
a7e8d0a1eccf0bebfc76bbee1bfd82df6a8eb579b710cd6c648252fc657c69f53b8b5279e29b3e2480928a615c4cd8a541882ad45de281cf101109ddd2c6dd09
bef00af48a3bb27b87651711a45bae85f62a0e6aa6e3b0f7a99fab909402b79106af8cbb1051f16b014965aed33095239768c840abec02219cc24bd4e94867bb
ec113669b1286d1561b6f10cfebb229f27821983760b9c6638f7f708dd646dafd8c1470da5553dbd149be3ed5886d699d029e692ac88f1658965f42ce27673f3
ea1fa1d339c1446409bae3ae4f71d10e031cb366e7d5670c8b13e1728c71330a2f33bb0c6acd3d2b9479513896ddbf9b09446f93038ccae056bf3754b7c986e7
467310ae90515455421b0b2e6720781bd48507ccdc6cddcbb6334127bd232ea9b62687978e16152d1b0d4f58435b9fa657853c153451d38e20036736fd8e8525
48eaacb58959e76c3423d48751b153f668d91d792f8885baa0693d1c193ce4a0c188bd6955b902c428aff7915a7cd1b4171773f09a4a2d4c3ce592fcdd90f218
99e723acb2a50b1457cc760a341e3d2e6b59892973663b757736eba5782188ed336db8f4457119047b29f54a228de6b4a1b478db63c48bc0741ac1a65b14c1cc
05a61fd88f7753c631d24baa0a8e61a29af851f5d47cd1f8b9bc32d7bfcb81dda4dfec5d287bde28dcf4fb9fc5f103dea20692fbd13e2c98f7b542902bae1aa6
0e1a0e45a26ea1ed72259df8c55e0157af69d2d477542dbe7350fc6e4f7bb751a622b269c9c27ee4fcc157325f406aaae9e15be9eeb6cddf9058dc751a3a96b2
3f40a0e4fbcfb0e5b196213241905b096f17bb8ecff52a5128b5823e9053a0ac7824ce3fc1e5538a1b75c999fb8a329be047063ef492243b5bc401f2651b50ef
9ce17c65b178fe3f3faaa2ef526d7931d1983c4fcce7c91c22f0fec9fd79a11966be7d067d01a26de68b133c029c05ef89773bc6a53a30c7a9fe0d0114a99a23
3b5d2b0cd4666343d091ec47b2df47d77e0f314acf5a5b6d92344792226ccfd064ebccbc424d871be790ea6e590cc93af8902bd0284decef3d68a7801e6ccb5d
3825c9407c881682a1265cb5bc695485fea2b79cf4e1ce54f4f198d544a51fb0fc09ebd1789c74a87526ee3c0791ef807470d91934db7205f59fe1f5d51209c0
1d4b61996c9118d3c6e2d02373bd2db626eeb5b423dd7620976c417147fb3d4bf77548bf76cb7e70ddf365d195c6e2adc5d835cfe94938bb6a64b97967a297cb
dad96cdb187aa69537aa4540d0e8b7b821a33c63d8fe50770019b41637a0a43126a1f9e0a81872d34b4b1ea16ff8044ff4a86b61650e956e237119bf1140364b
0ccd4170b8542bdf1816a0361c1c8566f019c1bd7e0bdbe4c1a5a67882352c9d6194ffaffc487891ef07971ae82ddc28f5d5030dfdc2280646e6e8202e813363
9a42f6bb3519fb0437dad8e188972a8cda314be507d0bb6207f308b562d78235e7d310f032b72ceaea01eea649979cba934de4e825c6dd798e3e6a96b7650ec6
c97cbe26c155e3a769dac35fbea88892320ecc2402961306c9a1896b5bd5836cfb1e48a39468bfdce22f594a2d69e300b597c1f4cf12832cbb784755c99dadcd
80492a900409a3952582b825a772d96f3b3bfc493bbc3dbe690b4bb39db48906380bd254e5fe98085f4628c7eac0ea3e64c41f8456faf269ab771613e808ea6f
d41fa2927b97cd1d6fc8170765cdefc1e9a9e9be04a8c98ab49dc09c07eb1ca81616fd36811ab7a483b0fc3f2804c633305e9d83cfa146d4d7c710c97696d86b
1a9d34662de99085dddf245ef33e520d496c17b0f7d27cd6299c3281a23d341b7d8aa26e844a6fb757abb2b5c23645eb35ac98d99314dac841383704bc1a4ff7
8a9a10649d0326aaebad9da89e365e7265ebe9ee88bbb9d51f4e1a60ff163fd0fb34b63886f833c69d3df92b998770722941e503b837d747ec23beb1fc044189
9ddc7a523513ad3f8d089bab297ca4cca9e91e2420cc344c79afdc518378182eb3cf80dd1d33cee1eed259e07333ca895002dc77a7971b32240ce9629edbb4e0
ca00437ee5b5b9b9defff6cf910d3af04a88da271c50fe5b598a1d1d9798026256b32420f2460f53ffe792c3c820141030a19f7b96b8a477519e68f19a2d1080
6bf8d7680f94c1e6cc0fba009530e347ffdf549ef9e54cc359ee6bddb58071c926653fde8ca8efe0a42feb460e60426d53c069184809aaf599cf94c00f5bffc2
8e70d0cdd2e0eada8b98cbee50da8621f4067e3b3052921a9653934e24810ffd3bd28273c87cf2f7ebf05c3904b266a7e383e3426295e04838dd33debc88e505
bbb963924b75a64ed8bf563fee1cd93a00799e737e1973d1d282b7f70516bf25e494d3442f3f328e8d102317f8ab84b55e873014ccfc7482114dc66fdcc3cd65
a42747645684dbae3e3d5c7dd13254d300ed375c7e8b6c8351dfffaace2486e657c719c358585414afc1e2cb4dce39d99cb0d455ff5c78692dad923dd6ac3d6f
9977492a087c26099616b4e91de5f0e248509f480a8febf0b60ef163b07a5eca3e0c4489429886eae5712ff6dfe4640dca839529198b1952b4b45c8c5609c6ca
cf529de4ffe7a26d0a142b3dce4fcdc1ff11434b1a994a8e43d1593ac6946a716891718f724a342a7d9a4c86bcdfb9226abcd5fcbc257a1e022bf8dbd1aab072
902a63cce817e2160e29da8d1843cbf633d53c6a83233c2555d8aa3bfba5112af7227cba78731c5bef2334aa58759230a40c27624d4fd3c2fd2c75fae86c2cde
c4e6cadccb2a3d7eb9dadfcd7a52daab3e8530ad777b850b2caf8a9c2144b01c1ae6481a1a8316f12627381e3dafb1c584850f92f5c54487dd68dddf2b4429d9
ecb84b4bbdf6071b19d1d67694c0b1a2c65779c399307b4bac22f80b7eb8b7df4d3e546c6246b8c7e8c7d8c8d675aecfe79bc4e2bade09ebe1dc00e83135f22d
ad992e73f41eadcefa6a9e118e50820d8c9f3221443b0e505ac7fd396d2d7c000346e0599dbaa6d26fde5de9f6222a15a43c13c56f04ea93a2674fe922a2af43
c3c7ac343f9a67178c11b022c4ee274892cf5def50b98babe7e22e35ffad0683641b38295df4cfccf54d69e79a5cd7a2360667bc0a25fcf7134bca641b455d90
4876c44f9034c86cad9837205774811739695fe77c73763b649f0b3242995b5be8f7c13eec2f3a57e72c6daf101f20b6279eaa74bd553e32d1fe4362d1d3d676
1ccd4bf9ab40ae2cd692b1d3ad088f845818bc413369966624b85e7d5d83cb02518addf47ad56e0f755121a45777a30b7e1eb5a82f95889a790ca31abf2e906b
8c7b43a804f6e2539d2e4972c522dbd9ba3241bb47ba7510c91f745a1617e7db34b23da864776803f0bb852b1974e73059446b2cc931b948cc1c3232cbb05319
0e1af9d404d7f6f5315b2f5a5058d834f7765fb40cc97dd15227f47bb3855c5b1a8cf6f16a74cc977624135c64db583d8385d2e299ba072ba4cde3891d2923ff
78ce5729b911114eb798c06a8abd7aba3800e9bd56ea9763239da2f8a42e75793392144bc2f7b66d6b6d76088f5b97815bd1153418feaaf4c320173c04adf44b
facc50f987580102940667402ed3d1fa0d9140e161ab16d5b8c6ef53a8deeaf569c90278ad4bd98994f48dc23fa7f08563b0ef18ccef4010208c47ebe8b78c93
c1641c946a2e08e8d3d86b5b45ea2a35651dbfbbc1cb4f174e09783340f6d9bc3ca5a37a74a37a9b6341d2bebb2d64956f1986b8d771f5fcf306ab8bd65a2e0f
a0a4e8c0ccb6005ea74640cca9b4b6cd3c278506435640ca813f389136e16bd7d0b3adbda7733d122588b55a9cbc8a4ecdeb2c2cbbffe9f7dc3ee4bed2a5e2d1
8f4fa3d2d3d4a449933d0a7e98c6070ae59264a935819d46f19caa798c0134bda73eff7d056a8b507be7d119e3ace99e8e5e8580f6270cc564a3505fa6fa90d3
09d6021b15b0d78d1606ae181384e9b144078726d4fa4e9647bad20b98050e06c1ff06286664efe2c5c690dd8341ced05376d79174988059e9f2b45a4f829826
db4efb595f5b1ac37e952403769a6941a50a1c17dccafd593759cfeff340fed1df369ee29092a88f0574b206a1c5ff18935dd3b7c18b77bd43c8e226df96429e
9bb52ead5b720eb4a10eb3e8475d8361c88ca9e3040b1d04a99ba878a9233c184a867708d97cd6fc9a75fd7828765155e6860a3cef5402675f02e02c4051cfd6
35eb8a67ee81605dcb58323bc935fc52548ba61a6f5b88f5129d5b30d72953cce5ebfc57c17846ef3cf318469c99268288de493b8c977b713f9397102ed7b6fd
4f59861d05a5a410036535ca1ef24368a49eb21c5ef73f8622bfefd5b9f4229ffdf989340ed1b4a949b115661608252116cc4f3f2c57a53a6a21f8d892c07d1d
510a54bf273bbde9c1889e0248c7e7509c0aebe9b03c498b1a099f20731a6b3e4bfdc339d9a03001062de9b03a011e52d05e4c351569b74427d3320462a84d6b
16f7648a51d0c6bf8306c6b231a6d0ca57fb933464a854f069c48e073612b5359179d46921d7d95171bcf2b0e2e51700ace5a36ea76dcb830d26ef7aabfbe828
c2d809932362af674641ffe9b0eedd0bd5395e5df81d2fa4e986d885e6092df0544f89f160ca32a86b479971b8403a7424fa16bb1e1c972e7d65fa8c8c40a782
4d293743db19f2ede66a4f197cccbdcb8909c58e07e831837cf0998cada1caadfc0356ef3182878f5fb1fdf3ec704e70322a5976e36b2b62cd92fbc98ba5fa54
a3009cc00d4fb2246aaab5ec32a7a729c7042c82aa419d9a3bf7f0ffc0f89c4d55c4513b28f7aa5a3590e3cbc406e6388e7585a2de70dd98cf8493e20f3a15e5
c550087ce0b8c2b14ce49b40c9a23c177ef11577d5f25e90585fa2b38ef05fc5f648bdfaf323b144c723e1f60312b05b07d3412bc1c69018cca5d7cceb81c2d6
2172c5e02694b62820e5b5445159598af41d3f294e6f180f8e44d5962d58e27079c32fcc86ecc78e6428e20fc5322475cabfe6a7406fb98098857753c8423ef4
3c52d649802ab101bc023867f773792b4c9083299bf3671c029dc4c4251e175126f5a9d938c618aa4977a41b479f43021ac3f87140ab280b43430bb5f605e6d4
5e5cf03cbac215940a3ad7adc3ee66b01293462c404e6eb91ce0674e193a613a75d69ceba171ef6d44f73e293c1c43728fad0643b268c245cbf8f30f096d8572
9b0aa7c15215fadceb5217027696c30177591f444c9034d9b706f832aa4df0b8cca5feade2e7d18a94937198ff9849d9d1f7fe5adb20331c64c4e24ef655e25d
455a567706a6aaa8e3cecd0be2b2e2904dcd8a7b60f81a11fc05f388ee74c1c5706ae3ebbdbaf3a0d80f81c409f727f98e10bc4ba8294ae33cece3e952dbc687
1577dd3d96c81924cb1417756724cd6d7e2558f83932c048c894e3eb1051b01069bd76f1d0caf2fd51e6104960b2ca246096834b86e3df9387c9bb27717d3b61
eeeeb89ad21c03b1be47fad47dca2ca6fa509e4d29135df8c36eca5d0f6725158a2c4bfe802f538a1e854d43a631000aaac7d86ab26dc56fb739b7f15fab3b6b
6175036912f27c81f0075d3966f2a8ed88681f1e414514d1a6767c5fe9c61c646334dc0641b83757f43f956b4b24093dc3ee0ed960f44db3f6a42f4c5f92b815
ca121f9074403c9ca5ab1d8d64ba1d80a28d96b697692849230b80bba1377401f82bad9aa976b96f7b3cccb947c112a92175601f7a46aa89a06ea360832909ba
0bb9d5a870e1e514e620df5c1bb2f8bf61f0890625a660e96760cc69966d69a16e0df64ec969d4931b9665affa8bdccb1da5e5e235be0a6bf46fbf6cc62755fa
a3766ad1e4ef0e0e68aa46506b1f6a507b32a79ed8a7f619fc356a7d43e6bf45b17491c82d18848df39cd9945f93748852d86e29cc4f4692cfd54dd1b470d9ff
df8b59ec1d229a017d1b6f50b4da800dacb0098b884d6b8e059364e4ccc971f0a8406af554576d9fd2d75880671bbc78b585c33dc6ac7389a167e55dec2bf7a6
d1c0518279e06d67df5870d1d874a1da9a085eea8e3c3de42bb608e2eea15b389684fae437cd6343f166ef3ec5639f0bfd29d0661a7e556d153add09e201c045
af6cc92caa62cf7747ab736f2dff4859dfdf0239f7694f7a16716b3254177a03e5d5b1d33effb46c52f51c06ce1cf140466c9d7b381604cb08f7037759743386
92fa50c75af20190ca63d2e5a2ceb2ec8a9d6d0a31217687e46ddb0470cf02da500f769cf01f9004e16d85025c68d93fe468c6cbdf1c59668d45aeed72236b56
8def22f03a0aaeb43de750586e998950cf7134328343a07444918407062589ffb6ab4099a74b9218f98d40790d913d866d5ac61472efd0e677113b4f7b3c890b
b8ece3231c04c6225980cbf45ff55e59b2a226ee5d912ba8907a50924383d32f1cb76318d966e0b9ec2d308cdaa2558c47dca97c7480e298334080f004f8690d
553ae3a347157d176053f5c89cc7568c7dcf599799f0eb7a204cd2bca60a0388fbf0267367228b06b432deed809c925be81d25e309d9fc4a13bd24b52ca16a49
f72c5655925613f9deed92e1c2032eb316f035afb3be53f4e6626e567b8b42065e78a679bc455309deb4d033bcc52d5c50acc073daf61e824ad52fca51d16f30
35939424e4a498ee34b4e4abf0194a55e583598c1be9eb5cb667120b720a617091e210e27367303d2db10802d4fd906f2e912dd360084aa2e9b519b58b277771
14572964745cf8f177ec5631c4c369be291b6bbfb06a74e836146c7182f77e225c8ad9c9af03d66366fe9f1e95564a53dff7a59bbdcfbccc3a2aaf0e34a76463
9ead711684dddfcbb39ba7d56486562444d5faa0a65dad2bcc7520927deea7189e1e0bbb7d766d1e2abcbbf29ecc2451c7747dfb33e4f33220304e245a84430f
32840b791444da2a2a98b81dbdd52fe62e701292de64bf7de9a6d901596d365689a759a29e4aa6fd5b98af1c3726532e70040423f0fe920c9dc96db349a3f1e3
5ef938b189e55ce7c810d52cfc03e5f653e639e9324e6e7bd1dc1b0cf489007a3bfbde5496bfebbaed8d53b2db1784b181c86f9ae54fd6eb9b7c98fd09efba8d
f5e427101bae00afe4091b3bfba42c99167e0c52b0399fa9a75b42d35b1baf4865e4a86ec94d9ac78ea16e3e9418d27b379e3e6d3827d3bad3ce0c7b8e3c25af
facd3030228bc0e49620b495b851390cb049f48325a4221eb528f9f4006c2628c8b0ce65cee4f229b889d8b6b55bb5c97a74ca1bdff1370796f5eabc1a01a18d
aade939dea2af30ebeb41d942add35a89ce7bb8c1ab4a757bd10ea8e7406d18aca518d8d28ccb6e30261137071d34800a4da8ae2daedbc4b062845afef5185b8
38fb230154ac95e0d5ac28306aa2492c17dabee2202fa342323e5914f0eaf7d784a64c461dce1f23df60c38f0ca91e4df3e9d7e108b31c2d690929fdfd87a765
fa51e9a38752a43d3dce8cc56f40a73c5ed8fec62d3490dd9111aa80e06d66bbe6b7606615e4a56b7a7dc35d53204b7c30624c6bbf512f62049e22469e31cabd
19305e8b8fd1320ed9da26b4e735e93f105b5031d7a029acf5e72c4cfaac684d3ca2862adfa3293d7ef64580d44dcee8434c6ad307d7384f8dfc36a8ea15fa8c
c7136fde3ae0fd70d6bfcf3cd088545223d1d318ed0116ffb60e18ada91bd69b1e0a205b2cbe1a46bc145b214da605f337dae333a09f5045dd9e150d8842f098
364d34dc3fe6dea8fb1919be52e86dad53531526ac3c1db530dc63ba2cdfe484d088729d6b70ffb3cda7fc50fd98893d031717257984680419767d371e07ab26
0ea67d9352faad64585297c947ca2fb5ca396746dd71f188e85cc66a9e4afd49e0f18a82b437fa0b6d4ea98a36ccbf5a2f3bfc9e44bcf29c9b00ae5987676ac0
3628ed8eac044b17144f2757668cce4be4965181a20f8dea3a2dd39a9c5ed3a89b22e461cdf136c965d1d65a13b0b193c8eef061bd93daa4cb9e94d95eeff45d
8cb18552a9609c496240387e44c424c82e3a2d238ac76f22baaf95f59deb02fc9ebc08971ff944639225208938abafa8dd1f752e09061324b8f601d40cfa70e6
f07c8cc9985fe2efcf99777c5c55475091fbc7c467d6d6f340c3b0e2d132f972453f7a6f30ffb3ad9c889a2480b11c2ef50b2b8200c9e918625c34ce0f8d2a25
26950fe682ef0bc5edda25f78652507db5076120ce69c0500a18eb1f0f9c0cc4b483b074c287fb532b4d5b8a9a311e04f56b0e63047558542e78624e78b21387
93f84c836660547b2c2def027cf9d7b01bb7b78dae201a29b6b09ac5750336d74b97878fa010488fb750055f3383e39151de07e80c399815a1a8431e9276c920
514faa3690a74b83d48229cdab8bf71c1dcf87e12dc840ebf24d211b7ce59dd0c1fd791fc5ebaea9fbd94eed339a94d64d38f548672ade65162259b161a2d828
3838c05bbf9bec7b6a6386062ba23e9f8379cf6caf512d86b98ea3d6fd705e837c14cc23aef88764b009dcb9ce8e917251933dfbaf143a24ecb7a6c0fc576023
04d68b52961748f7fcd859dbf361534ff9d1224ac58d15a07158f94eb256c9392ed98b766d55f18c1e98a7c0214a878fb0e1dd57f960e14b0ebf2ce4f589ed49
62f27b9760d6fd1c0d546a6941343731dba014ee7eacb989fc85871b10875afebb438f01cab936e7dc82deffddfe682574cb467118c0ba12bad4d34f4c568604
98144b068a6c7802d042b0d8a209cba3c6b194b6b9e54a2806218a73ef32ffb44b8f8b6731d539fc6c1c3d485ac6941c9f4732335f26eeaf51b93762636a5364
0f51282580fbb5abde33803c6d32fe5b35ac1460ac6bee42555135438c317ba6da26b190c9199385f474b5013d78fcab977a33ea855f29437db7b9915f0024f3
c8bfb0dbe9c74f640d4b0d806ed674b1d4d342a9195cb99689dc16647b87104e91fc3269fc94f8b4c17e885caf000d6bccae8a226d860fd905371d153ce491e0
c2a1fcbf225ccc4f10b33b48116d098b786a9659fb25110e4b43770f5f2c38018fc1c8de4b2c902443169788597a036bb500e7358e7ec05f17f74bf5802e80be
dab9c6640a60a379726209e49293abe81751872721631c0c4d2520e8d83c251b5fb53c6f28839bf5684408391da7fd743c8b821089f742409929d22bdbb3b5c6
786246975b15acb320b6ae4548931a8d625913e8a01d88bc1ebd33cec6c88a418fffd882fac12cff0425d94d21e543de6561e413e56879f86ddea7dc85941e21
5ee6159059820ccd3ddb50fb5897be08f6752a35513d3cb748d329ca37fe89f36bafe7b22702e06b242085ed1792672769a02ba4ece1ceafcbb060f6b739ac84
5f009985c3b6e322bc71e28fdbbe46f91791ec1519dc11be05cc080051e579f512a34021ed995854d5dc3c5b27875934d0e15688b92137e8ce1b7654b454a301
3a3d88c0568c66bae00fa136bb66c6246ff9818ce5429abbffaf7326ea9cf509c24f9952684c7e9d67947d7ebd71a458d50c88e25d72eed42b4434525d58bf5d
817ab8a540ed09ad103e7d60a95e57ccf75d903f15a15b19d492114b9173d3f494c7ddf6607d35df52cca6b570f3eff9438697f6e4df7bdf571e11fe9bc31b9e
a39fe8118f7a8c4791add959ff40a5f3afde52d3bdca7939be6ab492cdc27d1d9a8b77b664706fc6bae6e6d7344548ce793591becf586064bca18ba3ab9fcc78
df6e1393c388d0a42b5f1445b0795512ccb24364add6323580b6a4e259cc22598845bb9dad8f815330c2c773288b4b3eab18ffa5129c01c69bd8c3e1d7d992b7
3c7c2e714b1d41617d1b8d8cb04f6b1bcdc06d48e24664098b524d6ca01f4a33140d273af07282216d7453518172fa89d11d12aa7e77755e26e937da59d6ec7e
57a481029c8829eb5f259f4232bd9d3a0dbfcc668afb8f341d3efa746137c77a995a6f09e2e627b6251b6ff828bb6a7c32bd23a012c186accf8b9c1744d49285
b6764a475ade09909f7ee20de4e1f9821a25de34fc39643277f8731609558e44a25267dafa7a91d3e052579dca15f01d4bc37783aca171233077bc0ef1a4827e
6691271f50e64270c8834d8ffe6f97f2206a5299a09d034d129e59e53ef1ea3440f818699df4228e69a72e7b376b7aabf531560fdcc394f51639507286fa2426
363a92797876032bb61098d2e8dd2926aabe24606fec2554f511e46d18269e2aba37ccd882c3ac67e26767f3d3c0f6b4d4d5289b7361f4a3f2c148c399ebae4e
62aced42eb6c384bb05f7a0dc9afc25de7539aff7cfdf741e5ce700a1adc74bf5d79b9e62b043ef098e0d122abab694ec2828d5f6224725b5462947eee182885
7dcb7108b4c2d27bbdbc3deb4bafe3bb4ccebbc00b20c1a8a40f078fba4819686f922b2fe084ee98ad214ef8b701674f2f52d6ae1d13793e47fd938afb639ef5
ebc9c4f492186663861569f34131b00345a157be0c41f91b460e65f178a2e2676b9dcba7b68d592e611fd51217971843da5aa9125dded50508da67c53f250434
6f164288daa190476ff8c858d5f73bdc9f51ca46331b0f573fb5cd1b8d8f85d585f8430cbdaf6ed1fc22c2f8c77b0e308a6d173defc85f1afe618408217b880c
683bc9ab6b6cbed7637dcc1400dcb2d8a8b1b1f3ea85328165d8134d85c5d0c6aac9c093f2dc660d873d2bc9c70179277ebf9f4c42abf82cc6ba185b02c076d6
b79dd7565c8a8ec61482de6547588076154cdd69617c8b5c190b696ca84a822c1f974803dbadcea252ac3781cf071e193a0b9eb49db6bedcf2ced83b413cc40b
6c59f9544a4d7ef6f3bd2a7a233b234c834d41024d8bad284a4b71211e24413130bcbbfaa8a6fb7c01638b55f9082a48fb341ac96866b8bf3539b227f2661659
87b09cccce0fdc0ff0cb70df75dba6b995b5a32c64c31f4d38735e2d879243eb596d34a4f42d12f82c73c69a5a4466c8eb3dceb5da055a1c6aea19f0af1d7728
d69bf30b2eaa2614b29370246ce88c59065239c930b3cb8ea85cca04eedc5af068a562ace628444b790545f52dc67e068ea88bd0811adac4af6f84900f28efcd
154d8600afee07ed052f68990d8048b5fdfd9254fcd24668fafede2f6fd4eab9710bc6bdeee0e37db2fcd0dcec97b8c527907cf52881bb38f374bbcc085d10ab
039369164ac54d093cf510009f864dd59ecbe4ddd3d4bb22cf3119bafe9fcf04d942e3216fb5b23887f8009eecfbd2189413fdef75990f8365c68e34c4038e2b
377be7a1fa04757c4a65e045c0a24824f80c88717796eaa0a9c1940dc67045311fa4296422891365c848a4054905e4504be79ee28b62403c2885087284336c5d
b353c76cba1125969cefc0880c836cab72606d44aadbef4fdba9d1f4794d862a6f2a71b54953552ada273f0b5ad78ce4f56c158e2b3c7ed284f4cbe0ccf12cfb
1c8b42c9b04107effffd8ab88756ca7a24a38ef888424786603f30575293188b1cb43a6a7d67d5a6c3941d8d99d0853ad8c4af98f833e31ca842bcabd8dc5ff9
0f2a995ab2d458c5888eccd68449bc5eb6339d0f73171086d776ce9dea1a1985dbe35f98f10feb72b8e9d9e9bf54e53e21c9eaa286bf7cc97290bfe2248a197b
cec4ce6573ffc584ec19790f31e7ebd382e9e656b674d12c865eb406da8e770f0592ac9949a5ca407c762db10f33506cabda9f0a96364c1b36678e5aed77d5c7
22711517bbb70bca8ee55cc7c0aec668213974a3850425b321e258895c6c24a01762cce9a2b5a3f9ba1054654c9b7a918038b73490c90e79ec5b0513cfd4bbb4
e1e122310109c2472ad5a1b1ca7ba4045cbdec7b38282f66eac222a6193d81a4e252ef02fb2c466f96a8020e80c3016d97a5efb823d5b81dbd5bd1cad8e09e93
a8d437e142c18025b2914f21d5c00fc7c625c0012ba4a8740970ae8b3be30eabddd761db3976b3c8cef9ba38f1297574ac29813654973520eccf3e6f9ad34e93
6935109953c757fccabafb7adbd1e6368fcff2354b7a8ec43f7a76cd3a91ffd60000b2f20e0d933d33bce209adc8064806e2a9df0d017be9a3569c1bbe4095b6
537601165a5bd75cabd1573c2af00c4bf2e9d607fc6b0b86fceed0e72f4425ac515ddb6466e6a6f6fd85648de78266703d07063cfd98d464a71f36e7d7fdfc6d
1e9f5588b8b5b362a51d46e4d18ba905a9c8b404cba286951db84e7327579296a565fdf5590242049829edc655ebe868d3b9686700a980ce7bbf2b1015bc5e0a
f73dea1a82f86034232a1f8fbde5e91f3763f6f4eb0530e0eb2c1b33f8f56eeceede1f00bad1ae4a39df49582e5de48bdaf0fbe89cfb6c3d39ac9270c569e088
4706cde4fdd05ae9ceefcb15e82e90000243150ae5faa4a14f66225b0f25571d796b74850a4574839783f4387802c09a7644f88ba4a7951f5966726058fc2e5a
f4448eafdf483b17ce47e22aaa09e0e8196462f3595fd293c213510d3ff515973da75bcfea1664ef409c22b9a51b77abdc349d0b75b5d08b13d800a93bf582ca
9bdf7dc4e3af679e08f20601224d9fc5c26d7b289aa7b123a30681d739900e5c067963aac0aa66dff032710f367bae34418b63b101e3cbd031784f7b4c25872b
beacf85b1fcd0d708f0cde76e76e5c40a8c7a084fbe62b042951f5c009fa2a6186f78c9193eebeb2cf2df3dc6278ec40bf8d1f31a333bd5a4a5287bffbe5334e
930aab54ce42c3fe184daffa27862801cea336103df2c28b76651d7dfedd962d789e771c6a6530ba35a1692066db9a8c8c084704681a709af419c8cbfe712cc7
5a702fefbb9a5170c1889f767564e47688ce080305e4730585bdcc16802754102dfd38b8495b8c7c7aee1eea36616c3b5613aa9e2fc00bd6dbcfa8893fb8700c
358864756f27d5974b7825a16f57149df402f25901accd15221f42a6e44a6f665b983da8addf1d6b203cb0c737806eeb2ba1097619ce7e63071561cf70904d5d
0e568b2aa0ca696ee0bccde4c0f0831719558f0d36e72b26a3396b1d9d89f6e4166adc42cfaeb53f388a15b3eaded37433fd9c8982fb3783688db1cfbf4dc2d2
e0180e9d76e374df3af79fa454716097245a5bb17a69771fa1b5c833834af3256a10620806aae5689fd53e2d91f4fd59d14509c46ef88bdcfde87ef713b3cbc2
7e6ca55237a095c62a7665c5d47ae1353dea8566308e0bae0ea683176787a6ca8f371ffec29ca4ca6ee7829cf49e95a4ff809b341fbef15cf89771ee06d5d961
55961e9e6f81abb4a1cdb70fe712b8386742ae3cfdf0cf8afdc00bcff940e9235fec9d5f8c3c082acbb1d3f13c4a4844b2f4456644d95fecd65f6dd8dd5e977a
ea79687b01423dd820bf00bd24bb695c7b7ba0fe0e42c0e886e9e67e66473afee2e5153258ce07abe14276f52232130ee5b9b65ee13d7c35cd0e1bef0adafbd0
64ee62209293939df7f195c75e012fd62b7162cbb65797ee3399eb284622dd03c8dea5cc6eed19ee1158864bf204cc29fd022c3c0501a641197bad3ddfe9a23b
a805a387cd85e653ca79c5e5b1e7558cb7848c706ad2140a428644bf870682018e27f5579f65bfe12e1cdc70a10dcee483fa855644440575ee5805c4e4af0b68
4e59dee72bf1994a6be92d4f58290230042b7e4a86044c0a6611ecead77af3fb4219a208109f0343b68fd725223711269d26a1a80202e7f7889123ecc426a619
c0af6b28facb5235786bf8c3b2a6eb87d59c02030be1d30fad49dc1402d9327606931713aecdd0eff7a862d5616816e93a1710736760f1fe333b7ac81ac78aa4
fe590193dc9440a0770da3b59b2f20a4c904fa93a9abf8ce5b1052e165df27cfdbbcce0fd63a911bed02ea73eff267adc587d557eee71dc9f2111bf4f507fbaf
cc521001d5e2f6fb8360df1bd4c1d5f16e3987785eacca337e2687a6c99ba66efed4ff23512bf13f4ccf4b5b3f5620df79b96584ce7ea9d413cdf81a47b56b07
6222d92cc835095a5baedc15951702ff700f2abf49ab6aa9f075e2dee68aef7ebfa93cd4c9ebaa724276483d26219be8c09d1696faa764f29e5f6a5b13c5b847
fcf1314241b6b5f86fcdcb9bcc14689e1e233fd7a7231f160946886edbb4eea834d93b876beb9e1192cf6aed9d07b8d3b9f4262400108eed784ebd97aa058c00
d278e6e22ff71bf0c2623622023fa732a42fe4068ef277377a4ce073a7efc0c1cbfa260339a9e78ac2a3e71b53eed7dd5d1b064c6f4d53d1b71f98133e07e6ae
1fc0b1675218905feb51ed130f4d3a4317b1afe83fb308d58a2d53636b3db0d169c51159b446ef740d3b313f58d5eff7ca3c3c96295aeb8d5f9139c498c74e67
e427e2d3c55d9dea331707da1c2a13905552a48a72c1100c64815cac35e5060d5e4d94e6d40f8d446051cc22b52ded88a07a9a4889b04e9bb152ca6539c4d886
90bf93b2369b1e3e34825d889dc388bcaaa491897a8e724e55aed4d52efd7405af833f1f159f393f342f17b4b9a5c001d9fbd107a061e3ebc89db9817e911d41
3bf8959391350e07d1d0e5156ef6d411c973ee375ebf8383f309fc4d36c2070135268a49b44a67644a1c8a3d2ce8994d84cb0f14a23f6a190a096688332ec7f9
410e882d61047d91ec46908e37292d1553293d57e613fc1205062cc9149bab4d8737add1156c4cb6128fb5d61206ca030656b880d3af1f1187c42bc045acd5c1
42d803188677af73c703c3b34b7a9547542a92fc1586bf3d713229eeb8b8a0c9ade1e8a81696d3176726b7bd25445c986c4bcb23fcfd8f2a2a3735ffdceb5fdd
1db706863ccec1556e241d7a5370608a0d713d9f6db9f7b0c2779fc1d8ad0de801ab31ed9776458d205baec8075d95295da965f8097bbb16fe326e5c9cf8b76e
58a31efe25239c0ed9cab0e88b2f1d82b0fa9d55d7c0c623c077d646375cfbe6ac0e5467ed1df904f223f58f6b95f740722084c2399d1d2ed3169610670e1f31
7af6593d6366756893bb8aa61c61a3ea8c408eb51289c5b8f5825905e3587bf8ca3ec7969a4677bcbc0d5a2208818725a79babe4351f76f51fe85e59296439c0
52b480c15138d4141559148b3436d1a94533b9ede06e50ff9cd40a46b963961578226176de879d5e1c23f4ed571ed01d4b37cdb74b33df0b53da440331fb5f58
eac1e6d2874685b091623a632576f4a2f62468d79e023d5d9ea591c7c5ed1e0dd8e1bc7950dc344a3f30393ece77084bf40a9b261957909de76f1943d0598309
e94fa55759daaacee6d2f48b98542efe14d03abb84bbfa0855ab360a1e906606e322231627554aa2e4e43193303a4e8b30bece2052cb0519e1e30cac8ef6d99d
f9d11c4d600b3489a188eaaa0e98d8d75de1ea6a1a6ed2c53e1c07407167828957d12cc594fce6b4ea6f6b10e2e49245e1f15603bb653abcdc5ccd14b3fb7cff
a318be0d44fbfa888919ef2e91f56420b1d9b918b0b6616766709310a44bc4a4d0391c0e9cb0064d9e389431d7c9001c597d7295aa24f3b65289fe54e54ddc9b
66c839b9527180db4af12380e9f50002e449f1541b4b4daeb1a697bfe104459f77dc078efa4dc66a96e2ee0dc476e6efa4931724ab36b146b709eb8d42d3f2bf
1cecf3d1bd6d7eb8558d17db05059b626b8ec4d0d889f4876125f21a557c45ac98e2f278eeb59d971e4dfb8063e912a2fdf98cbaab3d57a3809cc8052813b308
35df8b9e2dfaf6b6b82ebf05dc7414e26844975da0ec6489477a0b3e19365bf73cdc4e0c17c6ffe2eb28ce9ba4fe3d7a6db48c1e1f185d87254deac419d92f72
0a965d10cb1e9b97ef0b0f6003f43d0c2cad9eb7a5821f089c3087d90ae357c18394d56bd26243b2a6f81c8ad9831b164b287a8fbe30cc897b851ea7d6e87447
d1372c61d8ce4a4dfa283e7d61bfd976299244d9c2041f0fdf6d0c0ae6e5199b6f8221dda8a0647d77f6d2f81a8e3ed7660f02e7fffb7b0b93d58308852932b5
1dd5d9914fa2668754e8fea4d592ad576613bc2d68c4d422bc4f695f1b516f12706011bd60a5ea04e557dbfca105fa7b3e715613312167d03e22a1ec5ceccea9
61bab688398ac00802e15f223907ba39913ebd3bfd8283f9dbea4799a57530c631c6bea07d5b8ced88a6dbfc9b6ef1fe72b17441e6f6ce72abdfc49c14d54010
1a2ff4112252a3baf6ef74c071ad73793c1f992506bcc845975a5e9125386e7951cbadcbe8c2fc31380bb3929565a047aaa74fbdba9474bb08265a492351f648
c803b534417653a1d8cae5697e596de2dcc4d65cb9cf6dd04bc8e5f3c4e9c1e1afb011950c6d4dcaf45fa54ee7c1356ab61b959db314ad5cc983e90de83578a0
b579810b23188fac8cfa0d13bc760632e7693aac91055adb5b21039683bb8228d1d9f001bf0e2575ac8beda0c0dfd07b960e228cd0e0bfc210aee5b445cfd615
2169cf58bfe7a2443196fe21642d814b314b559ab17798db7b24c8bd77f460b5d1ed85be5f8440ea046c051974a448b66f1611ab7d14b8cf7a3d0bd71273ad31
2ce3f847c76672855ae9e0f0cc908b634cee9eaf3fbf780577e4d0f4a2eaadcd0985e10a15555229a515f9a36e89162cdf7aa2f98049470c08737b48d36f7eb7
c2ab766aaff665e4ed0f9fea4b904b582c8c2709d910b9b875f89e08f3592abf87e24440889df0e6ac28efe42357de0870a079e5a4aefb400519bc6f20be5f6e
a52be9f7efb9877b9aba8bd77381f01ab49fe99492ee1eb4d9a8875003ab5bb7e511d1850e9ade488731cc33d22301109a18916db443334353f6128aa4e3b30c
fb006c48d99f67f21897ab648ed7615a0d8bf5337c5c84a70c54723e4535e57a0232b40d7ceecf4d20ccd635db8f20affd7e2a72a1d3e8bb57ea45ebb3b60843
a26aef6e7733e04389e426c3ee9c17df155baf1b72b0f9c525ede57753b846ac165c6f3775f179b33b3ab48335a265a1567976f7302897d133874ef2ccf6ebd5
37b686a1917037faea22797ced3ce51ac6d27c657b0c1b900af6b09a04de7eaf7891729a0c4513c2e2c1f248147bfe891399e8de92fa28fb160f930ad0d54c35
2fc8c39527145b17c0d5b777fba3bcf31b4fe70b4c0aad15eb46fa03ea4a827bd994d6f65145ce1e06dbf3f60fa06934f4d5a2006e1bd84b62a96062738de39b
436433863432a7adecd268fb27ea3b65d78344e536ea6e3715f682a9d7050c40e4a323360e0efb3dd1b7a75ffed727c08791ec364bf431667d89fd669e28bb18
d33dc8adc1a48ffe2a2117860e61588bafd417674210ca7a70b2ae6757258072c9e264995645cdb59a111cc2974a9cd94983ca01477e1bcc8f9062218a3f4548
37ddfc8f8ae5fa4faec16dda00a19200091e11213ba1224947cef0e8eff7b12cc99c9406974a94063965037cc41315f6cf3a3365e50d8e7d3979f5f6c0e7b6d9
40dbf6199837cd1120fb87172603422d879958fed7e6e5218c86f854ee46a66e716fe8f1109d907cdc994d665db30d1a8bd4d935cf5fc2694590c47c998f37b3
065c7146c8b3e7d8a30a77e616216e90fa870a31fb41986eff5ac673b7914893eda3bb7efb43308fb5abbcf3ed7736658b11ba0e602706bf8bfa5d76a1863187
5ba4d03ea0ed901a14b747b7537d150d8fe9719fec31251369b7314b3d240fdfa4cae812d4b246501b50e0f45ad3e0cceff8045079a029ef9ee4ba05a7c3896a
eae6158004969f7ec5e919e43c53706298a1c6bb64c3de8fe781b1ec223d99f06f64d8ae2fb5a66576b35d0889f927cac6e1e775079dc68c39d875614d7beabe
5110c2fe76219cd460f549d69b20423cdbfbfef387320148aace39611f9e3fd1c61555aa8245c0db4d09fc70022322167908bcf07032de7e48591bf076ebdcf8
af813bf22ebe2c0aa66aae02a976dc31baeb50f11ce2aadad97c32ae20ea24b0df551976995093c23716149416c487aad349f12dbdb352c3758e06cf3a98e59e
a9c49644409cdd2586b4d24a13646f78a6573b844bff41a6beaca4078363a64280db92333e3773a155656560f288de554525d3c7b1cc18168eb3f1f4089781c9
3b20abde3597b10a5401f647eb20d52f45edd3f76aa886f1b2e92ce3f01586fd4aa640245f81d7d03e7bfd9ac5b2087dbbb98dca79bfa0276aa1b7bd61a21b43
dbf9dca14097437a44275e54b200366c7b8e35cdd91d7d30fd299fa169cdb4fc06ca498919b6078668f61370e8755d0796596c78b46ddc8c0d9d8f56818a7e65
e3cd7e9967dd42834539859febffb4a1ce3027ce387e067d97899e4234fb1c24364a1ac37c36f427f3a89f22be547cd62b739131909156cd5128557538f061d3
14edeecc55e58a58019e789be28f929d9c4687a0890ee7d4ed5cae89a34f61f7c3dc0ffb22ee803bac9c1724c308421a2e202ecd1220693b2b70716d2b3a3ebe
8067f5f0d5112e4abf4183af1c0e4ec19a1e25cab76176d7697a2d8974620c2ccc9ad1c39685033ba949dc9b56f8ed23c3adba57ff218164a3d397565860d634
f94e50e05eda8a2a2902092658312a0754ca353611c0be03b87b5a1575da489c5b0f2086c7fe28bc1e85aec2241c321f6e1e8306aa6cfd43942139e944e65f95
8503aece71bf2de005e40be68715827877a7f892d1a515e97d81e8359db2a6a23d5670c0e8bbe955bf62101b2bf31267a4894b7da3c389f7ed7ab849b7c0e356
57494c46b77ec1a93ee98caf14e7d9806d5609c83f6a1930c7716270ef2547d2ad50983da3f25145ed0b129fa0720f13b6e80aae8856e6356c8a3aab1c3b6600
fed302d416b392d7e86a8ec19b1c7b0b40e2b1542d2e1e7d6150da781d5b92d68bde1f053c4a1bb0ef042be3f5bc119bc6d69f0ebb080c3eafddf5a1e5b2515e
95b01e44c9366b32c4ed7da3440490de74e23e0c8b32d0632e5fa1e19f5c45c7c9fad2cb5351e1acaf63508540d6d7a8d3cfdae663056ae18be0df743434a896
286027e831aa3105968aa6fb26f80ba13ae7586d113b686ef8e19e73a49d7eaf46f39137338e282663d438b1d52c4d433ba4b1cccf6b0581ff7a7d83a7d0665f
a54cb2a1e74342d2479cfc7aeff31f276785738979c38e06fa9dbfc24ade204cd382ec8b8ea25413ce70e2b5182dcc7126b6686c28109e4abb592e1d72eae3dd
31e64d90bb705804ad1ae7d0db11d94f5be0fd32696f55b96b74b7a476c8a6f76536aa250483fda64bfa3e0f9a2a6029647a86ce17ffa1fc13ebf0268800575a
eeddc1b67b4546788640ec4a45e009fa412b7ad8b113ec25bb8860210d43659a3a012961ce056a83c542a5c1dbc9aaa37b1d7de9d3f505d4760731db601d0c5a
510d86957442066cd400bf6b97ff943027706ca4a46734415b7b1db79288dd2a5b42a58bcc4dd0e633d735b8c47705db51b3b2309a15b42dc89c7301f923fc5c
6342cff0ef0f3c56327bce50967c6fcaaa583d4f8159b16a730c1125e60fc195bafa8a8446f1ca5541e3b70e0b483fd15027784072fbe98c81f851a2338a0031
a1b85ebba2b11ce513fba5943f94b4c44edd99188d2e85d3c9228709a2e4ccca44d2d06694679f7d173fea1ce73f976167307c932750a24068c46274a1a03ef2
9aa8574c358a3026846331aa6ccdb12be1c8fc7bc5add050a8c3583e27a6b540f3c5e57ec0ffb72e7ac157a776f4e7d6d46b1cdb164e47021d13ed5c164fcd49
b73909e01a7a9d9ffc7b580759101314132a3fe9690f0d0827050be52ca37672b2903d43b31a7af96c75b1c9f6162d3841a5b9712e70d482e8f653f25169732a
96c8f3b7d32cf420191ff3e3e16e04f1de87356307b5a6a8f571b8b6567e7d4640a7bb7ef5d786cd7ca6ae5ea68318ed2a3b43ee70ee43e83bee73f46cf02e35
91649b442f1eea11e62af33df7f8147713b5895019fab6a9b71da51eb82da0ffb3465fb80ecc1153c8bf417c8590e3e85cc3407c84cea6c7a42e11832ac0894a
87d943e8a9c71af3ca90e6086e04e6e89429afe596baec1d55f11fc73c9e4dd0862beeb0ce2b3c1c4e9718fce4744492ab31a0dfe7a1b2cba67bb4f60036ef9c
5400a0e697048fa13be66aed5929ad8068028c37f9adac4d1b9c1622421dfeafd13c46ec134a6722fb1c226666e5039072213fa1672f37a4c586e16eda3e0241
fd01759831a320db0af8e3ba7200379d9ab6bf37774e12e6af40fde2de62d5e4b9868cc4d048b09468f284676a969def11d52047665979b4b0968a2631356413
0fd9a33b8a4b02576fcbf26df73bb0596d9036b603d8dab21451b5ecd725837a1e7280f72b3e30d5e8549800d4405fa0659efd42bea00533341786b4195d1542
92da958248b8fce0ffcde6e03b936eb8cfa63b13a3f3e25071dfdaddf3c407fd3c1bfc393287e25685c58917cdae7375682666f96f0ed917fb876a7e09e5a0e8
e5bdbba363609ef66608a701f6be38d64f2579a09bde880486e4437329fad58fd586a065efe928e618c919e55c4f4c1d05cb8cb33f980b7ccbb2d7596c67b388
ac82c06f53feb34a26324b8bb338a20773eeb42490e1d2a9d51e63e664fb636a1c43b8c570cd50b5d94f1305cf2db1e9a9cb7734f99695f82466d9df0da85561
0c406979539b0814ecf050903cdacf849b5f9e33ce15946ffe38f6810d8cd01f3991019ad2bd52fada4245917321d9840dcbfe3c21a62c544fda9666bee9ce45
25995eaa1107d25f6287ab1fa9851a31affa625a107cc55e92deec62a05b0d4062b23ed5a95740016475e0cbd8110a01e00ac5e32546a194f7c51583ee09c1b3
01af9b1168df6c16b2966ef34e65311c3d138638ba0e859bb40bf671a691d9c3d027000cd16c5f0827318783c3708f704692dfd7b972e17b4dcd92d457849fd5
8cad8200ee796bba0041aceda8a62bc0237c2d6d2eba925fa173e4150b98a7058a1d457dd6c8b099c6c9aa450e0ceedeb2e46974e861fd6f19fb67060462ebe4
c334ac8b6ed961a66010e26af2b9ef959f35f32b82f8a5a985334dd13ebc4c6fc9b0e579c344576b939938f931402dc190211be2e9c427db97564efea51e9b59
82864a966f4c730f8d440deca42e4da5209494834c70ab4ab00605ce116e9e0206876b9bcd2cc73f6fa81ae486044401dea0ba01f958d90f27ec6d617a5fe70f
2da2e1d09323055dfd5bf8e21077719012dc14dad356a1a9f423c3d11adfb420bff515a3bc2cd828cd69f035b922bc62760e83f1f82cee2368fed394c9b040e9
c37c19ad12a883b6c38b6c2a0702ad090876cfbf9b1f421f8c25c091633edff6a3e4fa9dd6e3bf0bbe665f00f828736dba53f91b74f54dd9e7b3dcecb5efbb6f
244bc917b09280ce376e6f01c1b4797dcfdd7ae8db8b71ecb8a6e7cf0286e262e1a153ac46e245663d3e91fc38824517086966ce892058a52ac9e373cf5dffcd
e8300d1b51b5ce52d330d7037e37cae2e0eafd22630feedd59ba06ddc8cbe2e6aa3ae583148268bbd9e223db61e51da844e752dc71a06af922d94a0822fe58ab
cbb1ae723d1d86d2249295609a534f99d3c9c8f28d0b3e7085f3f296e6c2900720b7c64308a5cab783ee0bff4a37d48af90ad027b08f24b2cf7c60a42a4775a9
fe562adcd9b4d8d1116e7b7a86952b21de0050a4fccacc48440169f817f5dce290626be0c9f59be8608d5443c2d6a4d3354c138cb32e17640670a6d557e634d6
6eacaa812e5b00eebecc7554299e1ceddffb7d620aaeebe7dec93deaa1982366dcc57535854a0a32df83a263f1a758cb2f0bf30c8df47939590bcf64fb2f6960
9811bef81153fcd336e65b9d632e173f10f4b26331f6167ef2b5e97bfa0238ac9ab5d3d4e7ecfa76066b0e80127254adfecda8d318bc17f7c2e931d31fb0415d
dbf2dce68b7bfaca4193e7161621d2cce16289648953d36136304b00d3d72b9b2917ee189c5414f37c6e36e61a7e58516fc36febab440a05099bcf6dd805a078
7a8cae884d23884333541deef3554e0eb6c76eb92233f0b2310845b36e37c740cae28f29fa9b0bdd26c547cd74eb27f9a03e8c5c795fdb941a13cc1bd69dcab4
1e8d49e1d98e3fed487a615ed043fe8999289019bb6938d5837d400f84eed54705c524f80b9e0a0eaadd034f02b74d344d34611b9aedc0e3699b02311fad810e
cfd59b4bd3b766b5a68b4ad565eea4aa204604a65bc12700e71fc4632a11cce8fd99ecbac1b21bcd1a5c09974bd5ecc5b1c66584331fdf4b21c95f760f563b68
b4f8d1add0579bae28e49ae68201916a2bdc373f013dca4516750ff0be4dd850c269fd3ebb76653c9ce95bf7862eee19293522f28aac40ca2e12a086def5de5b
9121d48617473371421bbecb813155f65ed58d74ae2bbb17eacfe36f5ae1f0fc224fc02d4cdf154b619fd4f4d167576220eadb34120334be4926eda23402b5e9
346b151eab78134096cfefd64d02f592006ff6164cd9df91c3b56b7231fa37f94727a12041af17f3c5a2f9c92ef0c97a4c8947bfea9bf0b3ceef8de87484e74e
cd3c4380b75071a6cd38c4866882fb87bcaf7752215bda7c789adccb360df0fb8e6bef033e6b5f00d0695556ad544fb1e64c1c7b68b7512b43cdcba57ba0e276
b178d7c11fcca712d5949752961fb71e61f3b8ed80bda64df0d04ccd01d49c80d768c09efd9efc5b67c4999f3f467bf4d5b682e53f81ed69ebb9bf9e8759072f
0fae9cde1d3fe0c91f861be10fc77248707ead52a84dda1f98eab1cb9422006e06918ff4d61f6a2466c362655e4fafd5110ee2d75c6b4966f74a2f3d86578326
3e285f1d173319c7daa67e179baf684040f7c5a0c86e45b7edbbb3754808bd17b7306fd1ccb7c6b3d43343375ba72316906c2a0818b8bd7e331fadc33bedb6a4
15e36c9ce81ce124c2541f0ffb5a24f2af3acea9d9dea1d40006201db8b3846c42909ba4a9f364390215b163c89614ebc84a8f1e659f362c43ede78e6739ba71
8320f9181f18af542227d01f0db9143341f45176ad8ec53d5110e9a867e9d8468015fb97d6af1df4cc33b2437a2073920932a6afa0ac30bee1c4402b1b40e30a
10e7f0330095c07b9db943361269d518a2d872acd73a221dcb16b318f40f464f790358f48d6b6e86386ba5ab5a0e330b946bc1fe68b2e3f91d7565d92d2c91f1
bf817c57b21b9d8bee6d4c7914d10513f21fb0c8e366693131704fbbed6ede4e1257e13b1ad4b71ff16e0829a588858136904ffb849daf628edd075dc9774620
156edade7c7d324d5e0290eb7d360f8ce7943ecc5e7c5e0cc09a684f277432631c6bd9378e2c2e9f0fb936436958cee52d6cb100ee6c5c55656ca0054169d43c
de39f076952b43816c8abce593f97e45bcb2315596fd247bbbc614d098e1982ba71acb5d87a17a7bd9d1f86371dcaa2d5a0738dbd99ca7644c4852870da597e8
603af5c4d8d37904fcc0e2249cace471aeefbb34d433d84f7a760cab257eeb35055af4e4f6fe06d4bcc9facfb98f07feccbe333019f4ab97222f3f3a10f7cb63
96d539c8d3d6381c4edd461f2c92df09dcf991a53065e0663362488d5d0fdc77de0402a8190765ce73360aa21c39a37c5bb0edf97a88a4f1ac5590fc5e26a014
d7180d2af1d3d242141b58a28f27a38d1aaa83b0e4f0d6735e8988835697c7e1052089677587ef669b5138080d0dc1f54a8762e69f8075646646e4798a235f97
7cd13bfbac973a23e6f5cd266c8fcc7d94bc455335f93c91291c8e203346580f4787396b16c98dd178164547a9008531a2498e1ceecda1d081b23143299b2de7
d8c4195afea0074f82fc54c31f614af266f9ef2b8b635b424375c5f5e65618e2d3f35dea7a5b363a4fac5efe9831b098635c93dc6234d8091cb40fc4dc602a72
b230e331cf490c4b59648954ba61b8b60484868b5f15b56344819115691eec7abea42765a27b17d1157044a5d8d68747c1e456d3d1b5d373be3bb13e8de8f900
241e5df96950e3a10d83d4dfb1466c20c4a842bd6612e2d9c9e529675e8ff128bd60ee0aa9f5817d3d4d919972ab4304c30fa21ea50fbff96f897e99d4b3a830
7976f4a437fd4fad7d50fdccccdae6f41b13e009939385a31315d11dde1048dfeb38f2e5742c2e5bb5a91bfaff8c5b2a3330d75c2f89e1ebe4c2d9f44e0830d3
861b2d3a236862d90bfa08d443411302096027cc00c4ce707633aab041fe1347efa3c3516c62133527ce06fe0c558fa9695a4b650c3adbc3e2c189c3963d30ec
4bc31c4c1a869700508e887395e27aff8b378dc55121d54fb21295ce1f657195e419836986d3882cfed0463b59a63f0be06bfe797963b5456b5a518971530927
276b5d28c98e13915caaeef7c81851d9000a1a50947ae5f53f923f176072cc5c8a13f6b778942ba3942de5fb1a28bb445c44be7b734ea75e18699230e9b5398e
4799d2c2bb34e7a365053fa4a02b6f7e1856932236751cd8131f3eab35f3617555cef41c37432356243a61c47e69eb5ecca5ac5e9fb5afa3f9687a2a65dd5962
15943f25664e49684f24c8ca7355fa71361eab3a82e910dd1236f8e935a0165f2453ff18ee19c625f3b33142f43b8675637bc7a7ad8e7ed7090c4e69e0b555fa
b338896bc45f32cb9159eec0a63792010a668e59a109ee1e6567e206c58d15546352f73ff95f4af3a99155b6c76b5a0b3d85668f886b51d40d0f3d52102b701c
581c7dabf8ab909b05e08ec8641c3a14a00aff8b1213feb91c41834557391868697c87f7e928638b48d3b1eb77c35fa0ab373983c37b9626aebd189ff3eb82bf
6f87107a56e9896e35fbfa8ea601f0019ad538e54894dcfbc508a99fb5e683badfbb56494a7312f6c1a8904d948a97262df8783e89e193e83e6828cc8bae231b
