839240b8d0b55edb3e1188f579830befb89b8c27ca8d61be6e313ab8573aa271c614d80ae631976e64d88b55ac02061b43c4643df035e9bc196ed6f1b50ad30b8a3b336ede13fe6df2c915ff94032d5ee3d72e49643f722468f0744fc809ff61a34d572ed25e2e97af30accd382dd9ff16f1f5883cfafb515076699d58e21e08
c9973b099f671ff250ae3b2284361fd355766e4fb6fcffbe6027f36c26e37683d832980f92c1c20e1e0febbfe88211073a974cbcecb5577cded71a3e517e2b63dda78c2f272d4fed5d055f2cace061527bf302841ff94b499e1a17ffa14696e8462021f3ce8f67b19a24a38c53c498a6eac95c6be7cc4e49e8c57488f7f8e5c5
2ab5a2060c4210b930c757da4c7070532a16819bb2e41973563f89b21becc38c19efd004b91c70299a8f7a06e9d3908ab2dd1b9a83ada8d033a84d34b6dccf63d8a822231b8c6f416f6225a177e845eccb2a5142c1f9b10371a9317b5bf9a1de823486bc48570e384160806ddff2e6d651f680fb1beabf4e32475a94e34fbe41
5e0c307bbbc3a8dde89f24d1197c1baa81e5d714c62b52a086ac2c5c49cf18984c678fc6e7500bf5ea2e44b21930ff26137c4591af96bd141fa0366f9198236735d04e30892848c91028f9e52a3f608b47df5526b3cf5e8b6909f2c4dcc34496fd8370d3953f21a7f7815ea2c70a4b37ba668dd225376b59b6b32e72a53d24e1
48f31fb9086516a13d1e06aea49aa7ddc8171960e99268c5a0a37bc88bc0611fe7c81b3fe6835ce1949299fae0c5375883f2f0c61be4aadf4757751de592bcf1c2c92a935cb574eba9434af73a6fcbb33360d1077c75e07ab19f8991280df575336706ea5c71486b31f9db21436ad3153af54ebb7c2d85c3a04e0eae6657659b
45ed46b940053f04939fbdab8d34a60ab6905811a0c73f88d33e2a1357ed5e9d6da443eef21e0d2234484090f2125e47b2547c773b4f3f5a9ebd75e548bef9a356ccdc023053a745ec9e8e3f2acd4ca8e188ea428ac4f9bce509a28b6ef1d3142d05213142022666c07d60042bcb8587838053a5e1109b8d58fab9ed3e3f0f57
665e11680c77a2470892324b789cfe0abe8805ba3e08f8d398ebadf1cddbcb2450ac34691ba4225556d339e93f12d5fa77e48bb8169a98f2608c23dfe45b267cb75bdb33a0fdb7df06ebe182335423be1acde8a08998017cd1e9f8708affe0308848ffc946f6e0f40f89e6b80df39485eb31bda4c701723012f60634345ba6b5
f0e5c36d12f16635c250829841155931a61bc0d8c27d0ac9445f1c0ff91c5e0a8bb7022c39e76fa8a349b94d7951cf6740ca7468fedd4463ed161a112a9996c93fc75ee40918ea924e4152ec759ca7d04ae93f78affe2a03071f677cc489eb0860282a4b2f56f0a12aec160015ddebaf3ed3b3b3e4ec40e6bc3f793276f8eda5
83392b7e77f931e70ab3b5465d2e431c8f38595f5be77b8de476d75c247b4614237b84ba0974f34025145044cf64725bf898f8a1b5531c32abfb5563fe768b04b5788eb1e3d8e54d7be446daa28a2fb109156931e2f960d6e7c54b86fab8031c8cc0613a710332e6e6b67896bd80c4a3e58e990afcc806525f925eef541cface
36e3f8d15ac2ab50ed563d75148cddbf3ee13531732bd736e980a6b71d7d3ce19c3d48c99ad77d8463a9ca934386287a6f8504d49348cc731d7178f8458802fe625dbf34c4e4d4cc9eff6cecc5059b49562f85338e4666074bdd9834a2f96cfdb878f92072bca299cb34f3cc8d3667da9cdfea76177c492fd5455e90a0456e2a
8621383f1b599a775261eeadb97a8e30872f03abd0b01172917415fc59869d6a0443448a7d1b345d5e9f3374e241f1e49cf5e053e26429b534c6a76800747da49d76db5da35a62321550a96513c3b717f9b1d7401f233770f996b710ffd2a792a65a362e03091be815461a7aee7e3b70dfcd0a2f38084275da5d448e528ca695
6ca4e3e50be7aeacd0fc5daf90c35b15fdfcf4e3e02c17327b768f03d877e687d25a847188038f0436a271641cf829ff53fad8f362e2a76e7166facf8e0c26814141f8a55e42c30706e76c9fd23f98ff5788bab19755bfe7a36da28c8b08b614c443b8295821aefe7397cfbed48e6718d8cbcdbc7bc1e528cb649242cf7720bc
a28cef0ea1d4090a5d65c6e217e5f92b8fea2fb76b20ca8d3b326be45ce9e504473618c3e63e5170ed4d3b104a7d5190ab810db634915dae2ec547705438dd1a94d49d099e3234bbf92ffd974a28eac071aaa52601494e7e6ab8a63fb403610d63b186ebea21ef3da08637e23d3a116e87be08c9ffec762899448577f322a30f
f994fa03666eee785c3786544fe4427abf110d445da7e78d3f5b664c88dc67541503066e91818a2e670f600dc7b786b97530f944e0bac908de027d9ffc4084b72a89288dd0a2892154890b8ce08b86e6229474017503b8fcc84d6327758d012d695cc5c1c65b06d8413e29146a0056a2fef4c4fa6101f5afd564ca471730929e
870143d889a7c887b611590ea70c58e3393127f1dc230604f9cd7c63ea300de179bec35700dbcfa19ede00523e23fba4d2e79e6ff87b846d37bfe067211213e29918ad476a6edc5dd61d1cc8b8dc93c2eac1446c3add13d1d6cec24375de03e02d3ef16d81f3045fdf9cea472c366d32fa43137ecd00d53bc06a7c4dd5b0f01c
4963d03b79e71dcbcf1c6bf5286a82e3fb6f0c52e9a12beb2ec008bd89992af3827df9b12a6ead2bc2a13cc5a3fb0dd5bbe3d8479a3dcf4a4049e81670539b036d4352db2d0e7de328cb4e142835b0fc21045b411a5e5cc86a0e31be3dae6fae27923b093f1a30bcf2c7e834d5f209f6fe8b3abaf1b9bff54a982915d33055d2
4972b7b6277c647669abbfe2c89e5549971a73064be5ea5cdad7fcd85d538b0f59f14904441c0dc4ab9694b9b80dcdc8fa15cee3ef911e01679e97a44a647022768594f542819553a68f80b006c254e7a4ec60fd187d87537b2989caac388fce12ebdf53e9829104f38a18051faaf8ed69f7aeac506da8ba50c9d919ad87a4cf
20c95f35f054a666ca7de49483941ae478eaedb13cfd4ad7eee2c5f179fb2328cfd8088eaa5a381c82a426b0fb67a0ccd3307c514e49b0c5a85c8f3a4fbe492405f8dd826e277a5fefb2bb34501759a8a771f936f7f3de904294933081cb786de104d08b2e3b2138b775e6b6db03bc21c119c66025fb0aea392e0e04116d5f9a
1f23df785d23c3cc8e93ecd34af25ea1d0e3024f89fd0e0c51ce62248772159b343483100f3bf20c38a84ddf1d9be7fbf4f1cb82431ca2d3dec48c65beff8263b1e18bf4a49e06c7b0544bcd1a6ec0d62154d4e58e02a61a99e1164fa5a45a64d6ab47a85d3d9cf3ee06e288a5328ce2006566e2e77b849e8c6127a6b7a08505
b20f5abef1c07bddf8ce2cb9a7c0bd1d8900170f393ec0eb7d3ad809e6b358aec58f085700c2199da84168ed5510132e8f721120cd3b5ffdbff94e68d79bc14928ef75451e9388a9edcdc6daa55a93fd7b68a9f0a462e9c1bf353aea14f3256e7b1207120b091e3c65bdb935e010f9cfaec1beb51e8e26562e86163304dd1c9a
939ac33bc50c477a62d5a6bd9b982f46e337031b96edadc69fd793903a45f7510685d472738b304c281a163824a8a9f34b7abe88fa0fbac0e60a37f77648543a4ee0c4b82ffd3880609f216c7ce1259196e4f5d066ecd1d1c82f47de14f5701efbbf88a10b1a564b57be39d5715a38ee1342dc8530401fe8520f3af24f93f0ed
ca8d1c7a7cc8cc12b4e50e5a72ce3ab7907c60f3bdd1a8345b78583699496cbe709a7d76a35a3294bf005eb141b728238e6b6c3e2ece6b96ee917e20a9573a1e4ab2e6425b9fbe2bf49dbfa2906c1fcdbdb54811d2de5a2025120c6fe208fc8de3ba61b8749474665200904a285c51b5db778becc784182b46451db00e21b8d2
8e83c2d80b36ec4e72b01c125efe21b547e14fc88b925e1969460a5b32256c809bc3b98faf1c4267e31ecf39eb9b9c15bdc0e4d3716342956fddaec12afa6a49aa182ce03b2e3b3e0de8895a02c6d472bddb0d1cee3a1b240e67e50b1e19be02f3484511d594d52c840994cae857b3fdc8025eb38a3957b0346f55b424033bc5
743d5e46ca8256a452f8b6684d458d48f55d7efa026faee2759cb4f4cdc9aef2ae1793ec1787cc0f7d542972bf880cb0e4c7e483f46d6d640bed10da9639858cbadd657c238c92735808d313e8e70a9c87e82c669ecf8b86de88b88bd43b7e52ffcf968392f0d67b368e4f99b424e0aeb2beef661b529df6fc17731955aae1cf
65ae500da3292fa7365b34f9f296687a31e387c9acbc73eef3b60b66d73362d6d2d63ba12d2933d605266445aafe5f4d30a1b263ad82ab3367a3015da9511ba48bc6f015f719d03aec35c1a3f7163a100b19a89a9de566f652c1c15bbbc624aa9f6905b1ef8e248d78ea399c4036068abdd2ccbc10b3d7e94d9039698f754f6e
28e0369ae1b493e0aa416440e22406741b9f46a66599dd367de983f12d061a3dfc8ca3441ee79bf1a00b1823df24560d228543d6cd55a001b8d9e6e51706ca126120cf17f34abcbb9570a8b05d52c7580a041ae8e991c27cb5cce1e2ef6583b6c76b550f71cf623567c0f2df5f266645626801e3f535a85749d6b4dfe3b138e2
53fb450b41fe5e8669b88ca05e6ba22c78ca0f4267be4db00d0392f4c5d05ed59db400cf13f53c1d9be341aa2290ad6192f68380c1487c53b674b72e006a129b844cc92959613d92d32d697640d55c22158fcc2e1066a301465cb12f7a5e6abef4ef16db2d9e17371f38116faf26f33217cd15731e79d879bba06765cb7c8e75
1c5b6c5a31aa1c36c9674304bd2f7e8327332d9254e089fe61abf8fa6ab889f3ecc8a281ca2c782074aa1bb845cebf640f7c6de902cf3584b6b1e561b81d63973a8cd9341f293e4c0ecdbd4cae1f5b1980954b38a2d8d20e7ad262e18812ae24cde8b696bae30fc47630505ad5e2fd47b4168aed1f179c632ad97529f6d1c952
d67b8cde844d9bfd8668d6946c2867f0126f977249cb518bc6521c34fe5d389ace44cef8386a775b6185a42d6be0f7ebcc1861398ac10710f47d885ce133374026b14de79af10cbffb689b68111930b6ed32aac998696d71d815a4bb56c1fbdbd26fc7abe65d147c8b7e563103ec54ad29c3be202ad38f5dfb3cce59515ba5e5
a90269db3ebc7109fdf67b8e14f872ad6bf751a98e27592a596ae99abb8b15731aa8ad3ae12b76a14a8a64e6170458eedf0d0a2be054ab1307d96a3a60f93210a05c6ea6cb9cdeff09726f04b2cc9805adc4ecebfc50cedcc117cd5c320e7000042c7c3058f75d61eccaaaa6e0edfdd4cdd04dcdff146016c3ecf8b175e6e50b
c2589853a6ca9c7ef3fb3e0e15216bd2f94f3c9c08149c1b9a909f671f816acc1c6d8cc638f44016f3309585b36a179ff56c864bc0d15c950a4f5f380e1d96852b733ad20f095a50450d81f5d7bcc981ce39dfd7e8e2b71524f58ccb5f289e25e056b6e61c7bd939ef1a86751073e8886b0126a05ec55b71554529545a4de2fa
1c121fec75f6053b15428c500b7bcec6e84200e9575d7b4b63bda1cc332fa24d27e0bc41631a8ab4fd5879df7dffcc814b221b6144567ba6670601c462f68aa4aee23a7d8d86797d35babf8656ab5a8903ed68b45c0e9fb0dd5d729cd69355352605df1adaba59f27cb3cd17f2fe21316343e3b46bb93254a6b37251619351e3
98523b2f396974c749c2b18e6a459fc90b0d0c72f7b927628aaee6b595c392d3bfbbc93d09309520912b1106b59a396013fa93d859ecaab8b14e9459a9fb6157d158bc384a42ebb529ef9ecbc5e54cb6edb2f2859e575573192cdaa586d7527d21337e6622e1d475aaedcc6ded90ad350dea857250a6ee6a8b5966e6c46859f3
33a9e6a2fb1a9fdd70f2149c29861575c110c7f64da4d6a61c57caffa65ba859f2c3d7532c8c0fd74a0c2d8456cf1fdd4a973b517e22923478ad40efc14a0c3406c7813d95939ebbc95eba733d372fa608fbf7de09e7d2773e6ed53f20792261c667a99189cc749128bd10eda59c1ce41fab529c14c73f0a1d5099a7fb4156c0
0d2db255cc96ac7bfc3e9a93569bca1c88b72d2d89c77900dca4f56782f36e8b8875ab391174b7c7f8995ffa0cf8a68e08aba1071e9b85384e888fdc30d6bdb2a2b9be325d85adcc5ce5b1f92a82ce2981c878c5bf334f3c6e546e27f7711b2b9c18e039cc53cee9506df1c3ca3586f1debfb91fd982a6ec8811124d8593cb2c
e777ab53ab22134dea4257e0d1f6b1664f19706268dd96f6f9a4d91322c7db22d0698b6c540e93eefc0b277a3399064cc22abf6e252a0d75770be4ed7206e3057c865114b8618ddc00edaaaa5013ceec81c18c927617005838fbd5899b9da04ee4ee0210ef54598d4a0d0c321cf262bdba171730d5a28f9a53aac46152b4ea82
32602f4419ffc66f314081c58a9424fabe563a9a137c2555be8b5e6393c0e7c52c0b5e2431cb84e7bba065795362f8c7a3a0b859ee9cb21b05f298e4662b7384de171fab17e7d707d661040f21875438139e8684b9ce4c70e7f3f936c1e4b41bf2a121a37e6a8c6b47534b4f883849fcf92118b77321dd364c3396cf80825ad1
111912671258ce90b131e55d20ffc52b1e4ef2e9ae3181920a48d2f4a04df4c712f7c51a5bdd04fa78db638cdaf0e901950896185ed1c30da258b773d98bbc10fe094e70f7be77fdd434fd0bdce74aaaea2cb6fc5e2694a6a9a28f79bb92860b8a77f12cc7ccf54f43dc135d7500dde1a3f305abf878fd6702bbb7c894949a57
d95a959cde67c30291cbca83d5f892dcba277397b4f8e818c2e78dc1cc6c436709af3458b7b4f58051259ef24f38ae6b2abcc9a57010ab46939ef87b2c637255e85e529f1f460d6d16752fdbc450059fb67c4d2f95d076d233332768eba3f7c8d7eebd85907d660110c6565ea0611943c55e6d5e126b42d8d899f121d2d05747
8bf24463c2fec1afdc80db94a9f2ca4afe9a9d056b34d799bffd681132af9753d90e830b201984c3b4a98865e7871f51c53d7d2c9c8a1464ad7cc84b2a9cc4caf89a33c2ea68a26af60a35aa468ac10071c573f4d4e1ff6f4a65eab8637262851258cb99a2a4854665ac33ffe2ba2cbecd006b62c47dc06da1453528672a64d7
47c2a10277ecd0e28588e746a9ec7e3c760196b645e0b0527a8be84b1a896af757021f5fc7810fdece6287c64663a5e7749fc6421c9f3fd5c016bdcd6599a38501dd94ca00d696a76f9f40d3523c985ba766690977bbf39c9d51b778d8b4ff2746b9ae96de596d15308127ebc8c03eb76008469d4fb9e9ab05e0721fb002bbc8
cd2459af7a1b6a31ede7b83762d154a95da43c7e956ef5c1f7dc495671115e90757d8fef37937769319b3e6704b65a2d3888fa35faa8aeaa5659182673c463f4801224995d00af82b3f028cd713e21a6a036ce38a8ef0ab253d72350ecba6d5fc07cd0ae85313d068a67698c31ab928e10bd923009c2426362a0acb72a7a5557
e0ec1d36f4cc1bfc92e2ea661b242681ae942d0e2a64c2a16b36fed3c56767a73afc83b00bb4173207303773aba29b8db85aaeed651197dcc2f000e7c03571b98055bdaf842d06e8d3f0a834404ee618995fecf933e7c16011eef31d9e610edc1df826117d94f3cf6dadc1afb43de8c1e80363c5ad92934da7c38f7465490b48
a24971a36cf3a6b263b095382fcc8a01e7518a7ee09b5e6014f4e6fc484131df2ed0535d73918726ff9b4c85dcb66d5b82f3d5b89185a92000cfeb887c1d038a13f14edc3c2fa00b915aef0316cc99ff4598236b3cdb4c9ea40da6c49cea14455e4808d9f05993a085d68e127e74bd2ff6bfe380d2519b45f2ca3906b7ec4000
1994342555a0d38aeb883fba63538af4de4907055b338473942718b072fa710d489eb4444be520293dd9ec442c6e83f52b07250dd81d7a1daf620267202c78896d8da3c10dd76bb0a684ed1e4cadf30e86bdd2c5e396f9004af80b1845f01e7de6359afdb88ab540cbb22886ec0c89b529be71280a0ebb0b8ddcf6b8249c109a
895850ea0455307596e79fd678aa1a17b61260f0f0c74844684ff11a223dec616914ffa74b5ddcbd34104ef461b31024d6d8b9aa737ac7c43c63d6ae14071da09cf7515a2c6ed4045529e3db9a7e581d879fe281bc8062fe31efd5efa0e05f1f648a5e5c6d9362a8f5297d59729dd28af60a9f53876ef258de8ccd7467f2a13b
2aa06374697c2fdbe2adc08437d76a95d881638607106c88b51e8772931fdf45b41fdfc6d2a01331e193147d1a685128109b9a0c5ff5c21bb08ddda5bc2b014a3227a46a3ea55de9e1a38b5729c6a7a6ef27d109a7f9fd74acbbb906ab81fc9b798be8ce0669f9e843e54da99a10d2c736ff49d8c14636246d68ee2d31d270b6
da9f333b1b2434634ed584d24402b7fe34090a80c904334f16f8d12e72bae837cd9938afe013e597b2e9088e83300463f6f79ca11349b86dc3bc37c05f20d524548d26c0676d45d870a34794eab77d1d1158e2b6d823b32e1dca59a4cf565cfa67644f4689bd55601971ce6fa99114bf2c694953476eb876cc802500fd8821c7
f0ecd2ab36b11e5bc4708f59fa82aff7112c211c709e6a4e52f5194ac900301d5b08a72eca414e2dc581537d984acdd757192b60784a3975ec6e421949fc7971a5fc2f924d2cb29401d990d228bf775b0b8c60f065f25254d30e745db101f4df79e4fff31172c91916dabd97e24faf9203961164e2e579241624c71ffe832455
0cd941383a5381bddeca13808eed7c12e49bb148772ed02134985678c183f455a593bd354e1c91a1fcb8124c3e8d504da8f88c760b35ed4992fb4ca4bbe873172455bc113eeaf49194c2f4fbd1158b5444ae594958686b40d99dc4a41a68c7051252948c656487b3e692bdbfa04a46d5d90da749bde05e8059a6b88684bef12d
6c3cc299d5f98d8d21a55edd5d5147e37530ba2b81b9dd621961631f7a3a483882b40f1a2bbce6f53e0194359119c92f188f8fe4e420d08f18549e83bdc96cf91b9ad8fc0eb43ffd4fa8405da46a72c881dcc1775210d305f150711c69e7170549c964cd15d6be1b03adc7c5fb1d42a8e0194355c1ad9b0c62f3c3f75b49135f
75d4d5cbb2889ebcdc696310062762a7f04f5970a9ca54de00ed209d4b01abb1589d54571ba5f213be419b7dfc887bef51fa72cdd831a555e34009e6f943471d28c8d7729ffd2b4aeee7c14b3910eefcdd7316ee81fc30d6b72cc740c3207aa44b9a0c23ef4e18b5e8aa73eea6a39493d19b1fb1aa2b3d7bfa61bcdc6e47221e
a5b90491fd3170bc82348ca927b0aaf57e5120d2b529631e8bc0324e76e8beb1b073214015e880f105adf7e538e967964dde85e6ea64c5cd900cfc11c7fa257c58a1735a6a1b2ea19f06241a59254c6c603e41cea359aa51bd29261d6d404a8872b88850f217ee79af34b9d2d38f195cce3639b788e13d6546339d8ab8e5d54f
f2ad5370e21bacff0df2ed72f3a2aac1776e9bf4cc5df93b5de2c8b6695d089af73aa7ac710612dbd2932a002f82cdf0f31f27ab4b2393fe74d776521a7859c5f31517da607bb814ede48bbccb7410e9119a308a322acb1d68716cd6de3d7ed683cd38768965a2a48a3c9075c8b139fb32a524410e0454677d8f39bc7d26d54f
9f23e65b53c6bed033af71d16411004210ab9675933a890ba6e26394ccc6b7ddb5a8ea1941f1d071cb2d0609ccc23859751fb6b7cab899fb7bb12ea8e933f35b5a3de0ec18abfaa4b68a024aa8abff49ec1fc92b23f77884abba5ef3c00ffbf1120ff476dccbfa11e79a97b36e63ee6952462d59925bab06e2a53a880e08ba5e
21593bf353949f540e6ed5bd54cd648ab12a5b9a97a172aca23861c617d4229d89dac72c11fb6a237e0d724cc18bca87cb38d4d34528a6486205a97a949c6b19e8d2b50000838a2a74f8ed23d8b9d9865d43384238160202438f02a88362ccf5dd1ff42a402af3cc6ad67367d70b0e6383f861f7329e5ad39e6a11092ac4d0dc
0ae1edc85f10027769165e67047975b3d5973ceaaa520fe006a45cea20be4cfe08655392f8dd3d25168388023944e503fa2cda5e87d9f0b91a5fd340df62ebc7d41040e0e3cdb0b44e852da5cf098fd2d3055e42242f1d284813c5342d1ecd2aef01c16a07e0e4c02240669156806a458584802f29713f547bb18b2b5921148e
78f6e8decf8270157071f9990d9fdbf2ef22089c26722795611651858d1c0d807c99d4872c794d609953220eab8fe617481934a581ced91591a69b25405f6e963c5f644943fff1cc3979484882135d671017c17d0cd1699290fa411516e78b38c3889ce6aedcb2e23a2cbca3775591e573112d0393b8f50975162d8b6a0d73df
73c5cbd6b4ae2b2fc6b9a5a2badfbbace817904d7001d015049a1b64b1b0679a04a968c0cddd7bdc0dd7ae54693fda304fd9605bb76376cb2bdd1951a61fc04f99ca02c1673690e23df244b7e3528f701474556243e5b357153a25033167f7efae3cde8115a9ad682e83fe5775d7499d747ab298e2e293d5d5c02839e6c15ca5
52b16f2c6fa3cb0894711dbfa7abacbd1c802d6b26fb37e433213ded0f72adbdb5d54406cff80b660a2cbbcacdb988b2413cf647ef7601ad2ec8c072f5622ec8166d11e122dab37a1c50423b21503422ae274f2d8f5ada05b79c6a21ee8ec0f20bff1c19ed6cca4ae41dd6c8eeab3fedccad6bcbc885d71208fa6aa9332bc489
c35ba75b8160bec7a53c94eb62f5eee821f3eef3400861f76d8daeadedd387805ead13b8b147063fed234cb6c2162a58f2e10c39fb81493892540dee348d8868d409d18d409e125b7c1dee23349713bbaa32c831002abf2af5e805ca544a647afdb3576611691490afc9f6d766a964056fee0ebf27fbf93a74d076048eb1db38
767385d4ce0bf93283278fefdec8872e8cceb2f5a52ac5cc8069ba29ddae46d21a6edc68b24a390a73b6ea69fe34154b123ee9daf628dd3137de192c2762ac9b521af0433b2c5a5d8fbc55a0b51ab20a76c950b648f639670642db3909d35579ffd4a44f422cfa9692d1aa8e8ab251bbbea535f4bff054c820636ceb7a5a0333
d2aafafafdab75c78a3318ba9d978c6712588eea55ad5c1b159bd117b05a6dbfd1e66a91e614ae16d9b721ecaa98a537fa53dcaec5c624f0b170eb077c0b4c07b6aa1e58f088a06e20e39468306e4f95445cb1999b992b57b264a62597386d2bb741fe90b764b5caeba93dca4534b9fbe9e097418eebddd84240a58efe3a99ae
c69c17a8c95919ca399392e8b069411d427ee8605508b8ed7e72a96d45b1418467eec41cfe0c468eb91ce2821a36ae0a40669af496d32ad539670a9af901b9578e6fb496a0578b907bd36ce276dd22188d0127684d26708331911580af55a03af5a344bd6e651e4cdfcb2da2126b6351d60f71cf359e5e01dd6287fb2120b46c
1843a9b00f40e11cf44a0930d0c1b796a5e39ea669c46508a2492abb66e6a73e62d1f65e6c0e19217da05098c22addf72a1651cec8eeeb2751dc6c7d0b9b58b0ad89e6e9241e8713ce3787d84f4ebba33b3d7058b4a1e6f0183bce3cb726d916b64a8369c5773199aa80394c5b20953c1052e8e71b998854ade1d18a5af71261
be4a2b06a6ef4cf04207dce4a8952811226e6e6fd4dbb973c9b6fe33bcd2535a11778e61f209ae51c570a2511cb8ec884e629b18f0f84160d770e0efa96cdbb8e564c58f551a175cce332140d703019e3d37086ac656266b747c86186d03dc78de77474e48db28b77ceef4b838354fd73646250481d53b51164e79d748e045d8
a4b0cb4cf06af042fa6396f29962abc11c6d4f4d64cf234537050f6d9af0ab0894a0682fc822b6b8b976da0321f1b6f3ac2fbdb961bc74eb2fa9f423113e56b9db17db03a27d4a8d6204a244d8941a58d89f44398eb96ee2ce349efc5c9762a2ef022893238a581d3ae1a1a2ea5f2777782be01a4f80eb54af949a54a65aefe0
e944faf99e154027fed2b8055af96ffc320924391405b845a29703ccc52236c87ec8554ddbacf401e59e760cabe643a7af6840d954d6767bd71eb3d36def0728bf95e975119d569c0284cae4b88344ff21831d1ece84f12b20e341e4accf71b475cba23c093740711f88c7f9df796836aea7a3880eda4b7b4f24d98234bd8fa6
c5490e4e5e863d21b3157b8bd86b6de4d33282baf11bf563f5143dbd01de1ae6c1da63718c706c69cf8ceb7a745a9c90d4e280997b74fda48aa997a7cf8bb8972672849ecf4a1f44dbbbb57a349856fdf60918aa2ec49b810b968b11a11240ac54eca9750b9f4485cd2ab1e72ccfd5d816d7ca37ae2df872b0ce90f1dae85de4
1c049c000aea7daf25f77c64e81e301ff83606fd3dd09a02dcf6e280775217b84a14e1f65eb604aa90df00836d09fa7500bc3596a09e58e350ba3f25f8ff48c5e7610b2b673893a5b60cb524399437d3691abf704f645de4f9558dad30e9aa39886cec79fa701e99ef251f2cb6504d97b8b9f93d1e7140d41e42470a1a68fee3
248f6b27800d58b2ef2fb9232a6d9c3e76ade5ff0182d0499d9763c3618e431c3227e7ace432a5c202c2f8fb0cd2de177b56d8d94ae54275aee4422c1fb77ddb0bde5b0b3b3e51b6def3dbfab0bcc893d95996005c3147a1d68fdb0829fac8e3b23938f5df35a4cc7953c8e615790bbdd7dbf69f394ee8ba5401a7817a50bb61
77ffc7d19bdb18ecee375da33a8ad15e76105be8589c202c4ba4a95fb3637c75b258f794aeee0843a1fdb1af6be1d54665eda652c82ec1c2df98fe5dcf8288f99088574561b93bdff0403ae4696f37c70edb2cc30343d0dc5bed8dcb7711dbe7853e519f71e045489601b0302a912be63641a93a866739454d4942ed74953244
74b91a97986153484e12462f6f91a5bd668481384783407de5999f02d93c145d59bcba26660f84ebf4cc3656e32db6d2666f32279a8a4538e5a596221f53d981c81cc5e2e6b1e375989569a5d0a7b088fa6e88b67ec6a3fd71e3931761cb5a592de99f19dc8b98a97a0796d46dd00299ee4112ad5e2af18dfaf44018f0f6b59c
ddb913608fc96ad2ca0aa3f06c2e56018e9b05a1e58c73a507394bdd0437438d4ae0be3371d909fbdb48398fb67b7b4949a152a4509752500d9b64be63fdc3b12deb4e643b9e0f45f35f2d17a437b360640194f611e939de1e2d7d7941dd145fb35e7a966d9e96eef9554f31e2f5ec1fc7063861d6b79cb1138eedbb0f4e210e
2752e1157166e22c3e7a6d5fbed066bae22e9e2bfb8e1b29b7400b181bc968005a0ca8e28f1aed24010395581d9b0b8409a100380f1b75a5499e979b66c2d31d4bbcee26cce738749336a0a0719165c185b27cea380a250f10495b787bfce281e5fdc8c9c2be7c6ba42402733eb2952fe6ba52cffd637ab7893519cdbd7a3f1c
89317ca601f307fe1181857ba4e4d41a34f101c0e493d38a1acb1ecdddfbe8a9238a6a814bae194f5a6f854d471d08625df851481a04e7d14122dc7efd30e751cf54128cdf178cd3f12708f9628764b575ee2f1c310eacb0320fd99b924232f929e12cd8d3b92551137a75b356b71b52c89a07fd5f40c322984a5c11aa09865e
fa7e215ffca3bae7314de8fb4f5fc39296c2320f2eb7ed6ef03bda892d6cd089060f4063fec1cb323fbca130c536b982f529af05b5b7180bbfa17e94e8d9143ab9c949cbb06eae1a5e26c05a35d84b18a9319af59b8be464cfa946d0a93b823a9a70addf019176e8d489867313473c0dd6ee1f4e9d51bfb46cfc678fd4d3aa5c
eb80d20fdb52e292b838298344acf52ea05a894f98c3b6cf1776053f14c315da69e2f32ca260a3126faf9e2a2b791f64e8ef33c8457771603cb9c532c16b55c27ca62c1a2c3f111e0d4e14ede30d9e5f1b5aff4ef313a21418284493231c4eefa9f5c5b7997a5673d2ebc718a2fa5fc2713ce4ec6bf0c562809d20cd28d45ceb
4c7b2281b6b0582936d4d9e13859379785e8c2dbd21b1d04b5b5491cd65fcf69a4f7a6be0b2ce5e15d961ea1c0c866c95bc5ad14c15837b634addba9ae7150b0127b30f929c14a2eaf841451bec2bb34da881baba868217b7c1a5c059962c751449a33e53d2023937b2f4e77096c16bd514806e86e37a7d8ef93207e5dff8305
c046625203767a67e6a027ee9dd46b062002835e6d7c693b8d668a92755e1fa1f924dc6b8316e0227d844c5b0a3d09e799bb1b6939f22a3d26c121ccc0c5f7e59e909b98e17a883da0c1dc16f689b65954677d228ab5e91c6e081af4d707c66fb44449dfbd535a4c0d9a325b879b14c100ee00a65381706c25bb5e498796e97d
57531b7328da2750657a030b973c2a7208a600f38b847a2a4c841fa4d791568a1dbe8b5a6a5b1ccc2418c4699b532979ef6b8d5099d337edf4ed5fa36a93a657d34e8641cb1db3ddc3c179c3d15261256658b5e640ee21890c2560814623f00b8156f12ee8d4ad58c3b9bf51f21d6d8e072a86a1d4c96fd40fb3bb51e2995716
6ef82b601eb423d716871e4e0e43794903e3681b013d25ae12939587d60ca7d9208b6a89505ca73869a775849c19abd663a7f1e329af2c081fe6081b97215f99ac7e837573d5dd6a3bb644963a29a4960226ae586eca6e898868a78c3f923377290155a2d5009d194c0c918a8ed9a812f52d518029078bd378422e4516ebdadd
641224c630368d9dd3dc65a46b5a52fb57ed1c0c2af9814cdc55e1dd3b2a30b3971c01c822c75a799ac70da227ed64493812d02f5733f709084ad7918e832a0dfdb6b976df5028a66929c7b921e5314ac373d36dbec87d5165d008bde713575b3d0c729bd2b48ae2fde1a2a2cefbe0358392a723c5e5c341e0455fbed00d7421
c65d0389a444f29911c182b74af7b1d422b52d483e6500648ecb904fde0fa75bf03208f5f21643c02acd0154bc305cc24fe469a432a965ec2b119268973b52d11ccc74788b3a14004ce458c798957448ebd0c473d67447e4bfd628ee0202d85581c402f768fa47d640f560903069e00a662c0fe13cae881f29d6968f1046cf79
bb91f6a9f123b178be39438a0a79c3a8281ae641a050e73e56f1a1d0261fd6ecadba4d68626bd89b303d6cdcb6ef7577273371ed0c33e7950cb5faf7600bd651de2b116d11f86d10c90d7409e5a1d48d196137b65ea7729a85110db6f1dc6ba9af4f3c66d8092ce2ead3384569aa34a384f24da1ff93e916c3409fb6b30b0130
2c07b50d706e168c1e09ab648f9e216221776748633319d1fb52c3cc25638d66c44b96bf3fa09f9d6687e2e0872ea91046dd7df23519a282150e316cfbef07b48b17f492e6d1f6ecaac99bdcc9e3cb618507cb98b68763bcad32ec9c581715d6af39571babecf1d88cd781bfcd776c0481237b781a53625a37fced344e38ee52
442e57059ee3d5efeae86e8e4edb41060b2904e29e2ea7cf8210375168f3b93eb062183f4f8f701f02ed871de45e45eddccf6c0d361881bfbbd1805df21d07ca2c483271c83d4bd53fb8cfb4827437f397e6d61576afa9d2cfac5bdca189247ce6cf1e78e65ac9e6c1072bb62c9e7aa2aa7bebf8137ae28f47d7ebe2f90b2781
7cfa04b672bd64755ecb17f0197895cff7663631a13737e444cab95a3d8c131f269c6bcd4935fdc0f6478ec97a67a166cbc0adcf34d397eea91b1a9a09f8f8406149131df7857a53986d6913b606c98a7cb343bf65fd479408c2be3feef4f928cbc7eb456ac2af3b83eafadc20ac6df143034dde96f7027b8c289413a000771f
74e1fc8e6fea9f1b99bb1d25f7c0fa7a195e3a8e26fdc72e01304f90c0cb50e2bd7ba22330e23c25807a1e7573718ed91a6578c97a4487ae93d2511a2d5e3957c0be4c0c18efe503d2dfb6f90839b22f6294c75fa7fdc7570b870f9b57378df87474fe72e3fedc5595aeaac015a4be65b4e53c284563d707276da3e3c8870365
00bfed79b681553cb886e20122586545b0d5302ba8dd95a3731e03f56bbc7bceaef0af1df0097eadbb91c4a987c506be9527f761a76d820101ab1670c506d48e1ed9cc6bb44a6ac0bc97c877359147e021e3f8f0695d9e810ea6b175c152ad73bc815726c3ca5d314a72f6f921702eb0f8e2e41ab7bb8cba35d35e079b1011f6
d112461abb1d4e67184da30136b778b263f18997ad25f5a1d204ea429af7077d895cea6da89d1778e16775984362799cb0d13e84b8997e5e52456e7349a550f6d44fccdc250b5c67738d819c2fcb5515df75714396dd2a1d886dd8938cd688927c0af1b6c44442ce4212bff063e09450167efd1fdf0d7c2314e358cad227f176
fa808d3146a7719dd1b0ef20221e808d5ed9579d0fe8f6e1f38f14a097d82df8fe41b353661a34999c05ac808611e41a565de2535e5dacadd2cc76dec861fd49d427dfd4118b570b47fbdc7da304effbd8254a56115af8d4aa32470f46799124978c47019957527ac8dfc9e10a01387c9ba63f4b43aa038bff6919b6453beb11
d37726e7798c2bcb860df030c854051ef50e1880b8a8f9dea4015696b8f5893e339ac7532df765dc0017b069473eb83f2b0003e253567bdbba8bfb1715dafbd20324564af5a4d494af153e531689f6628a8149daf047455ec672b0d34bd471d3a07bb7a05595c68d139eeaf5c1c62a3166a6d0bd9592647de8dd9583df175d01
25d1fa2f52bc470cdd8c11f8968400f6b5044f5b71d4bf267473b7a2be3499ba0fb19c5f36eb40b66dc352cadf581ecd7ecccee89f99bb836eea519bfe0e63ffa23117ac35a3b13fce13d51bea23ff2ce58a35b1284a342b06a77c883a31ed84b9ec8d4837c9fef41c803c34c0bbebb8546ef0451db3491b27e458998c21dfbf
9afe79ad224b664f310bc23b42e218e2fa669ec9e60efaaa22ff969f810235e0e91890f3363db5e43de90cff1f2d5ae708e43cb2625f4170e4543f95d5c392b6af0d46a616b116b78008d7b66528fa31af0f3d529f8ac57cb9f6738e26d4ba586b4a4b9bdc5ae0b974abf510b1119fe48324bb4014ebecd17bf22375283dbb46
55cc4b5b8d202a3fe8639ba676ad70d3910d001b7909b1ed203d7e4287d37b7d601c263d9a3e72c24a4c0cde982f099c045b547204813a8848ef2666b329ad9234e656adf922170c4c8df0dcdaa3b8464ecba578558d3ea1d29349431145feb5bb4936b6ee70a0b1b6da1d2295e634681de22e38e7791dd92846f781681854e0
3f5c42ba563a28e761abf2cd3355d42b65fcafee9405d8a730fd95dc64d5a0d3da3dee7c10250cabd2f9cb2ffb90ec5e97ff57c62a552eac0314f18d5b0432f0b3ba0521af2701e55b5c989c00b7a927455ff4a8cf13d0f2d6f7a37cdb04281304026bc4837bf765920568a56042d817524db4870a137e49a9e830b70769db25
acbcae6a45463ba85e52b7b164b8eaaf3341ea13f19e837ed11160e20e56c93a953f99912a130b68dd071b7e468a37167bf7aa3062d669c1e627b863ee0f6dbe5123d2a8ba22b2f5aac51b9f4deff22cf40c9a4d6c7cd3e6b4f70ded748fc285a383b579d64fc6c1591f3e0d20d873490c6d97ecd95534199f1ff15e0eb6e763
87d91e6233ed3eb0b83d8a6810d10068feb72d66175ffff358874216bbf6e4ddd22ba09ea6994d0b0b75fd7076f437391a6477cd963b97c906d6e0ccfc149790ef95c32a3fcfd1844784993260b2055a3ed9a2e8a74ed67b0f4fdc365da9930dc4ceb93911dfdfa6f050b48835f09c4142432b1a6c8078f9f760dc0e19bb32f0
634c3419bc2c7c35e869948225a12de65b51d7c4f89a9490ef3ca8d8b6ed2f82b3c8ab6e53cb7a220e2c9050b6d293e9d6dec38bd14d68a5c6e9b0fabd56af8c2864da359e3b4e823f500bfd24b9f4f164eca54aa9aab79bdbb4baca7e1a07767d4cd548d6059c4184549c8f3cfac0a789730685ea0b15a26caaf6f5aed38dca
5820744671e7aa610570667d9620bbd71d0d76c98b357343175d36822e6a45fce9c71b6f545e2751f2838c554b8ac7ce14fb642c0d310aa13b888870569927c5e2a35597a91dfbdccf6937b9697c15e5f48c3fbd2c1f3a97522ea5204fcef467dff60e4f732622dacfcd9e08f6eaf6d10b2b9522508b7b39c94699aa9fb666a3
257ef12e2d304786fb177003fbe0e8f4eddee6299a9b461b8e65dde8922cd1e211e4fc5286a878ef9a52d114951291310946ed7c1f54387d4d62763b0ee7c90f856a41398afcc357c57d90224a55b9bafb9e4ad32987423937fd6967a29e6947d4b06118353560a9f70e1a80e5a62a3d86cc4439236ce3bfc22ac64fd2bea8a2
6c185772f6ea1e8584065eca13c4c272cb81953705f145463784fd73406fb471b234796aaae39f251b8eb20084a435e364f4d0c344852a478fcb60ebfd8948714f6ed44cdebc4b38c1338ec5baa77912d349ebc8aa32232cea44b55eb3bccfbe643fb01888d57411256f37cb60555051c22586978a7879d1e4c2f010102d9366
8d40523c3aaa073787405c2c73d9795923f43e89afa60363ad4a571b73652d1fa9da66a38a90b64286aa665dfc87561b6c2dde59b8f31a391b9e311043ac2d82a498dab6c2a4b2d085dcb5b896a1ce3a4c9816ef3e505a1f170df566e9b211b148771aabdfa9f5acdb35158e84b603a358eeff99474e4b177d43579c445e8b8a
6b39ad67d5c6edcae1aca663cffef36ff92e4b9791f5334516f692103dda9c0f969e797c4d14afbc959fbe80ec1ab3717d98e7dae1ff8374a70d266b174b9a3fb2dad00b0dff1954eefe4ad9531293328d3ef9f354b1679693d02fcc6b0ef78ee7dba5ae5ea23da1c781e81623118b003563db83f51c556e81199fa99917757d
e451dc6fc79c3e44b0673e9e835d5f67073cdccc722646e9d1d3b690c1094f91b835f2b578cf56d618c9738177ba3d70938ecb1f1e5523adafae101442cbcf7b78bdf335a73d2c4ee79f5ed6cf8fa28220dd782650d056791a928f1b251917d9a31d38349e4cb82e2ffc4bddf1bb3a62bd3805d73a462ff8120481b325e809ce
a52aa91c66979262a77635d8f361d2a6dab4ebe77534e60660e050a0091d3a4f260ac3ce355e81bcb99ae44a485fcb5bb7ee747d90109dc83b83a3b167a4ee8bafc72db84c3685935a5fab87be7c565356212f5e5b9c3f940f915209f48332a48c4e79ad245cf6be4e6012e7a474d169cdb871beddea22580dfdf3c82eb38dff
6192d6d29704225851003ca4a554431678a6c3d60e1eeac1e6717cfcf90a31b442d0931127851e0bf3315022faaf135603dd4310c1d9b009830caf71612ff13eee92c9cf2c0365fabf66372356cc719e41806d6a81851dfa58e2a965d786b7526568a745912c6b66c736d952a04e51dfc904a5f3745cab5d965ed73710829beb
a2e460ab9aac1f057b0a5ecc8f990e88c6730e7775a2514d116e92684699f56625f4f2006ba4eda21a88c43b33638c844104d9fbfd1783169a1f0f60cfebf9db4f543505d31d2ae8af2377369910beb29a7605abde415829d0d5b1bd3a875fdac71f58626487fd2aa8ad967a93d3e3d256d3196d41ec05cd3afc458ed018be77
8446bfa3bb7e99644258c8e9addba626933919cd8b05afb39a4abb2c766e96ade72ef8c8a148ed4f0707fbb4ee5b976114ea106368522dae7ebdb499fe9f2e3424cab799049d72ff8b4d946051374bc1e0f4a127b109975369b8b14711e974f0f790507c96166b8c03d1a88f98a0d9fc0e43208ee89703737b8b186aa949db51
785073ce33b11d8e883e408eefd790175864525973c6eae5cc2b3f50da6865fecb5497e53d478a7323a086e03961488c58cd8529f6c8d4d72e4a19dd61ff51cd0c06d3458862c3e06a4b5303395d1d9bd2f4f9e3fa4016f9702c9396f69dfb26ae7396186d4681bf46d82f4426a4529a01ce9862e4a74675efb43d101624a82e
615768e7677053204880de715dbf49c255d998781dfba2238759a76dd62baecd8513397829a2905715ba039a3d68b76a0420ad808a42e98ad844add364a76d5f3b49bf75f1512a47d1a4c158da0b40a1641ad8d9ae9c6aeaec55cc365a355e642819dd2144b617e1e8619bcf9888a26f4b23a150a6be182d175c6374d1270ee7
4cd4a5e4c45f47351e2013c247185a9be0d3b8519468f24d850ad6c28b81c51b3584b4f700dc339b524a5e4a7c39888ec935a50bd56dc929325f45657d95a1760e02373787b439b0b0b92d622180d02ded5b0cd7e82cba202229e374bb9f9ee4a24d21abd0b943e873f1331a6b6317cdff3e4595f719f2cd9c9a0330dce50b79
96afbca251034ec7b751b5bc0c93cfe7e86504e2fa4aeb08cb1950ae4c7e9bfc28b02cca5f21ea9fb8be20f6759ca426b44e604890c0d1250d271083c06a209d657d9470787b8908e014f481797570041e993e64ef60b8d96ed02c1a9f5ee4db080f376f2cedfa001966492a74047dcb69c961def58e8e556c95b0b6d5779fc1
83222a49a14555c29251432b94968730355db41e84ac3f0cf5c32e9a16a6796aed32280aa60bf15a6bd836146ac675ef65f47afd42e9691a7dd17a5291bb14a1cd069b2020621c4c65313902b8cca6263654f9fc670013784b7727d03dc1cc71be21b8c800d0be41f3ca2b0c6523677997e554c9267a4c5b84dd9539e5216f47
9c0a4139b1f7158b4341d315c64c5dd826986b846713a3523a861b9db3765769d4dbd66578cc198b2bff3f41fab7d1acd1c34c7aec94ba5f80ba01990027933fa5109a6de65fc1086ab13bfbd08ac82d746833e62cefadb5ad187b32f4b2addcd383143dd97648850a08c6b42468f9abf0a36766df2e8148554bf3c711f4a236
408965c635bb7413628424bfbfefadd3dbcfab5678769c36c93d86d7040a6d011eceee9f665e99188c9c7a3ceb06521d2fe2509541ff5e5d10b3dfb017aa90fe1ede0f962a70162f657734a317feb1e5138c44e9f8e4fd587b8f5b07bf857df100851dda31033cf419586926e5821e9fa055a5a3997a20c394d9fc52c4fd10e0
5a98e089f1fee146ab11472edb92397eca022ac4014e81c603668ce8de8b9107c578cc13026836ec939a52088d313136ee50daedc1ee1d9a6567197e5bc12a76c1aebf01d9d3fb4ca5845d1f8ab8585387c55afe6ba39616a8853500a181cf55938176591c35d6a877822283b40be6cb1bd2a7b97795b4044dd020cf39c12937
4a2ed37909421bb5b4c2d72341d95ac92d149c06f3bf7620e01fcac199a5a739b944fecadfd6180d3cbabd6af8180a8e3959fa5882069208b2a13d5b3b8f50fcaddd2b8612708c8d36a3cb7409a4a8b4ddd1f685fbe36d6c9513791379cfdfd06617de07e97dc5c85723bcdc63e9ecef1f6cc3537c48caac241deec48cfa09a2
345d5869a39eb6a4ab9fba02efb605b5a04a0c3bd09f100b67c87b23584f3c3c9f13ae578ee902273e4dc0d134ff0bbbde781ff734fce5970b5badebea8c9ad644df29a0791dc56f1269335283806636bba01d57eef72f61eaacab45e9d16e12ea99b3fbeda380dd61d170396f328b9f054e0295d51e8a6ed3acc006bddcc9c8
31b75ac42cc64490ee71f6d8205960c69415cddf51baeea9b6d35da35b0e21868c9be4795b0ff9541278f3e5978ff4c0beb250f29c068aaf708366bce3c9e711c293a3e9818b1d62671357e62b14ea8d569205cfcb7ad0882a7db77c0c9df5e7df9c4132aa3b6d1d36e55de2f5d9ac30fd989f49dcedea976ca4b3f4f0e70af5
ed8705d4bf45797b0c0af009726c4948f7f4e73a65313a7028eac5f4edc556c67bb909e66a470f619300aecf24739f1a99cb3477ff2521ab764ce5ca12baef9d4bdb8be62b4dda6be6d96aca089f0a2658548c5e312eda8459b7861c1b03bb2918d2eb1b9fa39d473e958e7e8b76ecfdd8039d9076be01afd9394540eed71532
9feb0ff22702e37861093da95d502c695bbf49f0e731bf88c335382b143b2c1962d9ccd786be669294252fb47d3220ed335340861546497ed3f23c54c1f8711262281a79e3cf611e41d2a038468416f1cc06bed229b8e2ccf82d80c656235b57ff5a6b5c13686a25c13fcde973eddacbc059740147b71b3645732d742de47837
d57423924cffc26b6e870f53dd90a94c4b83b6be4e4aeabedddcb1ef1e911770be667e08276f366c3743c5855438a0f2b09df38d7ca2a2c739ef445d209dbe98b305d94c4ae568d672a733cee8edd75a57608e26956456d0025dc145dc25979c4bbda95846097656d665ad00086491c03b7eaa45b0505a9a2820a57e718a1489
cf8b65fa592e3d7d6b66c13a9be80222c52db6f01d28477aa0e6757b82a033221d7e758d26e9c22cc26ada8810f262a2f476c9077c355c83f1b6dc5a13ca958c091cca1e4951f264eeb2ce5e0d7c090609c88386d69a43ae0aabe251b4f492e71a833428921dc1bd8d6981ee8d2c5e86229aaa95e5f4ee85aa92094245972fa8
cf38cd90c7535a3cc781007b8d0ac32e2cc9289f9d8bb17c792c17c715004be376442133b6033e3a08250ae8c3d36050ce9293aa29c6c2197058bb383776c01ff8e08255fd84c48dc97911eb328c8df6782a483c3dcb6c7e0aa8926bae1852ea3249d5f26c2c90dba2e83dbe558c1b03a53a1e3d1720062b5cfd10e7033f1aa0
1b2a48578351d88634d9ba75cc8e9366f2e9fd6ecc220eef671c50863a9984236e37cc36326ff7051dbb618fb4546265f59095c72e05b1d2f742ca8a86f903c7e581cf09c2cc6982612ce24f4975fdea8a3e7e1c3ac1f978c82c34dfcce8e6625664777dbca517e89f5f81016399f3a4638968960ded723abf4e995f564b9d43
9f3b271f65925bab8351830a7c7e95ee988012e19912a0bc4e25440e48ed979484005c934e1d3afdcb55bcc1805079b20a3e6b4b90c44abe6ce525f07b6248a02d78dbfeeffa9296eaa57430fe2683e6a898b62a30d82e9e6ed020b81f8738807c0e2cc05b124d61e1441d7ca12533bcf0f21b9b3270db10f9a5616186b403dd
1e914eaf342ee39e78a7bb7113085735b60c7e0449ce9f32886040e3e62c64ead69b447ab530c7030520c38e5bc3395217d8945f60440a0011a44f1230187c97bc34a735978f245b7503fbaa38dd5699fdb6422333fe085bf853fca0fba291a5f8c4b1a3551da2a726a416ba0dd233b7645f77954dfc75dc47823aba743f9c83
11c45a6d2efb9a2a5a82c5ea7abc02298b62f416d8ff2ec1f75eca2ddaf78004b23e0dd4d07ade963c7630481b1fd01999bace7d9f820e63eac7c1f27df607c0609a7af83e09a768ba0e103089fd6f6409986d89bff5744d0cee20c71ef464adadce8e8e3616b5c19b4d131ed2c9eafce043a6b2621eb37404d0699130a221dd
cba60a27cce2b60f2f822db5da824109511633aa420f2709afc64f6010dc169a0159fb625b0dd40ae23f7d491a5c7d5cf648e7c3c5cd57a9e0ccb4bb7a9df4d3a82a592608e5f0541c8786b2f3b69d8fa91e7cfa0e1fde1dab340e1bf8c8319f5a7ddc5b5f94678aefb0489e5ade41dbf41dbd95fcdc6051c965e8c1d740f699
a6747547ddaf1b5b06634bd81b683ad80c38e4dec04b2bea4460d7ae41dddf4d36779371bb4f790527aa89cdca2c3cbbe4c6b76fad29b2e513e4bd4639672f86c5ad609cf8ddafa61b638ce89a90732b9aac592a4e2d4e2c9951643f02404ec7a1fefa89ca9ba263c9740cd5a4ded3940187998fa9c93c3fc018bb632f5d3566
c188c0d05b1175e882b9c1799e349d5e64995a47f937904b5e76fc0e5910a901e04277f6c5670008696097b254390da55156ef1d93499bdd42cad09bdc0a8402301e99634e259dafd21db8e2c518eef4097d9abc135c3c3de429b443200ec4a070300bbfe7fba7e496a44511c9a8931eae848f8d92b516d9a8f31bd55481e534
f373d763e1314aba159c5a3844a18783b88c029253618f1cc1f9f7e87942f2fcaf1c09cd4af4885d582bdc71a26b2142b03e054a25668714153f73eb9eb44d20135c94440aa1797a50c0f8e4939a11e0f8a7553b722cd86e74167d458b4137cedb57a46013d89eaae28b114013e5e802d3b42f9fa89ebcc84b3ebdd2a52b39be
fad73555772fe40f6db7e45022696e58d247dadbfdadd775925b814ba66197d1b02fa45b968868b65d9b2c37f1e08c55b43c93a92052ca41b88dc0622957cd3d4182e9454bcb6a2cce74c1c0c6bc89ddf5ecf4fd5b4a3538b6caba369b34eb3aca5767dc18dfc1a12ffbe1d3daf71e94191deb0c451684832e0286c36e6201fb
32999c0ad0325ef21e20c1cacdd1d3a9ca3c16ae744f3e1ca4218f5975c21bb4324d5c36bcaea57e93fe5ee4fd20bafaf59e30539983ddc6294839e1986f774570bc50c0dac2691f3ed0c411fe326415eaa8cd772e518730928532c54b2819b09fac79fefd5eb0d43d633622819e33e60b284ad8c55d146cb2dbba12f562484a
be6bb5221b61d9044b0f886acb53ed48e2d5e656927bb09a214f25c40c4a1f1c45099dee4038a4805d4417ae179d902164eac4f69e526705ae9d45f78d9e71b85a7068f9ac2a6ce0f018487a6f5481a760370b6cc4e09291e6def3321469ec38ea4c139a501dc717f1c9083ae8935a4cb05bdd4d982788e11954c5b76139ed7d
824580261f76db45f94b87dc23024c05e2ff9b0b56089cde68e28d4acd73e243981c5e52bcbc0a393d7d2bd972730cd22cbab59a86fe40dea3c11e99dc80b8011a1f0a9b6ee208f013bf8bfae5b724b60cf7047c217c735d01decdeb7bc84d78b34377c1fd62d4827df4c8b3cf7c8b4e8c2e286bd17259860c898b43284414c7
3562bd9dbf5ce105e401f0c417a909d026498d38045e75892072f0fb314dd1fcbd85d2aeeda02e8cf66902dc2edb5600416dc51e56bba80e823299c68efc03781664380668256f9f35e8139ec94ff863468d990ac7803ed35c202e2d163ccf25ed7a5d041091b86a2243b53814f35f9bdd1e2f565ce3cd8f35036546f6b84430
c0fd021def0e4f2cc3699e4bca9d208330f863e2708032351f4cf825dbd8c649e3da45e967421c5643f69f17aafaad5af5cfe97aff02a4d47259a901316c9dfb0fae3562b84c1402542a16f40ae7862bd5d2bb10764e65a2cf1cbd4303b0fab1d8184f603d253eacc5f241af0c9efe787b15373dc256ddd8f85828dda498457b
d8b2103cc96fb76bef467afe1c33dbae03af7c1956fa69b2583eda10cd4f1230ee66d987487406c611bfe79fd3fee7a6cc326fc577b28fdffd1c5e24108590c4008ad766f368cb3ebe46f313ed8216833a50c1cafc9fd483b97728d1229c608fcc1dd4f5af6d8b70c8c3417aef804b3aac74055ce7acc19848c6549f25df79cd
126c3ec1074f6fae3e456271e9e17eb682d2e43eccdffc078358290d70f93eef58da576ffd140c2e12f6689a924e058ebbf232945d898050bc492af68a4c1c307d85dafee5469a15408dd471302918ee8bee8f69c01c31a73f44efe8e43f46411101e31122fd5cb4073c9a0242acb2843e22e9669e635a769b6e197479b0b6c0
5b9a487d10234721bc0d4c4cce95e39c300a526c9848b2fda3c04e90a1071faf25764189796acb26d3d415aaedb38a97cd7254d6cae10457dcc6db836aebe94e0dfabfdd4b5cc6837dc1f7ef577e9da2dd6e82ff407bb26f9825cf97d3c329506594e135e9f9ee4e961fad070609afabe2a5cdf1be4bb993f23a1ed66557fca1
5b6fdde4adc8b11d605f156fa259bbe1d3839953f8c2da9898598f3e1a97ede44a4912866f87a485efb0cfb6a1f6b1eb766552d9777bee96bfd95a6a40283122d5af0a3773e7f2594dece7226943fd53474c2d88a4cf043686c5b9d32b9f5a3a776a2385763a90b427c012229df84811b9c7a528cbe21feb841a2f22eadcf14b
154670184e60901def70f021f024fd9cabd4202529332137e9d35c3e686ab339bde169c7780a6d82915fdf78d8be7442a58981c0ad7781335cb0f86a5620fee8ad9ea6619256c89e3ff6654a1d00d8f61dba88c9a4341f858f83161e86f78194a62698740219d048f322c85c876d001a86b619fc528dfab64e1f2e24af8ffce9
addffa05c82c26673b553d901bb6b484a88ceb2543d23259fb75d830cf1e71a92cf56ccdbe35ea9fead2cf6b4e9daebf8e739003545360f9f1baeab944a4bf52288efeb976ea04b4a3b51333c27879291c4c002b30bbcc18f31a557d216e5886b59db0a5072a9cb6e767cd69ee9957714ac6efbd044c69f3aa88d1f10047de4b
58260aa45b4a7a3abd0a5b97c6a2879e543227bf6a1d7916d142609b0b1d7426cca468710c3e0fb201c7bf6838504fd578898b6aa4605ae8d41540a0cbe907e3c2620ed6bb23050c73dff860677704f7489792a9be099a5f74d55a4d0ff5a499ca9c1fa42bd801aa460df7bbb34f83799c09a130ddac1261d6dd187d03a36447
fc788d69dda093d11964b43565b600d39d9ee8d18f204b6f8b0078984503e2c14efb19287dd1996a14599b8fce8d39fe42cbf80d03e0e625973cf0af8c8f41b2d819467a9c3d500e5199a17685b86d4d5369d7e9a5e7e3ad968fe103a3b36b52d22c04ec667a1bb3138f9ab1b7db378a53625c495072e588d9b7c91e79ff82f6
593947f22b0a64c6f6dad61d2e01311412ed46d10d5af624faf51e0c1fe2959b32d2549b1079ef7e073508f7ef20e4625f81010a2296bb90f7e77225d3829b6c02097647a57162fce51ad399f0d114eeb3d4bd2852c1d418d34b39f50c6770ea39dec8849737538d04f469816113a9c18d62e3d534fa88fd55950c00d941679d
a61826d33e738cb9c1d740d8123bfef7cfa3aaf316a757c082768c3456788616c88f826547fdc5d4e3ff6336dc538411f7e9802a5e6d936e1cd4a2eb6849239268e435218323e9a244f3ff330f61034a9ef88ef58a279be48dd76d54bdcc94f522475b96a81bbce136f9a6cc47bce9ccb39201b0fb0528b23558ae28c7717d56
6032193183b40e4b492e44ae9b69c5cdb4a15d765e03d8fa5e97cd99a69039b547965d62f42e9d53822ba3325cf9e6b3264e40d33d0cc740b353821c1aefa5b001e55703582cff278d1ef1a5b74ea5a73cda12509aa43f0f22553e6aabbd3e2606d9d282e7289fb4ddf5d153fb28b8d146f1f3e8cbf1dac241a8f47ecda1c084
12b8058da4ca2cb214de02a7c7b4b54d7c71137d8f7bf1eb359ad47938732654056a32ae02f8f97e6c05ff40389376af76341a6807b0a5271cf4d446a4d6070ae673de008c783253c8b225dc0960e236004eea2c0823516a88e9c273f2c172dbb67c9ffe9eb4586ac964e68ffcf11383ea6065843d3eac78795095ac922157c4
d20dee01b120d64ee5b49176bb029008ae65f90a1113f2b2f0c8209d5f57a5614191956a5f3dd9b9799b9ed8788169ff7038140b483b69b5060de0a2c9a8c7a3f337520a7b2df4fda84f6ff5c6f0c38679a43c8cb636a229f2a1b075c58cc1de8d8cefd0c83931e22045f38d6a55f13cc952ed5a8e24599c19e68004a8b59f1d
582f496fcd11122ba310dd1c126747cab5198c907c61686a8d0cbfdb5cfde041bc20a89a6338cb4db594dd08706be29d4a5f48918e47d996b596bc55c153c74815229aa12fe4bc445d47bf67188b7a3c5672262d631160d902b12badff1f980603749f301e22330fde3fc4d72c1d6c3915e2b882e0fa08bcc9101382be61656c
6e3715c5645578035bcd3a617edb00c6bb2861afe98e6bbe3a947069a2215ce588500c46e0c53ac89282bd4d614e9c8de11877bc2160b7c2fe32fa89a7618564972b4fe4f0684e5e093483f4c58a5cd4735ff77ef4ece57b745407a427ec6167cbe97709f320da2947bab005ed1ae2cb909cb2df096a36934126f95359df2dcf
2010c023b6774840eefaa685b4e8ff0c8ea0915df419b77c1a2d0b7466d19a7dd1f7d3549995d5f18c1751e4229b6d6292b579b0b2a77e17ced9696eb863c5106d53b0875bd9e4f76b3be5bd2517ce739dc5eacfabef5b029e90805dd3f25a6a1819e477ce4afc2fa2cbfa636c74cf4de10507acecd817705116cbbdf8c9b249
d4229139bd96288645bf63e06b5aded567261762f578d14a77e9e8e4da1c2d4d93188bb9e1a8ef732c8d09e5ea525efb02f0d2f154aeeb3a3d341230adcf522a59538b9b2ca0110195ef89095f198263f3c5c515797097c9459c266ce98d8e2a1f0aa9f369a270dd9ef122c52b53ef0cff7515a5304480c04eccedb29ae1b447
8eeeae588b0e89e7db6fbcae55c11e2b788a68e02178e02900b56885c1ee4e735b8e0f2538be43853aa576af9bf1a689fa991ce9a5c8ab00e0efb484161f52dbaecb84b84118bbeabf5915da35938edc315f310ddab029fc749247091b71bcb3da28739f05899b8db7a169e2d4b0502ad868d83e065b37ca04e34d90bfcffe64
a324a0f8e8c6d16559bf63497669582342daed7933dbd69311d0f72bba75e679d58e914cb1eebbd472f27297714b36f7c82a9ef2a0e8f65add36813aba165b48d8ebc108b578f8c8544b269ce27a52d6e1b4ed63ad1fe196ff5ad2bbc4a13811b4784cf881d1ae6be00c43385cb7e934a7f0575368d9be74cbce12909495bf37
5920faa91f1cf3c9a105617d6724d05a35e65f1b4ac6db3adb8dbeacb8e530074f55a79b5feaabc72b5314cc6d9aea2c9d866eedb8355325ac2407152ebe4eefeea5087e20e5bb8383a44a969116302a4acc69ba8e870fdf3aa5b913b8ba937dc5062309293f2f64337a0d7a63d782ffb65c118bcbf8b4be4d46ccfef8d0997e
9f9a3c578e11fc0710efb4770c6251333de0f03ef6ff51f4badeaf9989f5347aa0981cce3b859eec91690ef331a409ae88c221ed8da95aac9282d64ad54f9ff68a5ba3c7f5d1773ba257105178065f965f9a6b5b71258428166d9ed6d82e87b87bedae1ed4b9b9f987bb098f8a4da8741dfe3c0bd9f934c18352591180edf6ee
834ef3c3f56be03c6b35dcf7bae916fd7d5bbad739e6ae285bb79f29c0095db17e6b86090d428a4d0640bcfc1fad819d07f37840b0d9350f540c9cbab0af54b0f4b1bc9319f45863e7d27bf05bbb493968a9707a8c802cf3a67d1e0ba7d99d8dd62ffbb74a6cd9af51dc30b66edfd73e3354905aebaa5e1bb265d493fcb1ed8c
c08a44ad2964eed3c298b5f3c37df4b2ba0a502d12d3980549fa474c85e26ba94e46b602bb5b16298964612e1fc311f32e996bc84f533e5481b89c78b20362d20e2d7374004563ce67c89a42cc22602b71015518ee0f5fc4115f266da8cd18f1ed6514466379b9a92cc2198774c39a7a522f796f35726c9e606c2c36a2ce94db
63ad36a45febd29dbb6c54a756805b67fc7d8def1c5197483fb1ec2d20acfd613c500e756ee9ec8369866cd3d1c18a67d19636c2376b2b1ee396e2b180a848fbf4e8da3b578fcbfde2c550342e8158d0d17a84c1729ed2f381fafa4cd62e6a6b369feb7ef0d9fc016d6acf28e14863468563448a4dc68ec3ed50a789b36b9c79
b173cf2447e957a3b4019210c6509d5d3b0982f10e76a7599cc283c28497c8604c548e240ac1461572626c1d4968006018b33ed0d58c798c9b9bf06bb28228ad5a7aa49dcf493996fd80ac5ca34af3592ba5767b69ed0d578f057551a96e6842c49ef919c8c20967cb13e4efe38d20a1a74a99187ab3f61a76cc0ff975584bea
3e78ac2aaed9fb843e5f11c071913be00a2324977bf77b9ae5323cadfd1b877be4efb44bd4f3d9bdd47db760d786e7ea4126e0a20fda1078d4e9b13b65598721bb56e5957304d311a33ffdd6fe1c2d2255af286a21e79ba78ab636c722387621ff164c8cfb8e079f2c9f7ea8b35e53ffbad6c21f75146c826c86bca6c5d844ca
b22f548db0cb51dd208840d2ec0c806c834cab5990795124321f15d855df6cdd49f0c396378437f6e74f2fd802537dc07908105552375e29a64b5c05e41d6573355bd9ba88b24e8dc31d584c4c6eccf2300366a8ba52e0883efc34db97505eafc6028ce4ea3224eedc3c0e9a01c4f2f5782c74a1271810e377c156c5482e08c6
df105bef9ace570360c68f2bc0a3141b56f58e9d440f2f41b480a7238913f011ca7748e3cdfa3678bb3443ee84c9b4d494617a2194cd41afb0b8762b53b5d12b503749b12fd18186d38302dbe4da550f3f193ee4dd961ccbb1f2860f26baf8e7525a37d89d13bcacdfec5fc6110fc201b33b42340fc7ee289c69119c2599ea81
20f110733d0e60d847e1b5074891d5d922bf4dd3f6c8163afa61d1e89a1705aeaf0eda2e4f6e5fd96cf72ad51350c4f300ab62a2c28ea5045e22650287dad68f9b2010043c9f2cd0002408c02eeb4b8a3016e9aed6d0f84907036aa42e9ac695c2e25cdb1c997da0278c321101dd61e37d7e7de4abb07b7e0c84d6e67cda9a48
f148933b463f808efaf23a64a403075505935b1e04c62a33545857ca591719752427854cd1e14a59b2380b9980035e804d5f52163d7d5f4c4129094b97ec3668c02aa9c86a5e8e904d23ace21d4f5c8aa82efe0d56e7fcc63724eda89866f2a4024f236f710c7226bb667d8fa41715a7591c68c69f2babdc4b745d2308bff957
7380771fc6f559f1bbca8699c05983b6bce8925c038301640a88b6950b7e0410cd729d8cb4c3c8ad48c586e7fed37165c22424df7deeef966b9b8eefcb71133a3e3535d6f5d58b1dc2f80bb7a0dc64e71707393e7c343d9d22f098df382a2203705ae34fdf15930eacb1f61da6e57cb24b08da29c5fedbdc783d738fdf1d5a6a
2dfc952b94a3adc742a000d6d3c1bfb9cfa7bbc71534806efca6b49eb876ab164986fb3c4e61bd5e1a391f7b8968b4fb63aead0553b722f7cc7d676c37c126858eeeba3447003879bfb3ec0fd1908f1a5aa93c30c4d48a7d2e78e9245c65c5fa3ef020f0cfe0cc6ee9326da9fc77701b2b0463cf5dd1d2a0efde1524952982c6
792b9fc9d9b7c6ea65998e9c81a45fbafa6a109cdf83d538b62850c772cd0e78db186f995db8722b360ad3f2e5efbcfce13ead28c37d58c28fb432a4e57280f7f2dce4ecca493723b4329236aa8a9783c550120599b1f2636d626af35570912127c7cc9a63ef74bed21cf6baa2580fd61a4e61c699196f2f4c3e3635fcad08b7
75b0cddfad196d8937c25293052de9117477d313cf0fa1a94c5b31fe110dac6db3aee4b785ed351e67d9540946e69fc69dbb8617fb9bed093ffbeea3611567b8f680bc73ec9601823feda03b627173c715996e185a241c40ea64008a5a7485360c57bb0aba673bfafeedd36015a2ad2a2ff15eca4a6526cc589d08d0781f9cc0
9f9a07a259056627c13b22eee0f36bc1bbc3ec1fae95948e9938680042362bebfe9a3346d67559a2940d855b0e1a01638a61175629a1fc4227658b2dff4986c269f1da2e093bdcf8e6adb2c867fcb5a91fc6313691c48e6d8df4a5a95be8542ea4714a52d65af38ffb98cac363130e5a5948be8d52e514fbd780e4d60741d47e
303f052adf1cf94ad22ed47ddcc57bb18e4b9a26e89c2142f2eb3bb54ed87b55c1d9c779077c80c9eb351d19a48fb651be314198b7f20851e0f9b64917c57dc63474d8886b40dc642ce3190aca461f611a3c50f6ae830473427e748225b569649ff2420a01aeea194217293b48ede7fe5e54131c6f2bcf0c47537b14f7beb828
e3b2f9ac31c9aea9795030f12b2d0b4b6da4d7ac20082691df3a83529f61f94acb091c409aa7542ff28db8f22b14801f9052c949bb4a8fb9f0be4155deed5aab15e64a609e8fa3a5b381909cff96de03e6b407f3be97ee8d2627cd6b5185f6b622e6c9e7ad94aebab5bc23b58f64472bf105da6b0e262fc889ffb44b333ed17a
f8048bb688048587c1ae5610e99f3c4b820895896656aef3654518fa263c93e4cad3d2b2089cc8a0ff327cb0b320b7bfd0d284b7b92f6603a1c3b22a1ad726e8cf62f8c32a5cff5b06ab9fc4640411b14a43cba9d402160d3f72729782b5e25f271e41b81f8dd1845f9d6cbe8bea938ea67a8f3420eaa2f4882fdeb19c63cfd1
30a35a499f9dac1d58a173297d51bfeb0e33de73303867ada2931dcd0e1566fba861ad4e36b3b9480c764747cf61ccd1ce5a6686d18e221d9bc606fedce7ba6aeea6fac1b389cbd7fbfae73fb49d60712954f396108916a3505fe517dc79a43b80f863fa285d3fad94e368aed228b527b88292b5c0b2ff6fd31757097343017a
767636fa5739e94b4406ef34dc59d8c44a457536697799439e44afb668297a5aa4061d48d99824e821dd82e8342ef39dfee72fbf1cea85a16b1aaf831bbb6b348f8f29158216a83c78b1d52b3fa0e04a7b841a6d8c604cee228dfd88974ae85ee559fc1aa36966fc15feb5ed56183750daddceab7ee31085bfb9f09c38ba599c
c39c66e217d3c067f2c2a135b836ddba67c806298d030453eb01becdd74ac2e42abc41b2cead794e44d5ba35be385629cdaf18b27a2078497ab4bfc86cc763decf9626deb34a206eb6a94b4e57999631b9c244134c69b06d7d3b51231e4ed4a93916d64a713b4a6920d98e1ca4895fc19ec4ff576f5dee6eae2361aab47bf830
cc8b9930bbedefc16250cebdb7f429aaae3cfe4e85c41eb8716b4b118e0528bb0f8fab222f457dec21f9bef1322763e70fef792d4da2b0b8c6dfe706be26763e45029259d2aba0add99dae6a076c6361bcfbe35dbd51550a89570cf5a2b3332e13520e24a19cf13c6873ff0add8638fdf6d9d05957b11050a881785d38d12a8b
768dfb70397b7b271203fc8724ec31ec15e1f5105c85a597a8342dbbd7982a1f4f421ec425112246c96661cbd2f8a73f82dbeb054ec2cf10eebfb348fc8f271737074bb1b480eae6af729bdbedbd22effbf3ca87565fcdfd5cf77a2551d29371cda5327655d52c9dfeb5703255d40dcd37c1bcc31d4517961b9dae78fda09ba4
90eeec1e847c3b0c3ff91f7d6dae3f3695f840f2e5f282b5a3d752b4fe50bb3357860a17f76c28c61523aaa10c95aba44cf974db6d204175e31b6a1ec18ce0a5be774db467dcb010915f6b62892f1b982fe06b558b5c776aebc078c7f72bdc44c7c2d98ff0b1cee20916835f072e6fc75d7e7d432adc8ed6895686caa8f459a9
9555620fb518dd11e2b25548d5252bb618a4988e04bf049279129a93e890155cc6075375b7314507c4e377f13c2d191f154c111f00234186c20050dc0907bcdf4629ba7402cba0f0d31ca9a45a515ca03c941ca2e9ab0df28d5c3e8878583fbe4bb59bd0702b4777b6b3f4f0e02976bf33dcafc30e1bd7031d5d6f0b8a8594f6
031d2922b30bcbf31a5058481d51d94243eb36751834c5a81587bd0aff6a11c6502c6f1cf8773fe83152f35e59074218235adc978c35e582bff6cc7d77eb83a0411652920da47e50dfac9feb1e87a2c704863c85991bc0b2bf83c4b1ff311c470d853cb0e6662314b33c4c43fba746f16dd320db3b3d731936a1eb78cc79e45e
3dbb82a4f292486fc4068ce8ace873ab480399c9e54c1e22a47952f2553fd24f3b967d14f8705e46be8daf385a94f2625c2cb4f708a9fa30fe074c682ba1a820c344597748fc0a111737633027f0c9b3e0fc2349e370ed3d60c094959708179a37fe1b628540eef58df0d33b796c7223c5e1322526181ec0df19d533481b0cec
c9f6775f81f3cdb9bc872e689452403e3333199929176b3c80b9df4b5b586b0f126328453371c6f391dee9818121a9521fe4fad54cb17a2d18fe0d84eee2194e24dea7cdb61386fa0bf5afa9fc2a4e4fd64f39aca4c6d2f8b3925fb105430572882787b92ac5b5955260a8a3c0857ece84169d9d1747cd244b2224a10dba06e7
05678b4d80e287c2cbb2569fdfca2b91ca82cea43da64ad67c5275f303aad36f9ec2e3d21870d7d003e32f3048f7056a8ab1d74838542824b5d8ddad079c6486db351945a2d0556ddf94b7948e35b9002cc7baf0cd077d8910011ac23d4434d6d49450609c53d929276adeeba37dd95701a64abf43636605246c5d0009d23b58
1306be165ebdd10f8ef50fd50ad287421c0590cfab345619e9c1039031324fef69f449f31b4f0a8704dca1e906882ee4365daece89f438e5969300c0cfd60412d6a63d5aaf550672204ce9aac1a1c4880034b75f26ac752ce7108cbdf0044283b8bdd4cf2499dc991a11588625eef9dd9e7df89d46a620426e562e912332ba61
64c3717117a9025ae548f7788ca968f742f0d736ed49c401130478411b4d913e2b57ca6b1076d1b3e9c9b9d823f52802bbb31e441b8d845bc10183b5f07cdf158c7d63eb0e46d07715e894ba9b3a233ee2a67a0b7de0e86b9311b5d122ed925fd98b311407b1ede9e1505299967013567b643e0d007cdce1214a73b0e6d7f5a0
a8375b6816b09c1e15f83d3c70091d27c751f035dcf807b3ca1f4ddbc5141583407719ca3d7b70acbce992b3bfa59786c7c06853eaa065a1e1f0c14a05ec62ee1aa87b6f0611bf247b00ea103679bb1306c082f3704c8d706c5500e33c66aab86becc47b0921cd61d702f77adf3f7103bff2968369921c7b1da06f50f42de146
2d3f455b7d5fa75dd635e819c55fbb4433466716dd888e6f415bba7dc879b1f49bb09d1f5da50fa88529244bec87f535d9b620f68c908cf68ec51ee68a66ba4f76f420f031ae6f9fd083ced9ef5a9d9db0676da8b0a488a83cfd1c48a9fd23a2036c43cd21e6a35c2bab08ae8b13c835ddfe0ae2a394113892c72d9c6c3765ce
f29c6bae51499aa81299311436c04e24aebf464418e768b4018f42869130c061b46d1a3157979506d444cc1cf9c70155115eaa71eb7de00f1afb383d41e6c630591946766d5eed707506facf823aad253bb83a7b555b44f355b782da12b2cabd2ca07872e0e5df721ae9c52b71ba7eba88f7c03e29c442b93e2ad25f2f483c07
95e2c8a525463b88d4a14864875a90e627857244ed79922c23d21c4e43452646e23d132365c3060319ef589e9df28d3632437b8fb979d5aa0978321e5fe9a621f233dd1ca00880aa6189ec21890f0755b0e71a08a969c120ecc87161b4843a248b0e6c72150040897bb85e3d372ccd01d749481f1e4dd988555f442e7891f8f8
b424c66f4cc67767f7db8131b39a784b14db6fcd9e2db871948ed85872b8b65e1748a455e208ae645d5c966a6d3e0aadee6965916c5debfe8e3af37b301aca8d895e0572b6d0b491d70af3932049880e02913466d1d2aad47b8eee462b3254b0fa5d63397516c7794086fa6759cd0125774b8dfef0dfc44fcb687e650e32778d
9a0d9ce1bb29e4e6e1dc2a38463de6f3da3e93b1ccebe3af2435d57abbc61ce6cf0347f53be9dce4e7bbb9229845886273d83cd5aabbee153bc09e4755c5a07b7784f47516c90e17fd2f0e392b281ce3028f8e50b00be49dd2bd69ac2885e05f4e15845061e52771d12e32f57cdbbadcb23b453981d2fdc27e8eebf253238409
deb1f75b69721a78a395352f8342426d05e4464257b1880f155b9ed8406439ff7aec708953516194b363da0b3d5d4b8670f0d928bbd76c0cd712e0041b676ecf16701c6c9c4f9ee46efa4257840b60150e7a598e4a016ebf7765698ccdc9dd1ba0af94bf5255e774ef88d606f39aa98bcc14dc75e0a0fe09aa4c566debcef9ad
8b2bc66d81d9e203191fab15be484c3d4d1f3ccb660a429088f6f294da8ab7344016bccd9b95f8c367e795ae5bc1d21133b436e29eb25dc126ca6f009c8fb7f9f03e9a64bff574e58ab0804cb6263a1461ee093ba2e8c55dfaed9b30aa4b8654af4a017ef91af9a9cec065b1dfd520f84319a5a35f613da8de3db694845cf4a5
b213abf3a7abcf0923ca2b617e0222ca5a0d731e63d2084213b31fd97edf4ceb2e8fa7f7f9698685715a13f6c28055a5d2350ae3381cf5edc41b80477884e749dd01a11ada44c680306687046629acc3c666d089553049bd41910898d4635337f849894d180a4f97e3b33a32766754ae25a8782925552a0d2ab3bef335f79982
bab32f758d7cf4159befc3229f040bd7722e3c2716382341d0577e2817f831c1523b5e8df116898723ace997f34b3dd6cbb84e35d11d4f82b578a365fb23584c1b5982d328e658e12965591955302e3d10f3766f4f6f32a164287247b8504a8f0dc7bb4ccc34dd519af7fe321b6556ad644045b15fefe55b5c7623595a7ac614
c477d54897927cd892a09d9dde38ebac92666f116729ba33776763fcabfd0f8b94575a9d164c7804189086b93c414b37f60c5c4529b6c97bf14c6b9d7b1b2d98a591b0e44dbe9a83081248ce842914c485a9a68da64a53dcca2a8aaf3843a657f47b3d1c09e74a465a77257d6dde5f9393aa9c4f813f41dac3ae3e6b37150541
01118089d963e5b83cb51f63b107baa1180dc500d7d0589791ab329c0b69048b8f7a23a698299de087284e924919c556d622de554ebd33396b6a17fc6c69aa626609a6eaad6f44708327646973cdda151377eba19ada31d98615fcadd4c7d61793570ad5368fad336f323874ca639788ec9ae656b2021bffcc0b0df3ceadaf1b
0f7a44970dd094dfdd795e1797c41972bed5f765939a084c97e9146a00aeeee545b6cebbad07878821ebc70da2e08f81b56e46fb87cab97b840dcfee19baef6e0bf9716ae728fcd28d4850692d1c90027bb844c44324c187416fbc65ea35230dea973b27d01e872b6c62e583b84f425ee2c74a0a5ed908de6b82402d9cba60e2
ef2659a259fe44ce518e65c8127428f50c59cd540bc652c50050a000ec6eb7e7a9ee4f90cb8b70f84a3e9b730707166b0b55d6af0207d26c388bcb3c24da28f90d4fccf229a22e9c0e75f36d88e9bb9b97f016b21d44899ca32da4866be00a099dca9ac6aeb3d35e77f3765d7b6146ca0ce3bebc9c8c5d4ab7f12bedd43f011b
4a46fdde0dcfbf25a7a5ae80d466adc4d2083096ccc8ae0d3f05cf14a254cd2108a1fcea4c30ef180e951feb69fe9be05f8606cf0e75ee572b2419a8986f33dfcb3544d0e649c401394f5bf74bdd984e758714b28207c38762c30acb2d39aca2ad397b308e912ba9d8d4eb5f19d02d630320cb192d9f8ca22f968d1cae8e539a
d78276b7bf32f407a6ab3bd38bb11473dbe195e0dd160b89b0c3088706b7e692355e44e0b7d24680cbba080dbd77d30f132eaf9a98c9968bc6a046fabcca31ff1d04d513e23a536e77d8c62bf7b1bbe1ffa7e70ef839288f03e46f05b3cb3e2ea3db400cac8be5a08f685f99f94cc2c2f5267caf41b8ec4ae25c96d11e8e9d5f
7386235854a9d671c57bbbb940f01619659ae25c6379f16737ded07c61e7c9cb771d9921250af4d44326e2405494f1478a3cc3dfb1fd2d22576e2473c4448cfa8baff39d3ac6b5d2bc4b50afd9f42416b092406dc322ad1017baae6e516771a9313c6a9dfd6d942e5691d74052bc124f100377f41741e66cdd1065a0ca3e5aa3
c6c06a3dd8932f16f29fd126c7b9b93fb7f0ad0522be0ed843ed5e3a8e2af9a67248728a3a7d23ea92589b22e8780e5154960a920e33e0a2efc3e91f5b453110ab238655ff8d85281152fd071c061fd843678d41547c6da2b585ef0250105a825b05d68b6e82e02ea4c78ac5ba98950354c46919d1b8223afef73635e2fd3e1d
fa379995728bdee012a3bbd4230d639425ae8cac56ac8bd6a0a6b741bf4ce398fea10311932951ae5d5a7ac27cc9676dfec18c87ddbbf7918b05c9b72f9d33f2181dd7fe721eb7d6bc08d3fec7be1ad5ded31db1ea48bb41bcffcfb07864851ae79de7e731d133ad4a1827ec8dc152cad69416fba25560eecd53baca3be61a21
d1c424ec3fcd4dd6252d104f84d395bcc5177307e6f2316f1c15e2b36569d0afa211a0af0ae9098e3739153e9d28c3d8bc29245e0a6c06ebc06df6391cc30696d4d69823377537c05631d01525397bc2049f18798fcd6b286be8bc8e0ee374bc180f0dc41b925ad5a7215384b180f315c4f1d3f1916111d118653985ec24d885
a2153a30ccdb7d88d5106de69b7d70c36c6e24358376245ed9522526dc47ae6d79285aacb37cd1cd89787e1d078f6848da0c8a991afe1e583d37206d9a8a7a8076a4140c656a23ea0de89d1c74aa7cf5ad863f93d0f9dca770cca8e9d5b88d3c295981ade28f7a89675abe96b9b63113cad63748ff54e83f626672ed33cb42cb
f672397d3549b978d1454e7c3c53899f5bfeea49a3a0339792940d241014dfb44fc1cbeb0ffec626bdfc41205fdfa1cf0814d92fe995b288776bec9b9e220a07fbfc130eaa0b60f83b3500d5c49ff1940f77367e38f14de15697d1dfe6ffa2608c3594131c694ad54be299f675590eb9d194264ecc1115971f08f8712694f0cc
d2f6dc4079cadb57993973d8837ef7a444ece0aa833be018e481dd1867daeff3509ec9bf27d43c1988a48b9015686d5b43240aad2f05593646670bf0fdfb9abe49697ebc001c2dd0035cad6d65cc54b4375c2706487836d69b82565cbb73cda18f7b392ea1096a8f616ac69f05bf1ed7c09f9cc311abe1e718b7b9731db7eb78
568792edaee7c9f81749adfff6841417eae10f612b5390e588390ada4f1a1f55f955365b9400e5d8152073436641a300d02cedf1435586d35ffc966c0bd04d2e819adbb97cb1e5e3a359f39282192fcc1fa7af841093111313b6fb9df46193750ce31bc6f49e65ec193bef240c12dbde7998a8cbfc5f8f842478f1b02f6912cc
64e999c757c3871283a4b319373600b906a644e1f4be530239418c16f01ec4f216ff6a0a2608cbbed639f86cbcc936330d05d13ee2aee84a275757ab7046e7a69aa30265ba9b1785b77c7c991c6ee6556a995bb90fb12c37a84991427ed260d93927ec76d120b3f4fb18b3dfb0e38b92d1edef6374dff746f59d34c9e73feb47
3dfec64409da3aad855f2d63dcd74a49a161bdaf72336c781937ed384e3b8a05ca260434fcc1cc396d00078693e570bada0aafb5758cacf66ef3ab132e1b8c82d7482d98e9ea00c1fc32433dc1bac5e06c3c61ab9409cc784620dc850f61242dfe970d65b5cb09fc47b68cad064a6ca482ae70d960ad5ef399f606db56fbb9fb
c5a308fac492ec2a19b9188a171e1ad26593366cb6c689f592c99deb680e8d221455aabcfedfb2943cc4214e15806006a259349eafd276a2b384515d4f509a966ee3445a7358243b9fdb2a637a9cc033a21a745e3d39ce8c8a1a58a6bebfa3296a9feaf96343009f504fded69e0f7daba387e55371681b435de662cf5d4d0eab
5db2fe96d0985beb26717e451c7dcbfbee0e544e706bc0d82772c6cb5edfc00e97b8dbe68358d175eed4e15d7d90f4ef8590f7f982fd7bf828aae9c1db80b2a82b1a2b1ff70d47f2dbd2dbb27df9ea8917eef966eb9bf5ab94d96164bcdbcbda181da52baa82edbc9835b40cf6e0a6aaefaa38457d11b147f811b856b71bd58d
ca66254913437465391a002c320a31882a57c1d1db4cbd79961ea03243ba6bb6e8188cf8fc6032b9e1588f6ebbdea6c9273d8b4ad1563d2a8598aaec7e847c47fddf3c94cdaeff1d46112fc86f69bcd196382fb91ff173dafeade25f3f5747797bc2951b5a6809b85408278e3b07d2ec62f1c4ef0c7e367d52295366b64301e8
397c85b6117b51113b4ef1fde1fcffe1e2958b057cc2bf90a9a5b9c066da520f09745722e7d1d87a3c128c09a0f5bfaba746895ec69b412c47d4a2025ca01e5fa20b7cea662e66926d9bbfdccec167c2de787213238aba052206262e0cf6c3229c785dd87af892fcdaf1ff32509a0b0841312877110500aa07894836b5a14f32
6904dbbc4ba67d4b724de6a50eeaf3c9539d5629ac47cc47c64d0509103fb263088a43b00cd6bf080dc28dd07d1227e8467669810bbaa56dca2efab1289dc308fbda13a0f2a29c9345365c2ea67eb248c46b57ab04af117cfd937bc907ae5781e9616c4bd273aa73f96f262e39f65af2292c572f413ba00754e353caa9f890c9
8bff45f2b75a37abe8d208fa4aa5e2a9d44e89517bbc0a2d7906dfdcbfce84d0832d8ec2faee1a922bf3cf6e5bbf6d50d990200b5bc02d1bd6a6e89629bb075d0bfe4e738b17d171ec55aa2b6512934a129f68b4f103df27cd313894afa6c14dc381bd0b3b033a6f8e318239268143bc41cb2ca6ede03def8952638e821b29e4
5b995e467087795a17b9e1521246606015620cf78191da84f4a324acd05d469a8d30d9fd6f9b546eaa1f951746a0e7177e8f06ac33b81b3e45dde1c4492560fbd4bb981d6e9450d197e86a47f6df2d51f537cd3a26ae9bf85e718691a83f1d67a9abc2297e71a737bfe06bf7df5637254f17b20aec1298884d9e463d9995f799
046f442cab4e79ba83610d31af5665dbdcfca34f942ef3d8738e31cdc605541227367c9c6af956e60620705a14d4d75365734a22d95472ca9113cb718910b084f0ae36bce728f2f669620dc038644a4375700f120bbe9d2e43990acce3b351d048f4f916e0ab1157807c665ba21a478b4d7485493b829e6b8f0db584cd9cca7e
d75913f72a2aff53b47e648f795acda8811bf3d6b722821cc6be3de881a210da4efa1ea67b148c71266d615117f7c415fc30ae1edade0a29f55d41c42f96fb9ff28533e6a468044c3864c54f0754bd9a5666f1e334ea5206337ed9b10e94acda151411ffac5e789774d21503251258127597892c32508aaf0bf4a66f1a2e8b63
9c1bf84b802747dad11a47ffd3d05b08b5c748b058b952a26580b44bf3b22fb0562174943f5ba55b153c3e26a96c5cf08b5deceb8291da23c0c3d3af37c2acf1020dd147d28791793257f8f4e8da61a2dbe503658320d6cf89b26b96ccb75b56501d9a80074c707e13ac474301ac3fe452cc7e4e671df1504da94305421afaa7
e4f6e06f7004446c9b7113c3c2a1745ee96aae6c6cd2c3a2423e014674f6b5e2af8d61fde597dd57edc498be85e0b14f4a83d52276d20ab1c223e1bb59498d888c2996bd734bac87a0a85d66b2bbe6550101f8bcab4aad638961cbc44c3521d1f827ef1176b9703a8564a903222e6000ac20f39a23a41349283c2ab946ba9409
12c58f9e4ad2c22c1c2500b3d51aefc677a1e3f57e9c977c4f48c044540433fbf01943851af6b391d1e076d62554c2b84531272135c36899ba6654c4dd33c325c3ea941001a6b70f2d30d376b60861653bb0db8595779f2a59dd72d44dd99eb2d220a43489fbed36b64269fb95d730cdfc8074861aaa9767cedb3cc373ea0ee4
5b50006dd6be0610dfd5d401812d32cc133d9e6c39d59318978f2c2b002224e68e3a60cc56ff5e95311d2a4d56426e5ba7bcc98bd733f14e75aa24b5bc2e1daa3341d74f8fa493672b47e10f77d989dbe74f39dce008b0ff008cd968b59a7801a068b9ceaad5023ac750d9ca98bb0bd76c87fc15bd4626896988814448ed45e9
d6a9e88b26aee19ef08d265e055e7032de4444cc9f1c1c827189911d78ee8e5442a27855d922829dce152df4bbbc6553f1f9ab771167c4d9f032a4b3bf18c3260609b166f6d73c465a715fa45d4959486e23b5da6cfb7d138ba7492aa6e4417b4d6d85ebb2f3add32f2abc2d6a542abd26b7ffda5d199a086fc31bc888c91c5b
f56a1e039bb6b76b9d50f56c7e36e0bfc3fbe3ccd62b23a8ae35c2fca4a6ab0591ed0fa3900060f40cfe1f855a1b95b1e6c43a08e1a9d1e7e2729954e113d40c8209443ffb6bb66015a6027ccf188910e9fe9c9bc7f9baf7d6d4385f0e70099129ba9043e7a4bfca26679829d0de84854acaad536f37b07db6a6729b8703542c
db27c7b3e69c19d7b3295c30ffe755ea7ec71dac3e945edc30ab5641a5f332c451d5df9fa90bc0a009e5d3e913191ed51e5436185d3b5cb5103ad5ea0282d67ad74aa80100a32b28258ff2feca5baec8caab510f6c7575e65801e116fea52f6071decc5a6c82e7a538b7dc5e513b8556fbc650e1156d12ba985ed13ffe4dd5d9
64049c1f42a40135bac0fb75a67d707ee862bb3cec40f0852d6ca07c7ac3bd7616f3100c0cd56096c3c60a9f68a53af380a6f9ede1e1efd27ebec98e3714ef179422abcde82714756fdddda5eaec68418599cc7b9d027ca8095588bfc2843c61db8adcfd8cb66630da5cbb2a011db31cbc8477ef27b8deee8a86832624140a54
0045b55ee8c573759fb3a155259afab0c445485e5619b1e4a49527a2be91aff2e0925c49c286e9973704fb10d036b2effc1808d44fddc21d9faa6a3a63fac0232cf0ce06dedf06186872a9bb52cc0686792dc87573604caba73b05d01b10e91461056994514f22bc2f7abb06d0111609a3a0055d1ddccf3ce23b8efef27752b0
5ea0f92916bf728fdcc68b7a080028b5135c96bb42f6923618978dd2a724c8cf4766878f4a47ce0434151cabb4d3c3f278da7b9f71cdd539f82ab4a944b5ad068877668088e018e362ef72b75ce104ab6ab0292d798ef65061116c2112128dad3d3600e53402031aa2ed535f17de6ecb8f764f78abf2d955a037b37357ebded4
b8593a5dfe580466e407d20202b09c575e9850a22c56f55f2df501ba199b6168a185ca88102dd7f5fceb9d052860387c940e644b2dccf3a8cbc2cd5d7a960be93dbaa6c28f13c823bf27d5142b125031b435060755fb74e82619caf573ebe0f28c3e0753ecc29ebe268860ee660d38a0af262ef299e6b7f02c5fd95b33fb669e
efd975c35ee84c0d7c02b296b9f60b8afa7c1e8a848bb1e383efdab2af573be34282745c128626e10bdec94513c3c0ab8e730859dedc360e945fce740e024101e5e76aa2c09cd3b17011ef89cdbb50c10aa7d983e7a4b7eb90c4a692cdcc61e85817ff3aba1f0882dc08011cc1b9bf531770ef6abf94697c23a02c1dd768c11a
93cf72dbf28703c6062f118c7e355d2176936281b50b80ffbb175663f648d4be066c53a5c9691ebfb262eb8cc89544d57367d82d2cbc0a6ac37e703ed5ce8fdb2667b18103ea3abef20de46d505ef9a4d3827b9519baf4780e1b48f1652e44b05c40e0a390e3295622b57c0349fa141545c66ed0976187f7596c72eb929f6dca
cbf78ddc04ea63a917803b5b990ec1731feb5f565f046d5305e1e2fa535217f38ec662905e7d818a3e3d7cf1879530ceb7a6c85a5168cca26b2ed2ca308648934bdd3777b62b65db4ab311284e73208f696f911630fd1d781593b96ac016858972a440e5e1434ad7eaa9dd2c94a1ab8043fcd2c4d7ed27c08c5a610ca4fabd60
149e5323b108f0d116f5b9e89f98471b35801499f6a0d69156c9590b5906ef4e81cdb2b47d79660173dc796ea7ba18f094565f393f1699e37ccfb5159d44eda07712d1fa330a87f85bcc02054997a002cadf2b00a37165d2826a2a6da90b3286f3a9bb8aec442d66674beadd6b42b9dd886ad0d7546f08ff3b62f0bad427181d
071d56bf9532ba803950b51f059ca0ea9e08582528812ab5c030a7a69af5c3e3fa98ad10f53ddca6f9f2aa3856b00e43436cc813befcffe41acf82f51dcffb46823154951d36238a3a76cac3201cb3639816e111f9f9f90f5b4384ea1f4210be9563cdc38fcad34c427417bd01bb3fa5ea3a12902ab3c49c4b826ab4567d2ef4
451e0ff97165d55a3ba33b9aacf184572b37b9d0c272960b9188c291d523b6823d1bb5bbb4732cd94adead66856b8b06749780bb96d8e93a55db22c185b08aaa27f7a15e6b3782657140b702bd8693efb6f618168ea6c6f090767649762af3404ace59ae22f1e555118d779f3fefc8da502b9bbf175bd69fa9886c907bf17584
a721fe5696575e27b84e1c44b61a7eb7edad7575504ff5070dd0a125bcedfc10b745f2d568c9325bcdb06ec55438581b43a6431163ec6125c3bcbefac305609f534557dc2f594d1cc4eabcc7ed9b90bef3b968d7efa45b9da7e4a3fa1878e79def5663e45e1d03e3ee6b9eb2ab1e04019d38d22f938b11ef0d575a0621befec7
e748225a020eace8337b8c89136660e54861c5d1b037fef7e2c461f347c58d087739d66e27eb8b9d6a6af98f8ee25d344dafa3f8d0de315d6035d0f047bab113c1deaed2b691487a94d20a3678ec2c87cdf0d095be6c0242500f1bdf1d835e674a5f267881cb231018765ca29105b157aae7d8b9f6ccbc9d8c23790530048625
986eb4ad598a9ecfbd085e3563dd74141c83ac9b2d06890d6abe02c9761f7e4caf5c09eb16549ad1f6ca353e55dddf0dde83e49a5a01d1ddc28304aa6f734b55a224809cf4272f136a770abd3bf7485bc12032fcae71a53a50f70f846413e85056a9e36c689cba3bb3cac080c60062e4e05c7b6c1487cdb2937d749e7adc860a
8e3fa3f074aae289a1ebcfc19756e4b0a217f24036991d52a2ce02c98b88460b2e921e2b84fa4fad90298b4db3ee6cce515fc858682c576c361695114b9147307ce510f8fe7c78f245696ba7c66b206bb608df3c39e74165ae6d9f1369091f15cc7c01fbd29788c4ef1014d7dd8edc69a71aa014d08289d84a56a3de10983687
aec394d912081d812fc5adae1360462ff6c058e7713a789be4b3fafb4eb91c951bef3574f621ce6f5132a9b1f20dd1310e706a8ce3547de8765807fc4acd82b4d350b9863b88899ea411ad905e217e9f07f6c3da1d4ebc2073bcb6710bb81dfefe8c911a34ed8d50f05dc9da3e78544dcf0177fc6155e49d41b30a25ab049ea1
63233ce675bfcd696862db361e660da340048cff8b8b974d5698d10ec97dcf56b732ec5ba0f39460273dee12cd2935920b81ceab34dcc4cc81e1111243e74fd7faa6516f8f2f7b981bad9d5b748cbd1601bd83788a4cc9f40ba8a8b70780651fda13a36d287bcc039562fc693bd7bc2bb16d9c7a665ba1b7cfa5568ba4be3040
f224a16ce6adc8fc47b98552d123b3e9f120e9b8ebc4e552b803fed9aa217b4e758746b7969fe7e19e74fcdd809a9aa571d3b64c12430b990a0def494bf1e3692b61c5615e2e7af1df7ac55bdfec6f049568c256ac3aab46046d158a1bc6bdbe6d5cf12fee9f35969ce67e6f1100a3dc884b7563fb60952934ca7d0334cc41f0
88d2215810af6c79c7a997bd89b6471190453003dee6ee1e959d247a2a2a9cd36101fa0482ba573269586aa465cc34fa39417c7077cd1977e27779a9481247f2220b1c937a0031347d1d9bc58c5c338359fe8dae2d355f3e0ed85995f7fc5ebd64ae305076892d5024c9b18cd89843998a95f9b14f73c95993608a1827b959a5
a43bf084e861eceb5cccad4079ebd2e2df1a903db478c3b21008b4ebd9d009a18c2a3dfe713b4173f25a4808f740a59638f1367781b9638f6362733a52328694eefd44722741498d7300214103e108c6a754ec030e09c32ce68940473e78ce31a0417c559e7bd8f11d927b8a1f0c0ee46699ec75d7c44c7552f9f7ca8ecf3973
ec50e9ccad103d5e262f3742cd3c3838df05564653f3b3a9418681754175a9ab9719177083fee483076cb67325ff6862f828faf1851db670c1be8190b893fb0976192058586363305a649bb3d4828361cd712ee82ee933082476adeed1543239b2c5d4e539985c3a8388858924b6043ceabaa89f1fad9dee4118f23521adb4e0
5a1da2d8aa1c8f7c46702013a48a0b5106ea0d403f312e2e4bfec617e93461767775f20a8e230638d82daffb93707e5d3737cfdaa244e7c587890271375a772b2705c10763d13be1cb446b625a02a7c5f4cdee199fa8f3db6507051f96842b149dae29206d2e4b2557943651cc22e182e4733096529314e4a1fef1a342f751e9
6ed492ac75bd4d0bd0c594843cd68750c1283a3fa8dca835dc52af43210c7cee580f8f0c345ee811a1614595cf88bba7a678cce48ecee05b227c2daf59136b01db6cfe065ab72c08b4de3cb1a27ac4071607d523ef873bb7707620ba09e0fbd2ea8948679895e4531926135f5cca91987dd4f8c26436323a7ec5d19a1865c05d
da029c5da2e1b5f64ab1a2ac4b09260b6b82cfc66b2336bb164a2f4981a80abbbda6992b8ae7eaca15d88f4c5a850073cda44e042320231dff3bb29b9e883ad6011335ec328416ca1547899f7ec05c24a2679aa18f96c2927a9a6f79d5bbd48637aa47116d82d052ce38b2de501b945b10e204d8c21cebc8ca7a76f534e51f5a
3aaebc4a62a2f4de46b901e3fb310ce6798a49a507fe1bc7acfd595003dc5b98dd8fbb95acc55f9a7723e9c2b33b7dbcb81be9accb94745be09dc1eb39a16603c6c1d097b3f7fad8c2af3f30cef33f8b05a2cd163a644e0304eb9a85885b02c5cdeb1b4fc6214f700b4205b16515647d09718ae509ae951d1bd44388433ffec9
59cdc2af6022a7f4c3565d388ac6c646848b0088729930e4031ed2061d89363c57ecc4ffa8a78fae3a7e555a7978cf3453cbcfb9142ff96910670512ef3af76c2e00b462ead772e74058a61603f4fb9078dc7072ccf7cc2bacca5d84ab7eac4db38f988579a921daea7aabb530b1c792b107a1f5b635d5c6738f90ee5138eb26
63ee9626c2665261619c71f27962ae82bd7527b1d5fea9461c933f976d4ad1eba7a3adf02d415b80d9b03703234ecb60dbea80976539f1ed4c91e6a365ca1e6ffa8aee7b91f3452b278de113f7b09e81c32098b2d2f08c2a4a033ed5a70b26be070194463129ddb5f64e1ab7197d0ccfac666f9bfe160078e3dbd11baa7bb170
5b6a40f158292c9ce4fbd1404965cf26ef9127ba8ee62a14f65e31321107e2629ecccbac5c3fd9f5704e46f7dc3faa25df88dad9033cfd245d699b203f10cc6174a18943f97d9c716f703a3928491b44fd00d9112f62b495ae9891edd5cf1e634c160ff2e5ab40014abcdd609935b3dac152858f8b62c0e303ddd7fdcf63cb89
be432254e038fe14fe08a396a98ab6980d402902e29a685db74a3e53a2769d5a2f567c8cec0792578844b0bb02c9c771e0a2e652ee726f9996c31558c00cb85448c301b9df50285a4828e55ee7d0ff6772ae61d0acd0eea270cd3a5038b63defd291bb723904dcd6c5ea9f4e9f752091be4b5c40183bcc8d799effe4b9ed467b
46f649a46948b47a643e8d5482c524daee5cfc64b430fd22806cc00e6b8d0b6d4812fc3609bf77a753c0bebfd834e28122220d2c07e0c5f0ef1004b48df8880083804c6600dedd9a949a1ec36b53d0f3d4b9e680e2dc3386210bc3bd9b1efcd45fbc4a9d52b255005dfad33ba2d1cee2df881f3d0c0838bcd77b1f8d1f1e8f1f
df7872ace7acf0df0fff7e7b51f3ff870b47992a434c93e793a3d1f3abd29a30ca770c4725d644466a5d9e075afa96e0714c9806b9bebc3cd65f617bd0427451dd889c6330641af56d1699e1f4f8c51aff1a0944ee8c6efa7a25700ff2a6136d60e1642ad2d602732ad7d11a83e5f71c26ecad34cd0723d1120d1a558ce88b24
e15d67fc2d3afd6ea7e67cc4e0203ee9756d94853a2ace62ed4c1dca533cba03f39608e8ebf4258e37b8c461e8c8384468512b40392f1abdfd41aa77d62f65c9cfb577bf2cadeac1d69edc4c82a204928ea8bab4a3a4356feaf730fc9daae13066ce1299822865f09aff3aadcec3cbab15a1d0e6b59b50c203806d5ba7e9b40d
32bc04ace0011cf182d35339a8808d111a6f71da0d2deb1a957247d8b27283ce352ce30662135292c30a8f1e38e147f042d2a3776ef46e3ee258f3b395de86d67ae8748f7ce765c90aea82274735cc3ca2527a8c1c1cd9b27bc89173870933897b30fec6ddf9a9b7c50bf0d6b27a090c0ff16111bb13889c6ee58ca909c7bbf8
6c615129b3b7363b2ee17eae380c01acfd340118167686cd6b369de376415ebc547100a863576b6f52f1ec6ae70f3fe48a90c94d2e902ee699a7cec66b4088fffb3a4841ee1be953024b22baa9c9bd926e104b100162441b0aab399f3f833fafa5914d4c307052f31bc455a33b5128b65434c96d06ab2cadfba630505603126d
95325ff225d5814cac0636ee30e6e604e26ff971a2fc9d252dc34e4c022eeca7a79e7a0592ba09a7e19b81358b5627877ea741b94419fa6b8e052c2bac38f8284a6b0352173e51a5c7b87357f00f54ecfb3e423e7d8cd952c42354300e9dcf15c5d00478cddf3506cfc7d0ba61562f8d3d992b648473bc21f16ac5ddc506a107
1d961b34972316138e513945cd5bdde99140321e47fd8c471f57769413b056d9daa28f23cc2c9b4b25ed4add4ec477378a573a8d33bb53750866c6c827661e07ce9621e024a84a6a1a673093949300a3f41b5da317db0260947499e6c704be7c8ce3dbd3947cf1bde4644b4976c9ed203762aad21447653c23aeb7264ff2b94e
e14bee2d0fa9b649a3195131c6f0645082aa82a601caf5db57d8ef61194df190a20787fe3fc35520744b5ab2b2e0bff3c63cabc2609984696ce791564c5976a57270335f79135200a88d5ddf0cfa48413bd849b501ed8ce8f57507d21bf95d72c81ed3d92d0af1768a24b198cf2f3310e5701329c30769ff02f0586e2e2716e0
3c7dc3887ce1cb4c49e19555b83d582be4cd1bc93b0f343acafd155faed3c2221fdbf8cb2fde53ab6f0a58a8917863c5eec6e3a4f54b1cb658a454b3d3d8aee3b912869fc845adbe4c71ca2118ea07069f7cf891f443b7404d152a9622f0435011b0bbed2ec7eb9936c015088c9ef102224c5b62b8181b97e261996f088165ad
b2380657c65ccc7e99f02f88a878e86d8822ffef28440f72ab8e4f1fc58fe4d0020ff98d6512a6289961fbd97e823dbe9dba0ccb650ddb33a83863f079add7c830bef5872a246faafdb6ac5b949a63bfaab689fa7b47ffe5d93613a3615063a9815f0249c0a252d0297c51c2d19f516cdda48afa9e49ed594a1ccbe504605bf1
d12f70e5a16f36d3526f6713b8bc8b07ce7a81c454c7ae34fc0cf6ab4a4b3d70274b6c754e41320eb95ed4b169745cff2d3ac0e990e3256dbc817e00bb4cfc5a1c70d109f1be30505dc292ad75effde1b79681a1bf336c84b0bfe2e2c5eb96beb5bdafd057832f7eb84134c62cf44c98ada59d9b7add84aaf526aad25549b4d1
023ee7031aae8d2ad1bc401218f7afada35bacf0e80feed340a6d1992aed17f90a7d83a6dd701c99b617acc9716e4692ad4af4c481499f3e94e291a27521f189034cbecf0c83478d8d2ace3d9e8d6cf076d44d98409411b14ee9820175ee524e74d12131ef3a6d1583986732cbcd11ede4e58c28dc1a1a963f5f1d5a32d7186b
1b378e245bc9de8e448d5d199243b106a0d5c0e3b146a24979f8ff8bacb51c71f0288f2162a286325b63ff5dadd63206d2177c1369e7261e553a1532b8a71d4ca1d49e58bfb9ab9fc94a125770d45de5b87cb250599221e8756f0786c18279b2aaaa9e702678173dbb2ef89fd9cc3d9af58ae4c1f583576c997146c5e6f3fdb6
4cf482f629deb80793e577a51cd4c1600f4057e9c0491a5731128807912b8d2daa11a62123d2792f634ad1e4f3ea411fe231e5aea5a09417d388a4d741534211c1f5e86d89480897e8da5b03cb67d250c4ac8345fa8827484377e251450eb6e1a2b22690bf535978fb9523fdb90904211b7452d302f7f2174b2fb96f32e37cab
e5e34bbe74db6070a1d96b3ee7e4abf0e192c12f33bb7478167aaf85b94cb6d723d534720ce071c50212943661fc8ba918a126e0381d7c74ed8ee7fd8076fde06d52b50deb314ac6347b9196abcb245d022cfbfc678da3c87c006a354ddb49bbdd22931fa4da4de422213ea5c1349ef2331c3a336c0dba7a5c25672a1647fb45
95d91480393545579d3a2d1c3a17f1eaae1ee134a02a87a1e8fa2469bd6e9c3fb6dfdca969aa23a9b80c44011ada0cbed045c971ca5088d08cab1f9f3ffd6b0f724af2f920d52a61ac3722b615cf0a652f0417fb941df903067e59a433b4c875004e0461736bedb8e5d9a41dacf8706b008ffd2698869f4ac57ea68b6ff1bde5
1ab22b3318f6c7edd432d88c944868fda1b92e81d7cf71766dc75a938237b368975265fc95f896df29e4c4438cdda6ad3fb81c5c57d0bb19e8d3dcdddeb1c485055818376a5a013c5831bb9f210599f054d078789e7bcbab9cf4c230141c80139dc2a10070d95dd2ff0ada1ad4c2a80e50ae740a1bd011ed2a6a0d7d05f0a3cf
b7180b1e34d2cfd2a0cccff7c30cad1abee7a57ed30ba7086d034cf5228fcd8c2f44ccb71aaa2b5440f2f364148ec2bfa234f6f1274d0c1869abdef6fbb288b5db7b92bcb9294a93db9ce8e15f29204e599a4393cd2c7d51eb84c6bcc041538e532552bb90dd3eff2f58f54cb5da3c687af80b0524eb97f70bccb568bdfb26e9
3586b79e6be57e6028ad5908f85c6b326b9848973a11369e83a4d69f61d9afb5911143131e59cf4dd0bbdf9f5f777dbee9060d20a21f597ead00958cc550f98e05a2458a57aa527414f0ec3c8b9237b99f76c11e78fe1186230d62ad13e606e4c2a33ccd6841192e03e00a69992eb571e1f5931922f6fe77f5f2e723160cec19
779edc8928e141af6822e6bb9b8d8aea32ebb38bcb9dbd983898a9993d116e81adc9c6a6e081f694de780f6e26c7ffd764624fc51c78669c15bec1f08f0726e5d3c4f665d569790ad0ba7962caba2ca6a4ea5c7506be23f88e6806dcb5805301122bf677a1fbc4565431e844461017d5752db3e28eb056d65f334250ed4b6421
b9ff90512c58fefc97997508572fac520c6b49ffd3dcfc6c37fa8fcb19f72430dfac5b49fd30029cb797ebe1db63498aef58142961edf5b3528ade44ce24c09606828119f43d987bc30b6398dfe34a02a6658c03aea4b682e6f7bda6d9967edfdaf107af192defa2e6029d1f1ca30e7013f214ecca5c4a70678c9eb3eb27431d
c4003631282f924d1f10fe41b8798694283ecd60d3a3dc51b196e593e75cb844ef12ba3db24dbfab1a0f3062e36a8fcd945ada39709b24961a6e2b65ae0fcf2be552687e8ad63fac355f3cad2f631ad8461512050e97ed0a85b0f7650199475952246a20685cf200abf0c044e1bb80849580900eca42aeb073c218fee651dba3
2b690c19972183a1669ec57a6632698c34b1e23a43cacd4979c5baf8da91ee4c1c91af5a3cbfb947c6257478896aeacd54e69ef420829c000ea4c6b43346e718330d8393ae3da675b44e8c12953aad6d784be645d876ad4324d03272c86b0c0f9821544eca62ba5162e85d3160022194169cc0cd5d3880b8996e40e6b89d25ed
0303ed9c08bcde4fb68ec9d0c36296326a669b959d17166643370252ba3b0f66f1bbea0d3ce892b404bf31a0f28ab134c51d9874549b9eb2eb9ce2f592abe5166a91a56052bbdf7e28e90207ccbe77c99d3ae76010f5cedeed5cc2a5cce6c0bb10df8abfccd08de6d9b3a377bf9baf2f2c804097e3207609146b3795146eed53
163c93e9bfa0f64adee34870b875bd3556008e87efc3d863b1c7596209e3f74d107d35029a9fe068bf47c936c122ef5fa2601d244bb774c2aa1d639ea2145fc7c30e6ca4e8b1feb309f2e843476184d3d88723c7403be9181292add4fc93c2324c0d9bb5968cfb0822d0ad9f60413cb5340ec0b09d95a283d41c176ddfac6a1b
f24f993918af6888e23ceaaca1704407c30f398d979fc75f0ec86e2b8a013f5866e604084d8caba6fedf3d34376cf6f57676ce521135a8a93c11c61bbbdc8721e59ca24e8dd666b706a2d5a74a50ed6a1e0fea85882419cd1f02911f805d75076781a04e9eb1bb499126faa7124f6c0af8edf37a912d9260283b805ef4e80624
f2b488e2c886e6c22ec522334e883e971fae3249e18e1ba48b880dec6260ba97cb4cb5d6b069340f8dc8754025cd80cc669d143d90f63986a8983942c2c5e220034a30e4aa079ceb35e7d629de1d0ec548abb66aec08b63b1dbe2549c19c707d85dadec34affbf773acd2d9dcc1d8911ca1152af48911183d3f4270b094cef53
e784cbbac6fd2f614c333f2a00d4dadf798f3f8288a3f3b7b868f3a7d2adffb6a92c77ca4f59781c24f11e55f16959cdd84f6b107b53c856544321d0168216b20897ab093660ee7a2644d7845ef4bf7212f2107cf43fad2a7959642540bd09c3b7ab2f26089a1dfb8c571a0a5f06c60655512a93987d1bf3e4f6824374ed944d
d021f16094fba179edbd1a9bd4fd3f8d0a3f41b9aac8c00122e210c5a1ed22d7a9115e81778d400557e3dccc25915c4173d6ab235390f67ae0d19e9276a64b10e2b43fa79ee7b061c4ec71791a08679bbf60e58a62a8cd3bed6922d387c84af9993032654336cd0ea09a957b9b6b1ec6740b85aab20c2c21a3dc4e42adefb67e
fe1b398f57d08a5573d8e6f0c3b4e98c5964fbf4f7c73e0615149f6540028682d4749a3a557096392b0adf0886ca870eb51d95af85d24e154c6aa1b5be4632b1d45ca836cf5f3cfb6d096248c9527da3aab7122e9f44e706d261920e53514e5d10d1941a1c23b04e3c95a3083cf4b0953c22918ab357f715f226c55ca07c69ee
c74a14e318532a6a465e4263df7701c13558851b85f7cbb8f0ca2806b683403c344b03dbb093fb9dbe3c8d95222cd8acdcb4b3aef10164c937ba73446236432fe855f8a096e5a185098291476583a0ed9799d9cac59e4737a830b18a457081f2365e66ce175fec1c48e24f5c14a699dd97dd7c80661e7eeacc34cdf2d0de57ec
666455292bfc67a9b472e24ccc26e017cfd23ebec0239dda40b9d0ac7459344411eb0d4409cc506e1617844f86d769fa3a579b2a78d8c531015b71efb0315aa566b5f5a9e2e771311f094b8c8584863579a3fb8aceedf5d93f28ddae52962621ad091af3c28aef52582220b4d4b21fef50353af778f99221bd19040cbc16bd5e
cd7e5684d5c8cc5a699f10d1059b06cf3581d85c183c57511f6fea9ab08f404e03fd7db8e9de3a94922d929780ac0dd9bd056e19554e159e77452344ca9a872142526b4212c4b621296c605461eb82e14e44cb980052ee0308636cedb76c58a897aa2abb78be4cd0b209dc48c9daa3f9872bed91737e714b027a768fad34b281
50abc80df406dac60f60b3cef51e5dc333703f75fab082ea2c044cef572ba5ad0e5fbb0b9686d58cc675b9a486d2c99371cb708f60fe6f2044f6746115d60bb7a2663085284117b54ae6d3526ebfd0d9ae13e767cd44c255384f074576421ec06fbdfd3aaf1df179a16893fb565e6c3602b33c24f98aee3793462dfbb1348aa7
a245b9b7d0450039c14d2d391a4d2feada4669425452d4b58f6ad917d38ef940f2667cc5f8215a5c52f41cb2ec20c86850c96f5a0233ec255575dc2a5a4030dc12fd7ef691c58650d6550f93ba458ea21b375c932fb769b47d9fb5de2b73157476b1df274e8192e84187d1492abe55866f8442116ac598a5c36d59554b8bb0bc
6b245bb43697b967aad4c5f38a8803b6696d28cfb6585adfb6586fa2b2d8ac7832bf241aeaaf93c1e6fc8123008463a498fae908fb4d90197841eb06fbe852edb688dad1912b88a0f27d7c0d3d573c83de3ce20516ad8f201c0a470ec0cb874783e91a323695c48511f944e92eaa4797dde80bf86b1b3be4950b4f574d707af7
d194a3be72d3e3549381cfad62b8ad0d140e9832f173046b5a3881bae67dcf5c4a5beab5a20b97e294dc5b4e4086ccc93ae99a253d8077ef751f5e9ea11122a94a2a6cee98fb8ac9cebd5ba72ec023cc057016753cf5e15a0153bc07d4a855f4d952fdf1f97ecfd6a0336b4fb498bcf245a4884c53b6ac7ed7c2d754703328d0
9bfed0988a113f7eca59c9f1b68548decb98cd2da4ae1dd5cfb8908d78cd144133c96f3767f86cbe6e40262cfb70f97e391bf27920b76f43e1fae21de83cc49f9bb2a79f82c17392561ccf595dacc581f04f16dd9d1796ac434575a1f8fde2d113a5b0fe91df5b14b0746ed2ee825461d9341a5d379270739fbd8bcc4f0b6f03
c6a96807d1b5d89df04dc378662318d63be2f482884ef014e3191365e240afc01b3bfa70b9cb4125931506b6ac0c0f81bf2c30dfdf682a37d38f6e28c322bd72f1d22ae10111639723aff6c10ba20547013466d51cfd9695e229d1507e3b3a3643aecd9f019ddb516e9cbc1ded2d7bdd4f5cb2c27dc658ed1074daa6ef103815
135b2204c5f79bd8551181d173cb1cb3e06f297bfff86031a7ad4763ff1c3bb89920114aed86a46fe2459adcad612066137ecd8b5cd66d05ad1244f0b3e89e6ed1c05c8f160e0ead56be421ca5de5f9413ad5a93bf33d7cefc5d1c4db03c6c555483fe22b2db14590e88a884265fcc6e154527b3c741684b1655f881ea59050b
88f51cf7f10cd383c3dcfce40b22e52d6e64cd7e5ee157303bb38e43991b925055163822d604c8a2785b8b8a45eac0f2b6d3d88910e1ddde8026340cc5e789cf5260ca352d63c9387ebe96d7ab19d8d7a381ead6e82693f5d216de8d6b5d9f219ee61e532611adfdf0336e62e53d1b3ef7f6cc1f1f5fbef49c99f64766d21877
d55657bb112c88232f88c0c3dfb35aeb5462b161e67904336688b7920d55b8032014d7dbd8a6524b6395d36f6923f0bacae9e379c385c9c44bd91a014549a8f7b50d1782594eff172faa6cc42158e60ecf3fbaf838ac548e53fc1ab78a35a1f23c61b5d0b114888a67a00e52df9d138e21f2b8c0e48f3bc34c692cde66d646cc
faa1a72455e1f1490d372dd9283514472523e3e2510ae34681837bdc828018cba4a3f134937d8fe1d90de54753ace6f481674a731d4b3a43af910a346a950f2b15415d83d5b7c16bcb5bfec2655889eb93194097459bed1205126e05cccbd4ab0fe71fd43ad88f946db25150e1fc07f9a5a87a427c1a5b6adb67c45cadc56044
8515a65fefe17ec64b3c50526699d343ae80f8ac350c22636287f6ed8b7b010c730fb6498e541872d793096997309341bd8931c373d2467b9cc7ad0a9cdf88d8e6b1aeb93dbbd06c0113d69880b8eb31882f58c18a900ffb01f39e93f5404042f1334cc29e8395df3262970259eb00dd869c2328e651c88bf5e8187995678c11
4c29a1b0e8cbae4441216d72d8ac826058237707b544f55df63d8a6fb28cd42573c606dc18b164f9d5fc5aedab142b8a9541472870c34f962ff078f4d13645f26a287cd760d51c2c29d7e520c4b58649bc83a224e46cfdd3315759774680fca5162e0574bbdda3f5eb40de750ea2fde26ee7709daedf64604283e28cbdc0be1b
16ac5169c194b685bcb9903776ad6b1af6861cf2548960effba0fc22e8b700ef07ff4677f811948cc5ccfa595669be402362afc291686f4979c5064d1675ce2a2c47ee1e0a9a37cc19999dd6c5e6c5a3af2bce6c86803094942f93e82e939927d2dd6f51ba875209b89b0d034bd9b223456ff024443d29902e83f16ad867bd10
51e774e901164293163fe73f1a0c281108ccefdf120a939e4371843d1fc6199196816405f19600f1e7c365badc276621be62d5bdc9a41f3130d1c5e90dd723a31b87eea2b8ad6a701e17eedaa0a107552f9963163cd330ff2a98db386651ff05627c7a9e4f1dd022a560e9fe697b60ae6fc90cde1dba2c4527cd8373e0a2a561
c45ddfdd0c4021d409b53eeccf1c36c12ae06cba6f34c313f56c53b479da55f6c17593fa91ebdf6efab7076fc71f652aa6e4cd283c71393c0c0ec0f3d8939650553c97a5fc7c13b26446adcc7eb0e84a4707397ed0a32b72702f63327a71a45de757bd8023299b5a97363821c905f46b8d7ace706311089e270694fed7ad9027
8c3d1bb57268d3c23951cce9347b5e065ac0a41c0ef8324b9c7301a8cb104b7a0e7811e32858fb94eac99e206335786e157c0d573132dce816f3e2cd5ff89972c309bce1f5ce17304d88554919c157dfededaa986091be2c0c449c0fc66125b240fdffa18232ebc3188f8c561c6221e820158eb5eeb933c81341c7d153460f2e
83916a354df440cd02c8298b48bb9e1b207912c84ac1ad3577acfd2c90255a4ced69adc3cfb27396762380dff1d3e8e445086dbbbe82c5cb61d4c530a2a20b2c65ce4ab56b501d9970450696144d422ac245dc87e93f858814c63afaafc299ccb6473c9b31918d48723c5ff39ab2cf6f0b794121398f0135da71325ebd4c979b
5e52c7703ec75c8b390e5161d30487e561151f25623f7a9446f5e72dea45f8ae1b54a41804ccc85a1eb28ef9e78f1f4bf65243f3fc2334f9bb5317df3ddaaf597d71731a5cd0435e5120690b3dc3796b9239e3eaff0c9a46d797fe66115faba780c61695d882147c44cd736a6aa0ce78204b8727f309e24121f076f3ecfc4608
a7dc7b2933203c9f5d0c149caed95259f472eb0e1bcccfad64af6527ddc1d2d057bab28cd738e2f438cc43f38125a3c03decf13ebdede63503c7059cd9ef3d8d4f23298137df8e2c592d154fe1f37ba3560cc8fe31a718f81fc2c13faf166c3dd06a09f8fe5718b83b4341e2b6a142a04b448241949d7c2db9d7b6fa81bfc399
1239aa8f511d7791082be09ac40fa55c43a0d5d305ca254067d0f515193028fd38a1e5fbd094df35300e88c606906f7ce564cf28f1481ace90995f18eb2bfbde12c9b2974311c6b0548a1a721c2353e99cad7d6ebfff199782791c3755d9e42014b50845a9f41775b3694690c67022815f0e0c9dbd1faa497062f4cce7198f4d
9a5f8ee175da73fead2579f55d616fc6a46a2d2635a5efdf4a463c480922212ec53de839155ff56a7564da92b025f5fa13eb1488ff16df8f2b86b7ea5bd413c22604449cbfefc37c57096b42f528f5d3c93915959275dbed868d1e5c74e5860b75f330f5f256f21c6c2c20d3aa15ba0e1966a64784f13eb4e880e01c96eb72a9
244d083721733d80d5daa6e73c3c8b3d97e6914f16c3869246eb22904263eb6b9661de7dcc3eee7c8b0913565b978493ee30341aee08542373a01071e9f42d156e934daf7e8fea4062eef3ec7710f188281373f36c90abca3459b5ebbd7b55052bd563a8729608f8acbc227945b8590ebc80a2538b5288c356a9e847c30e901b
13232a9c11ddb2e4da976862dd93de057e457bb77b3462bba92817fa40be6b5d7485d34e359226b4a3212172b08fb4cba1a4e7ce33bec7288949a52c05091cb080e1ada28db1bb114857adb0099a165d74f65f1b418ca00328553be89d14537d07c9fae1f8005503e4a47a47266299e5562e84ed229920493841fd10258adb45
5b26c6471890de35ef8c98c9c69c87d023da5f0bfe879313b4ebd68606a52224eae6692f17a8d8c761e5c61286d859287dc399e5f7ccccde2811d7a65544a1f7cc4ed129831708876e21f9d9e43d0772eb8bb5dc4d8d8775f60cceb938bcc08d31f052e2820bfebd3e70579f26339e6461882161a2697144e46465738dd5e055
bee6ca0be4ce9477dc318d6386263a86fa448c8eee88144f1dc2f45b9d930e5cad30eeef6ad7079ebbd40214c7fd28128fb742f56308139e53639e6d688fa2771d9637f9821af7e106a307da82d074459a6a3df9bae7b834c3f20f962dbc5dbacc26503c4ebbd2f823cc95ccfa18ebd54735e1c1c7904965aa1c41b060613d75
04d7f7f80780ee3788847628e801ff9825e12ca75641577022a47890bc068862de9857e0939e89963156bb6c0804c93df2700ab9341470a7688d8247d0bd9fd221ea9288ce8ec1a2f9d086f6e411bf689e5b689d7515e9102653fc8b97c3a668d9d25114106ac8fe32220f0aa50105380d9dc81fad967d955f2d0e9d65378054
859c9bc74f40a0249a8624aeab0333683630210d3de96b8a8b41a09d0a77a0ecf8ac23f16bc37005991cff2e4a85900b5c2a26d9ad049f90110e6b8c91ebc5a7e0f4de35af09bf64377355061e3b545ffe546f04e5c0ce787384346dc04d1773385743fa01de06d0651b73d70e5e272445e558a3d1fbb084fb131e54f343527b
0507ceb9ad573fc9a1f635ef245364a8385d06d4390add921514ea82271eeb05ef5ce94097e7b4003f2cb26c6bcbfb14792ac7c1e3675e5712ec5d8162c5ab33e1c4a74f53aee3981bb9fd30f557b808d916f139b496968ffce8c706c04cd30dfce403f795af00b00bf45424c35577021b8d3ee9a62ee664af3d0bb62358b452
6bc996dd64838944c1c31d9456ac70e1d3b50750df767ab94ba065f8948042741bbdc46e0171957b7ea49249f29e5292d40d0f96c9de96b7b62a2f9eab0ed578bfc7c5b559780bbf9ed4254b156e9ca5b290d2ccb09c8a6e6d285f2b654cd01379069ed2adfdebeedd37a6196966244879fa06f31e9fa49d7bc00937edc82dc5
18e24ffcabbe2b25df4fc833fe12e244d889d92410dec42fc5db9482be81588a1803fbfd2f88fb1749e3874107f0e21f978ff73739cd97c458025effdcddbd0ce45ccece110f5ce8216e7b79945109b7b67c9bb421d23e36a201ea2d01dc52a965a9531c246d5272bc4ae6f9a547ece2ecc565020bac50b6fd4c338ff1899d7b
4ebc664ba57cf2019dbf1ef7c789c4fdb8a372920ac939fc990dffb672d1e8b94e4ea5ab5fe6fb32d435723d2ccf8012d0046a60d1f549753cc01115852443aab7b4eda1dc527a73818e5ad99a4f687cdcef888632875c65c906c286dbee3f350072caf7134bc4592e47c246137688f903614318256046eb528f7ec2f5274812
065b810ba557697a5777d7e6148db38e4dddde21099e3354cadddf15b604b0cb4095613dc8d4911515772f5e76b45bec6c6e906578fbd1f4c578157253dcffa5ebf91b45b08d2b889b4adb31a3813c1406e2b0a140b685d5d68683022a5dd5794c76ed828f1b1edcb96ddf519055019d7aab0884e4d8fe295c6f128da3723f70
8e4948a2ba8e553946235fdc2e770a7eda2ead80a1f8b9e3f835a527ede0478663677013c97b51514525087e5a5681f65de1b819cb1cba7bee0893e1c04c2fdeac4a7aba3a58da791aa6f2adf4cb3c79875e3850f343cac08466f9afb2a0866a61df4e4315452ab10096cc9509d2d4f8f3723c37640dd1ecc2ab718a94ec3b87
d5a3d7fd2ef31f5c9439207c6d48c96ae9cf50e8587c5c921f7de41c850aff8a67b0a4af53fcdf7069ab1884197b37709c566aca39565ae51aaa5baf89cb8d3625a8dc66059463c461fdda72a1222cfb12c9a2036807f386cab61d51c670c0a4db6a181e0432def68968eaf73bacf5a443a4f2c362e081ab23ca68c893577746
acbcb8dbc226420ff73986da7dc79ae852778a61710e8fdab1e0687eb963bf90864d83efe2372b78cff5bb64ad10d342451f0ee1b9bfe099df37b9c0f091779a9eefcb50f528fea6c920d717d6d4d45cef9fd1c948961c4e68b16569090d4e853daadfeb4239ea4a965a0b9a6b2bc4f042e16d2a2d1e403c1d99c69f9c9d8253
fa435efeee6bf6888376872f1638f0d0a4f3213c3701d69c89d9bec0e180d32d6ce09639b06a626c7aae540def862545bbdd70fbfca2832bca353c845ce36ba438098a392bd091a520e2b81f1d571b2c64e002922ba584b86e3dc44eca2c844f52ea52f442c984725692d73a5dcddf4782b29be189802891f627162ca5285929
75912563fb93fa38f3c4f77ad0a12f68482df8a49a27879bac5796f3e4a09a5f082fda0bc16495535a60a1bdb2c4b23d469ea717ddc1705a16c3783f14e0da05043738e973aad0ed7c0d77e5a234e3aa9b56ab9d9bf1f1483c52d3cd9a0a286d60cad717f95aa2d76a7115c8a9400fb08dd4434a724ce3c0014a6286aee64259
8e04ff69e0a468f2423722705eece6f8351e69d093adeef52721ac011b8e62d1472bcb33d1d9f495f39ab1e3e14c0307eba5a81001057786aefefef327d38fe263608948a3a26c09a00dc0b9db97ca2fff4b285db30eb0d033c3284b8e9de480408a9b22ac71b80c3d1709a00580e88a2b9b5adfb49ecb42f304ff26231789cb
65f6de54d42020f49411f8476f67cc143e6ec1884cfe9a03081b60eef85122c357a0770d42a3b73d228e205204fad04458d977942c2fb1f8af07c8914c0ffbf65fdbb492fedd025e0dfe92f94cf7400cf737841e30464b89c900ecebbd887582b0d69224e3e22f1ac311fd3d38c81a61386d69711233b92d3d5b32000809c7bd
ded61f967e566243790dd609b8462ebff3c9369ceeafcb276914019f7335b05b0301bc482ed5c1dd160dcd41faf0ebb46277f8c5328184f274710885af598819d0d12960e03e609edf4799ad526d72c14afcc7b173e9b04b7d0c8a2f73a2afe4689d7afc730b77609a74dfcbe2e9410e1819af4f7eb3fbc8584f9890ebe42c28
6d92744f163a93c498dde599bbe977f039d81239c0dc420196e7d8dc3a97e3018acacf0946226fba3d07ffad40672991d81b4cd11ab6e65fd4fa13a571484161fbb30a6cc595c586b25519ed16b40a5d28d00b1229639000cd88a2cf39e86193d6e9871f27b1ab845f1501250a5615240d20a3ea4c593cf24c02d9f8a0f438e1
2faa175458faed6ce1f7deb0a2ec17a728fdf7da34df6c33a9eb6e2be1b770f6cb1f1d0bba7106c2a575a6028b7521adbb76c083501d317aacf3d34b5fe228b3e8ce5e8d2c5d71fe92391e6f66e804d65d1ec60b6982ab4964c365e49a6f2246c75b60f943675f6d7b08cdb7d4c40842bf1993f053dff3f1fe98c5becfdc2317
b63642f38c1eb01123edf7e875dbe7c1418771e59d77d49328de03e609216665053b6f734318a79651084ba2bdaa80a6b5b7a843b1e8c9f7f48cd77265d266e815e94137c45640c01a31f7ce32109ba525f4f72ef7534891c6caee4e2ea8f43a66a92d60a5f823c4a2636d79513d03a366fde39e1c15407d7a24bb0779ea0ca6
e1c21d6a2522e9454b234d5a2e05bccdc4e88e72a76ba94b62a3574a70b2de27d791df1b38c5de642d4a94b6ae7abdc03a1fa66c1119e38e8194adf34718e72134d101254bb9d39556ba9b34f2645b82235320b38feb97cfaf41155f7d967168ee268ded8ce6da370e98f2090a9928680df0644ea49659a0b5944586cec71d18
978c3848fc24345e794ed172d6225652115664eb014d2e24cffeaafc944e12149ebbfd2bb9350b988a7e39a55c606e5904c4d90b115b29dcac9e122070af33ae2e9bcb7c0249e0aca136b3a48fe3ecd135d814b185231360112ef9dc97f01565337b27f37b882229500095c95c95d51c2e842fd7e90235cd0ea05abc9bff7934
12c37a532bc946b575ad013d6c6b028827a4f3c774bd8111b69c680a80bafc29b4d811e1c2ff492a543ab346d9a53b86720c0568db0ffae3d847c752247cf2a2fd312ff69fcabb6249b937509979df5d824e4481dcac2a4ea57c2ba25299ccccdfaa3ec33f28e1b40c3d0edb744493ef8bb966431ac025228fc3f7b54ebcc799
77b8f201ffbc130a041a6398f4f1384c3bfa4524635fb5d377f78253978a9f89ce42e389c03245cbf6e9337a4e70343097b87e584de6e0929ebfdb138572cb1a777cdd0c6e23d150c75638ff028572874dbfc51430f8bae8d59482929f62e6a41cddcd9ed2a6ec9b721393404441efca94729ff89a88384fb1740981aff25ff8
f345d8ea41cd010a5c08ff9ddc435e5a2faea3b8b87c86374a78fa153a7cf3cb4e142d094b1478ed5c99dd0ec003899febb57c88190baa1a8595a3aae838c762233a676e25cdc776835c27d6c793e4a6259c3367cc8fb8f019af047a171b5453484e1fe5642aa5d51f70130446b4bc042a729072e9d8f174b4620a9aab15db67
6d6670368156de4c6895276533bb67029970aa7557f63419208a004454fed98859a6e172a07462684ba414afcc7a937961191f41534cb66000cc22fa71d66919423db94ea67ccef4ad70b17e901fe7b081e90ddd8a5b372d8487d3cdbfaeec6ce99b69d7a131283ebdae71508427b6ae7b58c62a3e64d56897dc875c70978730
4488e3a38374f54a6f2dfb82dcc331560feeda13720e863c4f00b3ea6ad44bc13d962760be6ce79bfb8d13329d109acec0f0e8dd6ae80cb918a53d96177055e24aa90c92e57909a0620925ef1d4774f5e10d266c2eb4d0a167184434b3b11c6bd41527182e4c26fe844ee9299f2c4937a8b7e951305e2e265d447e026f3b3bb4
4c4c2cc56dd19af31e3da3b40d838fa69da72d88d374b5dc569b35dabcd8d5262ccb3a5e67eef3df9cc1cbc1ce717a6c312d395b3950cb0dd788f1afda87357018a041139514f280aa6417b009c5649530be5d0e08d38aeaa3fadd8347c2920e071c858808d14b73adab0de57a22d32d5e59d5ed730c97c53a8afb303aa81f75
ed52245f99445cccb711eb184a7731651d320d7c016ac0a33fb79ee8818f209dcf9a2f8acd19c796bc084484a4ef7e8d47392600ebf7fa9d87e8ce97ed0c108e1400f3a1a90af34cce53270c43f08cc359fc27f0c35c006d1b1b577b11a526fdc60688ece457268ec2f5431bed41bdbcca9aa58975f420b7a0ccd1e4cfdb6bc5
732eb277b76193a19be21e78cd04a428e51f2d872c9fc711ffe143ecb299e019b28adbb3400bbd53442bef9f7ce18ab8a3395fcd0155be52920a2c5ed5a6e17570d06dfb6228333a73a2bfce3f122e1574f9c5bdd5ad094cb9ce8a49ae475f4ffb76e2666c93cb933fb0eab58a213746143f5b699304caa8d4aeb5d05b18f426
1c208e9812d2ec32546df3785332af83624e171e3ec4bc6618f6a283a3324f684924200095b2c2e05bd960570fcf5417839d90242513c544871d64435e15cdc9772f411dacc2412d02fa1f0dfa47bb07fb0c0d9588b2dcc0a465f686378c5b636671302ac23e2c8207a44f68ad87946a69084892f797e9e437e702c5a6752737
6e20f7a5185d53ceb22f341ddafc3f51ceb886c812435c5f97870f86e6fb1f8ce9276cdec74ae25c1ec685e48bca87969e6836b96e8f46994a65c9c2ed9fdddaed4f58d8577179c195fa184368650aa998378976957d0cc70698a6f69eb619d0cedf3d72fc1361848071d1d6099ce9be449b3c09ea490db3ca3c38db6c1c0929
9cd58c3947b631410cc2b45735755308d2c1a5a8f6289baf5291563e993bf84fda4d4e70b482c868b5d3d5274b4c4661bf3a91843e7a13f6e13ae97419fb9f02aa14fa9d6a682e3ff29512f9c2ae96d2d34f7d9d55cd0a79cb37fdb3c7bbebddd9948baac0ae835c2fc4a2e3c454fba1926c80c9bfb71569e76c9579ef571d1d
fe7d0813f8ef694b49be176a33e5cfe861d1d7e756ab7cf1ee183e0102868178f0c99e83905383a09368042b99354871fcb6e5fe94b86774a1b6e5664f93902f5cdf20ee84c8944a26a62169d51be1a9fd404cf3e35754733823422c41fc3f48b994c7030c62f431d193a0f66ecaae810607d316d4f333b70bec5b37110ce62b
1c343d9212917d75ab1802ffadea14cea91460970d2fe2894e48e0e5679c8fc90662d570deaec9caaa1ac9584b220b169fe6209d4b5f6157a6ab9fa1c1bbfa0868af0f2a18ed1a83ccc21a648ba166d60d1233cdbae36d07f00146898aa45c9ffe53a19f421c978763a4b77425b35d3c0658aab1f0b588fc4c861f4ff8f4ee3d
1dd2196a131c0e2cde331b86f460e585d2ff5d8b19910d24aa670dac39980afab1d15728498550171a0b253a221559dbf153c9ea90423c074585eb3468dfa7df7d882518050cb4e3fc96d4e41a7b42bc641f9c692323f22bb234c9f4e00ff287c3d15e4cf38fe9537d5b16093893161db0c6f62ecab8bf9b168b40d7f2158d5c
979026723a660da696ac9cf62d94f6098d7c58489c4a497c1a8806fbc01ffae84fa46cf185784d91cb6622ad7029592e83480abfb23462ca5697afa1a1bcaf1b89e2ae79931fa9cf2e0717dc6bceb585450d35c59955e24771893b9ee93829aadf70a6e8659d1ebb4560c25a01b3f3cae1a17e0e82e84ca3bd88de58669fddac
1f4cc12488ee81d59b96419a781d488b064bbca0060c54777904b6e8833ed4213c829e0490182ce3c42281c540eb79ee3acaaf705e9abe457cf2d26cbc83620ee86b999559775c5cb5b49c34eeda0592365fdafec3c93149873406b760085f21159ba819f20befdb60099ad7eef52d96ff562386c39f874b261ced87717477b5
27cbcf4a5e810be833e71ef866720db4e06e35870ec425d5c2e2a2df317b1dc83162a013892f8c2f6f6e0a86f4891947ff184544731fff219a811e5bc24d8c3443e0faa2018a95360bd132fe5aa426dcd31076580be2e13a98c8add8c1abd5bd2594c2d4266b1be950dab250c020dc7cbb6ec20e913a58fb84df81ec6f4efcd1
c9888be29388eca5aed9adcab56c63e99a6b270831bec65335e7b30c62089acfb395248570c1307588258c06716e4bca4a8ddad00ea1eef6b3a84ab7437d311539f6f4a7b0408ffbc3a5a775c2bc202f7ee90feda6029dffef92804a565c4d3c1545347d02d774bf79799389cb3d9e37ebe45a3b3e5c28e494dfd7237306869a
decca6502730370aaee06b5d488a49d847563b62c7d5f97410cac09de9ab7282cb271a373d5d8ed9d3294b1fb21569932411e51b939f7df2d6e476f288ebb578c2aee7ba3afc909f54c00e0d683284bc17439f449305a43e0b92b54782fddc931bb96a23820f74c0d31bb42f2889342c514c0b158b848b872f88dca4be5b765a
aabd95a290a3ca0e09944fc1159ea4e7e8ea15acb170f753541e22e7f60b0292033520c5716cbf613ebc1901e5a75b3d07abedfedc13638757e272526f92e4e8a5acffc8a2c46209d4de0c481dc4f65579078f98e28db3d31fb773827c5c0dd80fad31e7f8eb9cf2b054b10840e38c223a9d1f3916468b3758400d29003f69f7
48f79f22367c1220d8359803d59ac6fcb689dd490b3b94052bfc8d11d2a8f18754eb1139dca37ed60af9133bc45cbac5e5c3046a6909f29821bf9204acd0fcdef92a6cef706c6fb3b3ca55a8b8f48fa1f989a4f62557d363cbb1b52d986fbdadef5ede76a2dbce365490612470abdb9d52a71fc213c51d8b78fa9fb84fc59782
5e66719b7e4ff5921c79365802ee8eb5b166ad71733a247aff56cddb6413fdd885839dfcec8b40c66259ca842f4127d3438260d7987bc92a22aa971af7a2fcea0f0daf4c779314c322f70a6d22056d582e5c3d579a1a98eed50157a178e5352cc94b4d93f6df61a107d24a9b9611ce62cb771ce87a0d863d335237b88c42a40a
9e171bf1b43bb54a3154cc0ba774dce4eb6358aa39002cc05f6e4f20868d530f961e28483d15875e46aebe683f34f7abbafc0807e850867994aac296141fa58c381eb6c9acb28abce6a79816db72e2863968f1c33039b7a88eeafd6842f566aecd90855d62150619d7bda696369815cc85d80c46048d096840c0fc3700c998de
e351bfa03e1497351c6c907bc93e92a05076cbaeb0e6473dfccd1fe9f4e6bd0e4c141f017137baeb23fd139b4c196bef5451c06c90b260e1e15648ad009f301bbe5c537aa844575d684cae02710e8f44899c243d37eba7c741ca6a4a35e9f5330f09331e0ef3e13ee047e90d8547c9e8770d5d8ffa524c908f470f21698be5a1
b5d86b94380655362bc38d1259b2108c2265193ff085e374420aeb922a9dfd03f371711e1ee738578e7dbf0d8798220c01d6abf0582d035cef29b0c392812f56edbb292706066ad81bd082c826d5369ee0ced9186ca9b0189f7da5f21db21ef17682b6b9a47a734fab57e281a9af94ce994448228d30e93ad06b610adba12356
c28e1e2485af0fb718c31ea94b17be8c75298d3966939f92c2968aabb3cac927715a61f671bf24d87734b496b20d75bb680240eec48b3b2f1b04ffc74f99c08984cec4078b8959ae68de3186d6b311a18a4937357ae5c420a2a34cf9166e1a8e8ba10ab45c303ecd6fe992a3fef2bab93cc18b2a833c56d3ccbd3a46766819fa
fe755067366cfa17f8d4a290f7887d61bea8edbb530f3f78543ba44f56ae46b63c79c1790c15d33e1e175918c7759370fd3f5d92c4fc81b4f36fe155a9e4ffa8b90a2754bc879398183ad15c8c04917947736d342114f5ba1159ff6e6df34328fc2ff0d436410a78520572f7657df0191f6259f8f2c67adb4ceb4bec30359b7b
5788c04051bd80b25e32957ca38ff02c9b92cf9c4c7235826a54a0eb761f4233475a6cf730d7b2aa262febad5abf5d9991be686c29d39ab3ff0575ffb2e0d1a7cdd38ebfd233570871798b0a7b72303b39a629ab5a50cdce063bab810c2e68f02a90f05fec990a5f5630567e0def09669612232f1e795864b09c09e0a2b4ac86
ff1a5a3092dcbf3a5c3f39509ffb29fce22aee19096bc402495c517991d631fb1133abd59317f8b4b268daa58d4c4d34b0e70a8943f462e7b229484e874c9ea8abfae2799ab929dca1102c0c2cc76c61aff9ea6f8148c4da61b13b5a9340016aa3d996409517d65b04aad5732e1bf4b4e479511f4ccfcacad9447445339468d7
8aebed5670437970b80f3745e90bdcc131426beb231aa335e6af9864c345c5554aa5f297ee1465b2ef06e2d547d68a62eef490d92073b362c6138a36cfbb5497c721849d2a89134a7dabe8de3c1317f336a2f7608eea8aebf417b32ad0b05d2283832da7f83a541eefbf7cade441ea41317937844e4f9271b5818509a1a4d7f4
33ca76c198b40ac358b778d820a88c8eccbf4962f0712b0546b754c951cb243b03d05f38bfc65737a7177c48a82d660c3275d741f86c7a80d83a2a9a9f17a32e5549a0fe30e26a81ca5507efe03fa589abe8a19295c72b672359d8c70b9354b7d1dac7cce98d948e2672fb62423753cb0e7510e85d98ff676b8f919fbe0c1ecd
34af7ec2d4e318c514ac682aa3226daa2414c62071cfe4efad8bd7b2f1b391fb5271fee7d7b1457919a6115507c55ff055b3ae016df90f05dcbf2c1b5b9ff370038846b1428ab5d4bc8207250c5667356ea67e7dc401310ceb9c1f2fe40ed2e62d13f0fe75109d04bf1251f507542502c718f9fb36252be66510cac0e2db137d
36f65b18df4fa47939358541e8812869807936b3e603c3442f8916d2a6be6d4dc0bf60bb25c0f95667ff38d0c72b28845e67b6f0c6fff2a0e042e2fa0b1774d2d998771df3bfb4e62414b7fabe60ce2089f14fcc6e28d70831e84c74d1e7605447c1ce8d50abc954f90c480bc851c1f29318b3675893ba19810482797e432583
2e6f026fff9ac0b73465d8b4532ae921bf2fbe2c17e1b6a21887cf7de9f45bec9de36568c955802bb35b2fecedccedbf1f5bfc3f2e87906de08e5efb32aba0569d51d51409d08bd789bd2554a0530faeaaaea844140a92e9f53ecb0eafb6f3fe2a5b24ba1f6e77bdce9484ad98c3ff81f72b9b8cc54384e3d24e5761ea9b45c1
cd80a2d0e19ac92d2eb28a3d5c496c07abc538081cce9008a6020ebd2914b2c0ca1c66fa770193e380d08aacc463d50dff8ae476571f042fa91b33aea3ab0b3c7ed9bef82cb21857122ce3d3fec12f18218bb54b4702548454a104645365f1329a86b9955b3ca7b7d4169c9f22129012f208014de15daab03b593bbefb8ed295
b39a2d4b53c9d96ae80865896459d20c78789e046655b492359f48dbda3246376eee14b996149b5937083bc71e5101058651c924778ee547dc89b2547be0c54ecab3c562ead55bb646e4939de40d58cc0236fbb3d1bd08b09fa96d16dc58f6233bcd01a25b90114cb89f966c107371739f1591a3dfec228bac9c5dff4db1fc92
8f6cfb91c749a34bada1fa4251f4252e7de12a9eff027b05ada44bcf2a48f0b51b88f8e7cfde1b311eb4844c8ec9705e16c6b5802be030cab4e9401ef2f2153d5d92a92f0dd6c2930f94f17c6434e96900d0bd700306d0d909e3dc30875e5275e058249b7e140c3b348bb56c570ede8466ea6c10faf6f89db19439e527c06989
5c3ae1c08677c1161d0f5ae53092af4e7229590be3e266d32d17fc7dad56bac44146ae0979c8870806d2ea4ea3b282be946e39f2f4cafed3c7e15188d7bfda1cba267cd039062f1d9cab1844ec1187c19ace81b85eb33d4e0426b815526fbbc59a2567bfad2cb7171785f9411046336a698d1bb46cb6d8acc39aaaf6e6b443f1
0d657ebbe4b008cd9d6856715dd6ad59c32638c270c622a2c7b236958d4f8cc6a8aa630749edb24c7a656232e4c0a3dceca93c7c3847c8e35b8285b771e2e990edf157f10caba33fd012a55256e5c4e88117456496047843ada6dd3fdd7e24f04b23c1caa21c94267d3196352228af0933e3d57c65bb7aa18ee7ebc081caffda
cb9077860f8f1d9e8bfdb615bce7c9b335b4c7d34ea22cc6e55798c11a394f7ddb3d9029b1be29f0a9d5491a9f5a6cf41912a3c3664f568167f9a77a8a187d69f007a0ae0288723bb3943395e878dc87904a0871144263e9111aabcfb318f927db49739615feb5b7cfef2efffa081e2966ad1459b77be1bc90a7142297dd903d
ba64e0479cff22cc7eebcfef2239f73a1a59552092d254bbced681c14e246a114c6ae7f643f16c2112886fb01c05f0f5cc06cfe427831b5b6866c51b2aa79c03c3f9161b590e384c9950c3bbd9c5e52834749371343aede5bc35c9c56c91f9eeb013fa199dfc5708c74f5697901417b9926b9ebd86252b931c65ffe915432a71
af812e4cda8d1cc9daf40822415ec225bb437c3a981427ca19e641c0e4468ce6598941c9006afb5b1764bd16f58d5ae9ad48d6a83ce9d3e9fa5852c7ee1c49c78128c63b65b8dff40cb4c3f8bf78007244172cb39f8554d8288af6cc9c5994a3d3f291268faa494ec3a4db71914d7c27f87e61d090994907a935b8e2df44346e
64abf8a4337d6afee8e9405431183319eae91218968f242bbd21c3b87e966d1eeabd2dc1e7106c9fe05c289b908b98a4dc96fbf1d4351b768d969a5b02aff37d5af46081d5e6edb9ad73abdffbec8cd77559f479141bf1c3a747e6c162f5b4177c820efccb49a5431e423619f90f4bc644c27627df15b5047363144fcb228f3e
ac39e0d97ea70dc721875ecc2535c29f65ffdc2ea8980a422058f66751c8893d4f8a15a46075b987a2b1528cfc610cc9ac32b9ded78e38061f403fb7529bd190abeef41159aa0a781897af835a11bbffe4b1264a92a81d9755a7fd2aa6ff42535a2112325a7a34b091adb929b08accdaea8e70ef56de0d3563dbd1566f5726a5
d570efb7eb446e5c7a22cfef9b461a13711c4a3f32f2ac85c82b9f2f0aaf3b9e85475aaa820d6fa027046319ce0a08a96a65d1f5ef8a679cc04802c2da0a9ccfbb3145405ada89005aaa4a0788c19637a20423d585902251da5cf16232f18bbec3b1fbb4b738f0e19637fb846c91eb5db719189eaf639f7c08ad6ab1cb75262d
8b68354e6d92a90c93f2bf1a7378f4712ffd92cbaa5ca227a4b34e29c972a5ea6e020b26f7d3c66ed3032682d97c88957c1f49a2971f0bbeafc91b4dc96309ee14647d2f570ce37e102dccb447828c008173b229886cdac3c14c37f5d32db7246a1da6561b781ec9d90b226697586e36e0839c454fc521bccb8ca8477688d3e6
4b96ac72734aaac8e0416c75a5eda492228d4aa575abafb129b5f2b78cf1aafc53ea00a1529dde126bdc87606eb09a761e36afafb0a15b9f349479eb671a7ac3831f42f9e66744d2e93e1251bb35c3497b3fab88df7176dcd57e5a9540ed8d16f2daa50c72c41f9c943e3d562bd1ff8d3687c3c3f9fb375fd3a6d120cd000b35
59e78f38ff964379c0d2aa6477ed77d6ebc2f9ecd8eca4e0c2feb98512c7d49ee54df9c93c5cb940eec6714ad8d4e6519753fdd2a1baf4477d8311d4ad9d21bbbf4e5cbb3da6b50b759c34db22d0a2aa70a98ddd3cd614dc23d4e5a27e4024ba6592398140066c389d0006172cca64a1580b6574ab85963d6910693b8e87a78f
b5c34287709176a7c391eeb1a5f55e6ee85072866efb16bbdaeb8889cc95c5d34e927330c174db7b39fe3b795a37fd19d1d76881de5319b6fefa58887142ac10461f55b9fd09e711b6c4891afe9c5e4f05eb29371bb605c5067e850f5d8ef20ad74025680653510e1e35f7145836959fadea2d6bf38baeb339d282cca34b5df4
530451c34772c2d8770e9610eb48542e6b323d8c9a3670db690cef897a48e16031aa959de6b085d99ad2d2232c320b54b525176c353e0c98a375cd254a363ceb3260c798e269e1d0a517c52dc9bd6cfc306cd0350aa03d2c5fcd4ddafcbde436a4bc9e8fe541c61f0f5c8d7b0ebf00cd7edf9eb64502714b98656de3015b0c2e
